#include "model.h"

alignas(8) const unsigned char model_temperature[] = {

  0x1c, 0x00, 0x00, 0x00, 0x54, 0x46, 0x4c, 0x33, 0x14, 0x00, 0x20, 0x00, 
  0x1c, 0x00, 0x18, 0x00, 0x14, 0x00, 0x10, 0x00, 0x0c, 0x00, 0x00, 0x00, 
  0x08, 0x00, 0x04, 0x00, 0x14, 0x00, 0x00, 0x00, 0x1c, 0x00, 0x00, 0x00, 
  0x8c, 0x00, 0x00, 0x00, 0xdc, 0x00, 0x00, 0x00, 0xf4, 0x26, 0x00, 0x00, 
  0x04, 0x27, 0x00, 0x00, 0xe8, 0x72, 0x00, 0x00, 0x03, 0x00, 0x00, 0x00, 
  0x01, 0x00, 0x00, 0x00, 0x04, 0x00, 0x00, 0x00, 0xda, 0xa2, 0xff, 0xff, 
  0x0c, 0x00, 0x00, 0x00, 0x1c, 0x00, 0x00, 0x00, 0x3c, 0x00, 0x00, 0x00, 
  0x0f, 0x00, 0x00, 0x00, 0x73, 0x65, 0x72, 0x76, 0x69, 0x6e, 0x67, 0x5f, 
  0x64, 0x65, 0x66, 0x61, 0x75, 0x6c, 0x74, 0x00, 0x01, 0x00, 0x00, 0x00, 
  0x04, 0x00, 0x00, 0x00, 0xe8, 0xa0, 0xff, 0xff, 0x34, 0x00, 0x00, 0x00, 
  0x04, 0x00, 0x00, 0x00, 0x08, 0x00, 0x00, 0x00, 0x6f, 0x75, 0x74, 0x70, 
  0x75, 0x74, 0x5f, 0x30, 0x00, 0x00, 0x00, 0x00, 0x01, 0x00, 0x00, 0x00, 
  0x04, 0x00, 0x00, 0x00, 0x92, 0xa0, 0xff, 0xff, 0x04, 0x00, 0x00, 0x00, 
  0x0d, 0x00, 0x00, 0x00, 0x69, 0x6e, 0x70, 0x75, 0x74, 0x5f, 0x6c, 0x61, 
  0x79, 0x65, 0x72, 0x5f, 0x33, 0x00, 0x00, 0x00, 0x02, 0x00, 0x00, 0x00, 
  0x2c, 0x00, 0x00, 0x00, 0x04, 0x00, 0x00, 0x00, 0x34, 0xa1, 0xff, 0xff, 
  0x90, 0x00, 0x00, 0x00, 0x04, 0x00, 0x00, 0x00, 0x13, 0x00, 0x00, 0x00, 
  0x43, 0x4f, 0x4e, 0x56, 0x45, 0x52, 0x53, 0x49, 0x4f, 0x4e, 0x5f, 0x4d, 
  0x45, 0x54, 0x41, 0x44, 0x41, 0x54, 0x41, 0x00, 0x58, 0xa1, 0xff, 0xff, 
  0x8f, 0x00, 0x00, 0x00, 0x04, 0x00, 0x00, 0x00, 0x13, 0x00, 0x00, 0x00, 
  0x6d, 0x69, 0x6e, 0x5f, 0x72, 0x75, 0x6e, 0x74, 0x69, 0x6d, 0x65, 0x5f, 
  0x76, 0x65, 0x72, 0x73, 0x69, 0x6f, 0x6e, 0x00, 0x91, 0x00, 0x00, 0x00, 
  0x14, 0x26, 0x00, 0x00, 0x0c, 0x26, 0x00, 0x00, 0xdc, 0x25, 0x00, 0x00, 
  0xc8, 0x25, 0x00, 0x00, 0xac, 0x25, 0x00, 0x00, 0x90, 0x25, 0x00, 0x00, 
  0x74, 0x25, 0x00, 0x00, 0x44, 0x25, 0x00, 0x00, 0x34, 0x24, 0x00, 0x00, 
  0x14, 0x24, 0x00, 0x00, 0x00, 0x24, 0x00, 0x00, 0xe8, 0x23, 0x00, 0x00, 
  0xd4, 0x23, 0x00, 0x00, 0xcc, 0x23, 0x00, 0x00, 0xc4, 0x23, 0x00, 0x00, 
  0xa8, 0x23, 0x00, 0x00, 0xa0, 0x23, 0x00, 0x00, 0x8c, 0x23, 0x00, 0x00, 
  0x74, 0x23, 0x00, 0x00, 0x60, 0x23, 0x00, 0x00, 0x4c, 0x23, 0x00, 0x00, 
  0x44, 0x23, 0x00, 0x00, 0x3c, 0x23, 0x00, 0x00, 0x34, 0x23, 0x00, 0x00, 
  0x2c, 0x23, 0x00, 0x00, 0x24, 0x23, 0x00, 0x00, 0x1c, 0x23, 0x00, 0x00, 
  0x14, 0x23, 0x00, 0x00, 0x0c, 0x23, 0x00, 0x00, 0x04, 0x23, 0x00, 0x00, 
  0xfc, 0x22, 0x00, 0x00, 0xf4, 0x22, 0x00, 0x00, 0xec, 0x22, 0x00, 0x00, 
  0xe4, 0x22, 0x00, 0x00, 0xdc, 0x22, 0x00, 0x00, 0xd4, 0x22, 0x00, 0x00, 
  0xcc, 0x22, 0x00, 0x00, 0xc4, 0x22, 0x00, 0x00, 0xbc, 0x22, 0x00, 0x00, 
  0xb4, 0x22, 0x00, 0x00, 0xac, 0x22, 0x00, 0x00, 0xa4, 0x22, 0x00, 0x00, 
  0x9c, 0x22, 0x00, 0x00, 0x94, 0x22, 0x00, 0x00, 0x8c, 0x22, 0x00, 0x00, 
  0x84, 0x22, 0x00, 0x00, 0x7c, 0x22, 0x00, 0x00, 0x74, 0x22, 0x00, 0x00, 
  0x6c, 0x22, 0x00, 0x00, 0x64, 0x22, 0x00, 0x00, 0x5c, 0x22, 0x00, 0x00, 
  0x54, 0x22, 0x00, 0x00, 0x4c, 0x22, 0x00, 0x00, 0x44, 0x22, 0x00, 0x00, 
  0x3c, 0x22, 0x00, 0x00, 0x34, 0x22, 0x00, 0x00, 0x14, 0x22, 0x00, 0x00, 
  0xf4, 0x21, 0x00, 0x00, 0xec, 0x21, 0x00, 0x00, 0xe4, 0x21, 0x00, 0x00, 
  0xdc, 0x21, 0x00, 0x00, 0xd4, 0x21, 0x00, 0x00, 0xcc, 0x21, 0x00, 0x00, 
  0xc4, 0x21, 0x00, 0x00, 0xbc, 0x21, 0x00, 0x00, 0xb4, 0x21, 0x00, 0x00, 
  0xac, 0x21, 0x00, 0x00, 0xa4, 0x21, 0x00, 0x00, 0x9c, 0x21, 0x00, 0x00, 
  0x94, 0x21, 0x00, 0x00, 0x8c, 0x21, 0x00, 0x00, 0x84, 0x21, 0x00, 0x00, 
  0x7c, 0x21, 0x00, 0x00, 0x74, 0x21, 0x00, 0x00, 0x6c, 0x21, 0x00, 0x00, 
  0x64, 0x21, 0x00, 0x00, 0x5c, 0x21, 0x00, 0x00, 0x4c, 0x20, 0x00, 0x00, 
  0x3c, 0x10, 0x00, 0x00, 0x2c, 0x0f, 0x00, 0x00, 0x24, 0x0f, 0x00, 0x00, 
  0x1c, 0x0f, 0x00, 0x00, 0x14, 0x0f, 0x00, 0x00, 0x0c, 0x0f, 0x00, 0x00, 
  0x04, 0x0f, 0x00, 0x00, 0xfc, 0x0e, 0x00, 0x00, 0xf4, 0x0e, 0x00, 0x00, 
  0xec, 0x0e, 0x00, 0x00, 0xe4, 0x0e, 0x00, 0x00, 0xdc, 0x0e, 0x00, 0x00, 
  0xd4, 0x0e, 0x00, 0x00, 0xcc, 0x0e, 0x00, 0x00, 0xc4, 0x0e, 0x00, 0x00, 
  0xbc, 0x0e, 0x00, 0x00, 0xb4, 0x0e, 0x00, 0x00, 0xac, 0x0e, 0x00, 0x00, 
  0xa4, 0x0e, 0x00, 0x00, 0x9c, 0x0e, 0x00, 0x00, 0x94, 0x0e, 0x00, 0x00, 
  0x8c, 0x0e, 0x00, 0x00, 0x84, 0x0e, 0x00, 0x00, 0x7c, 0x0e, 0x00, 0x00, 
  0x74, 0x0e, 0x00, 0x00, 0x6c, 0x0e, 0x00, 0x00, 0x64, 0x0e, 0x00, 0x00, 
  0x5c, 0x0e, 0x00, 0x00, 0x54, 0x0e, 0x00, 0x00, 0x4c, 0x0e, 0x00, 0x00, 
  0x44, 0x0e, 0x00, 0x00, 0x3c, 0x0e, 0x00, 0x00, 0x34, 0x0e, 0x00, 0x00, 
  0x2c, 0x0e, 0x00, 0x00, 0x24, 0x0e, 0x00, 0x00, 0x1c, 0x0e, 0x00, 0x00, 
  0x14, 0x0e, 0x00, 0x00, 0x0c, 0x0e, 0x00, 0x00, 0x04, 0x0e, 0x00, 0x00, 
  0xfc, 0x0d, 0x00, 0x00, 0xf4, 0x0d, 0x00, 0x00, 0xe4, 0x05, 0x00, 0x00, 
  0xd4, 0x01, 0x00, 0x00, 0x44, 0x01, 0x00, 0x00, 0x3c, 0x01, 0x00, 0x00, 
  0x34, 0x01, 0x00, 0x00, 0x2c, 0x01, 0x00, 0x00, 0x24, 0x01, 0x00, 0x00, 
  0x1c, 0x01, 0x00, 0x00, 0x14, 0x01, 0x00, 0x00, 0x0c, 0x01, 0x00, 0x00, 
  0x04, 0x01, 0x00, 0x00, 0xfc, 0x00, 0x00, 0x00, 0xf4, 0x00, 0x00, 0x00, 
  0xec, 0x00, 0x00, 0x00, 0xe4, 0x00, 0x00, 0x00, 0xdc, 0x00, 0x00, 0x00, 
  0xd4, 0x00, 0x00, 0x00, 0xcc, 0x00, 0x00, 0x00, 0xc4, 0x00, 0x00, 0x00, 
  0xbc, 0x00, 0x00, 0x00, 0xb4, 0x00, 0x00, 0x00, 0xac, 0x00, 0x00, 0x00, 
  0xa4, 0x00, 0x00, 0x00, 0x9c, 0x00, 0x00, 0x00, 0x7c, 0x00, 0x00, 0x00, 
  0x04, 0x00, 0x00, 0x00, 0x4a, 0xa3, 0xff, 0xff, 0x04, 0x00, 0x00, 0x00, 
  0x68, 0x00, 0x00, 0x00, 0x10, 0x00, 0x00, 0x00, 0x00, 0x00, 0x00, 0x00, 
  0x08, 0x00, 0x0e, 0x00, 0x08, 0x00, 0x04, 0x00, 0x08, 0x00, 0x00, 0x00, 
  0x14, 0x00, 0x00, 0x00, 0x2c, 0x00, 0x00, 0x00, 0x00, 0x00, 0x0a, 0x00, 
  0x0c, 0x00, 0x08, 0x00, 0x00, 0x00, 0x07, 0x00, 0x0a, 0x00, 0x00, 0x00, 
  0x00, 0x00, 0x00, 0x01, 0x04, 0x00, 0x00, 0x00, 0x00, 0x00, 0x00, 0x00, 
  0x0c, 0x00, 0x18, 0x00, 0x14, 0x00, 0x10, 0x00, 0x0c, 0x00, 0x04, 0x00, 
  0x0c, 0x00, 0x00, 0x00, 0xac, 0xf9, 0x88, 0x8f, 0x32, 0xab, 0x0d, 0x36, 
  0x02, 0x00, 0x00, 0x00, 0x02, 0x00, 0x00, 0x00, 0x04, 0x00, 0x00, 0x00, 
  0x06, 0x00, 0x00, 0x00, 0x32, 0x2e, 0x32, 0x30, 0x2e, 0x30, 0x00, 0x00, 
  0xbe, 0xa3, 0xff, 0xff, 0x04, 0x00, 0x00, 0x00, 0x10, 0x00, 0x00, 0x00, 
  0x32, 0x2e, 0x36, 0x2e, 0x30, 0x00, 0x00, 0x00, 0x00, 0x00, 0x00, 0x00, 
  0x00, 0x00, 0x00, 0x00, 0xfc, 0x90, 0xff, 0xff, 0x00, 0x91, 0xff, 0xff, 
  0x04, 0x91, 0xff, 0xff, 0x08, 0x91, 0xff, 0xff, 0x0c, 0x91, 0xff, 0xff, 
  0x10, 0x91, 0xff, 0xff, 0x14, 0x91, 0xff, 0xff, 0x18, 0x91, 0xff, 0xff, 
  0x1c, 0x91, 0xff, 0xff, 0x20, 0x91, 0xff, 0xff, 0x24, 0x91, 0xff, 0xff, 
  0x28, 0x91, 0xff, 0xff, 0x2c, 0x91, 0xff, 0xff, 0x30, 0x91, 0xff, 0xff, 
  0x34, 0x91, 0xff, 0xff, 0x38, 0x91, 0xff, 0xff, 0x3c, 0x91, 0xff, 0xff, 
  0x40, 0x91, 0xff, 0xff, 0x44, 0x91, 0xff, 0xff, 0x48, 0x91, 0xff, 0xff, 
  0x4c, 0x91, 0xff, 0xff, 0x2e, 0xa4, 0xff, 0xff, 0x04, 0x00, 0x00, 0x00, 
  0x80, 0x00, 0x00, 0x00, 0xf0, 0xda, 0xfa, 0xbc, 0x99, 0xfc, 0x2e, 0x3d, 
  0xe6, 0x73, 0xba, 0xbd, 0x94, 0xba, 0x2d, 0xbd, 0x05, 0xca, 0x20, 0xbd, 
  0x05, 0xbf, 0xd5, 0x3d, 0x64, 0x8f, 0x7b, 0x3e, 0x6c, 0x3e, 0x61, 0x3d, 
  0x9c, 0x44, 0x6c, 0x3f, 0xb5, 0x72, 0x78, 0x3f, 0x80, 0x0f, 0x6a, 0x3f, 
  0xb9, 0x91, 0x62, 0x3f, 0xb7, 0x8e, 0x6b, 0x3f, 0x8f, 0xf4, 0x8a, 0x3f, 
  0xc0, 0x04, 0x9d, 0x3f, 0x13, 0x52, 0x89, 0x3f, 0xf2, 0x38, 0xde, 0xbc, 
  0x7b, 0x6a, 0x18, 0x3d, 0x57, 0x8c, 0x0d, 0xbd, 0x53, 0xc6, 0x50, 0x3d, 
  0xdc, 0x69, 0x12, 0x3d, 0xb6, 0x10, 0x23, 0xbd, 0xe2, 0xb6, 0x7d, 0xbd, 
  0x48, 0x2a, 0x0e, 0x3d, 0xeb, 0xb4, 0x0b, 0xbd, 0x89, 0x09, 0x3e, 0x3d, 
  0x00, 0xc5, 0xc1, 0xbd, 0x69, 0xc9, 0x5e, 0xbd, 0x6a, 0x83, 0x32, 0xbd, 
  0x03, 0x24, 0x9e, 0x3d, 0xa3, 0xff, 0x5f, 0x3e, 0xb4, 0xa6, 0x3f, 0x3d, 
  0xba, 0xa4, 0xff, 0xff, 0x04, 0x00, 0x00, 0x00, 0x00, 0x04, 0x00, 0x00, 
  0x7b, 0x73, 0xb3, 0xbe, 0x05, 0xed, 0x47, 0x3e, 0x63, 0x45, 0xac, 0x3b, 
  0x6b, 0x92, 0xa0, 0xbd, 0x65, 0x82, 0x50, 0x3e, 0xd4, 0xc4, 0x26, 0x3e, 
  0xb0, 0x7b, 0xea, 0xbd, 0x64, 0xae, 0x08, 0x3e, 0xfb, 0x01, 0x54, 0xbe, 
  0x5e, 0x36, 0x13, 0xba, 0xd1, 0xdd, 0x9f, 0x3d, 0x9f, 0x06, 0xc5, 0xbe, 
  0xc9, 0x90, 0x3c, 0xbe, 0x84, 0xf4, 0xa4, 0x3e, 0x42, 0x51, 0x85, 0xbd, 
  0x00, 0xd7, 0xad, 0xbe, 0x03, 0x1d, 0x07, 0x3e, 0x76, 0xd2, 0x4e, 0xbe, 
  0x9e, 0x98, 0x9d, 0xbe, 0xd2, 0xd1, 0x15, 0x3e, 0x09, 0xb2, 0xba, 0xbd, 
  0x14, 0x3d, 0xd8, 0x3d, 0x47, 0xda, 0x94, 0x3e, 0x49, 0xb2, 0x0c, 0x3c, 
  0x50, 0x8f, 0xdc, 0x3d, 0x9f, 0xfe, 0xc6, 0xbd, 0x20, 0x32, 0xa9, 0x3e, 
  0x29, 0xc0, 0x62, 0x3d, 0xe2, 0x55, 0x80, 0xbe, 0xa2, 0xcd, 0x14, 0x3d, 
  0x94, 0x13, 0x1b, 0xbe, 0xf6, 0xc6, 0x11, 0x3e, 0x99, 0x0f, 0x56, 0xbe, 
  0x5e, 0xfc, 0xae, 0x3d, 0xac, 0x9a, 0x4a, 0x3e, 0xc8, 0x9f, 0x80, 0x39, 
  0x1d, 0x2a, 0x68, 0xbe, 0xd0, 0x97, 0x80, 0x3d, 0x7f, 0xfd, 0xde, 0xbe, 
  0x5e, 0x0e, 0xf4, 0x3b, 0x3e, 0xc7, 0xb6, 0xbe, 0x92, 0x30, 0x92, 0xbe, 
  0xaa, 0xf9, 0x3a, 0xbe, 0x08, 0x65, 0xd3, 0xbe, 0x57, 0x1e, 0xa0, 0x3e, 
  0xf8, 0xcc, 0x18, 0xbe, 0x45, 0xd9, 0x8c, 0x3e, 0xbd, 0x43, 0xb6, 0xbd, 
  0x58, 0x22, 0x6b, 0x3d, 0x2f, 0x92, 0xd0, 0x3e, 0xc8, 0x68, 0x34, 0x3d, 
  0xb4, 0x55, 0x10, 0xbe, 0x1c, 0xe8, 0xe9, 0x3e, 0x17, 0xbc, 0xda, 0xbd, 
  0x1a, 0x7d, 0xc5, 0xbd, 0x9c, 0xe4, 0xe6, 0xbc, 0x07, 0xe8, 0xb1, 0xbe, 
  0x5d, 0x2a, 0x0e, 0xbd, 0xb2, 0x5b, 0xbc, 0xbd, 0x44, 0xe0, 0xd0, 0x3e, 
  0xd0, 0xcb, 0xef, 0x3e, 0xf2, 0x99, 0x86, 0xbe, 0x89, 0xe7, 0x94, 0xbe, 
  0xc3, 0x55, 0x51, 0xbb, 0x0a, 0xf1, 0x91, 0xbd, 0x74, 0x2d, 0xa4, 0xbe, 
  0x70, 0xef, 0x22, 0xbe, 0x9d, 0x11, 0x20, 0x3a, 0x83, 0x77, 0x63, 0xbe, 
  0x3e, 0x0f, 0xe0, 0x3d, 0xc5, 0x68, 0x5b, 0x3e, 0xfb, 0x28, 0x69, 0x3e, 
  0x11, 0x85, 0x8c, 0xbd, 0x81, 0x7c, 0x94, 0xbd, 0xb3, 0x79, 0x9f, 0x3d, 
  0x0d, 0xe2, 0x49, 0xbe, 0xc1, 0x0a, 0xb0, 0xbd, 0x17, 0x0a, 0xc6, 0x3d, 
  0x8b, 0x46, 0x11, 0x3e, 0xae, 0xf5, 0x90, 0xbc, 0xb5, 0x68, 0x98, 0xbe, 
  0x63, 0x66, 0x8a, 0xbe, 0xf9, 0x6d, 0x72, 0xbd, 0x07, 0xad, 0xa8, 0xbd, 
  0xe5, 0x1b, 0x1b, 0xbe, 0xc6, 0xf6, 0x7a, 0xbd, 0xc1, 0x3c, 0x72, 0xbd, 
  0x15, 0x90, 0xee, 0x3d, 0xae, 0x5f, 0x8a, 0xbd, 0x28, 0x1c, 0x46, 0xbe, 
  0x8d, 0x15, 0x0e, 0x3d, 0x30, 0xa4, 0xad, 0x3d, 0xac, 0x75, 0x2a, 0x3d, 
  0x02, 0xa2, 0x02, 0x3f, 0x7e, 0xad, 0x40, 0x3e, 0xbe, 0x1f, 0x86, 0x3e, 
  0x0b, 0xf5, 0xf1, 0xbc, 0xc1, 0xa3, 0xc1, 0xbb, 0xb5, 0xc2, 0xab, 0xbd, 
  0xda, 0xff, 0x03, 0x3b, 0xa1, 0xce, 0xe1, 0x3d, 0x65, 0xb3, 0x2d, 0x3e, 
  0xd2, 0x19, 0x9c, 0x3e, 0xad, 0x1d, 0xcb, 0xbe, 0xbe, 0xfe, 0x76, 0xbd, 
  0x29, 0xc8, 0x5a, 0xbe, 0x65, 0x5a, 0x3c, 0x3d, 0x79, 0xfa, 0xd6, 0x3c, 
  0xe9, 0xdf, 0x35, 0xbd, 0xc3, 0x4a, 0x6f, 0x3d, 0x2a, 0x85, 0x66, 0xbe, 
  0x59, 0x5d, 0x9b, 0xbe, 0xaa, 0xea, 0xb6, 0x3d, 0x79, 0xf7, 0x3c, 0x3c, 
  0x6e, 0x71, 0xe9, 0xbd, 0x8a, 0x5f, 0x96, 0xbe, 0x09, 0x28, 0xba, 0x3e, 
  0x0c, 0x22, 0x27, 0x3e, 0x12, 0xdb, 0xd3, 0xbe, 0x95, 0x09, 0x34, 0xbd, 
  0xf7, 0x7f, 0x00, 0xbf, 0x1f, 0x34, 0x97, 0x3d, 0x21, 0xfc, 0x5a, 0xbd, 
  0xa7, 0x6f, 0xba, 0x3e, 0xc8, 0x2d, 0x74, 0xbd, 0x69, 0x98, 0xee, 0x3d, 
  0xf0, 0x9d, 0x13, 0x3e, 0x4c, 0xd3, 0x11, 0xbe, 0xef, 0x61, 0x17, 0x3c, 
  0x0b, 0x39, 0xcd, 0xbc, 0x1b, 0x9b, 0x84, 0xbe, 0x21, 0x04, 0x7e, 0xbe, 
  0xe3, 0x1a, 0x8a, 0xbe, 0x3d, 0xfe, 0x58, 0x3e, 0x30, 0xed, 0x48, 0x3d, 
  0xfd, 0x9b, 0x56, 0x3e, 0x97, 0xee, 0x02, 0xbe, 0xda, 0xcf, 0xfd, 0x3d, 
  0xd0, 0x13, 0x0f, 0xbe, 0xbf, 0xd0, 0x34, 0xbb, 0xcf, 0x45, 0x8f, 0xbe, 
  0xf4, 0x6a, 0x04, 0xbe, 0x86, 0x0a, 0x0a, 0x3e, 0x6f, 0x88, 0x9d, 0x3c, 
  0xed, 0xfe, 0xbe, 0xbd, 0x4c, 0xe3, 0x60, 0xbe, 0xbf, 0x28, 0x57, 0xbe, 
  0x7c, 0x0c, 0x96, 0x3e, 0x60, 0x79, 0x05, 0x3e, 0x0e, 0x24, 0xc2, 0xbd, 
  0x70, 0x28, 0xfb, 0xbd, 0x98, 0x1f, 0x67, 0x3d, 0xae, 0xdb, 0x82, 0xbe, 
  0xa0, 0xe1, 0xda, 0x3e, 0x30, 0xf4, 0x50, 0xbd, 0xd4, 0x3c, 0x0d, 0xbe, 
  0x94, 0x99, 0x9a, 0xbd, 0x10, 0x6e, 0x47, 0x3c, 0xee, 0x20, 0x21, 0xbc, 
  0x6f, 0x88, 0x37, 0xbe, 0xe3, 0x71, 0x45, 0xbe, 0x0d, 0x9d, 0x9e, 0x3d, 
  0x80, 0xbf, 0xd9, 0x3d, 0xa6, 0xc9, 0x41, 0x3e, 0x15, 0xf6, 0x45, 0xbe, 
  0x64, 0xc1, 0xee, 0x3d, 0xfb, 0xcf, 0x12, 0x3e, 0x38, 0x9b, 0x44, 0x3d, 
  0xb6, 0xc9, 0x8b, 0xbd, 0x53, 0x3c, 0x5a, 0xbd, 0xda, 0x41, 0x4e, 0x3d, 
  0x47, 0x8d, 0x4f, 0x3e, 0x4a, 0x1c, 0x21, 0x3d, 0x8d, 0xad, 0x6c, 0x3e, 
  0xa0, 0x50, 0x92, 0x3e, 0x9e, 0xc5, 0x0c, 0x3f, 0x03, 0x06, 0x01, 0xbd, 
  0x3c, 0xc2, 0x24, 0xbd, 0xd8, 0xb2, 0x43, 0xbe, 0x3c, 0xca, 0x04, 0x3c, 
  0xd4, 0xed, 0xdb, 0x3d, 0x61, 0xd0, 0x31, 0x3e, 0x32, 0x33, 0xf7, 0xbd, 
  0xbf, 0x1a, 0xad, 0x3e, 0x96, 0x55, 0xdc, 0x3d, 0x0c, 0x1c, 0xa0, 0xbe, 
  0x2f, 0xcb, 0x0d, 0xbe, 0xb6, 0xe3, 0x67, 0xbe, 0xae, 0x95, 0x11, 0x3d, 
  0x74, 0xa9, 0xf1, 0x3e, 0xf9, 0xe4, 0x4c, 0x3e, 0x8f, 0x77, 0x02, 0x3e, 
  0x1a, 0xb4, 0x88, 0xbd, 0x7b, 0x72, 0x8f, 0x3d, 0x3b, 0x50, 0x61, 0xbe, 
  0x78, 0x14, 0x85, 0xbd, 0x79, 0x22, 0x0c, 0x3e, 0x10, 0xfd, 0x32, 0x3e, 
  0xf4, 0x10, 0x56, 0x3d, 0x27, 0xbd, 0xbd, 0x3e, 0x69, 0xfb, 0x1b, 0xbe, 
  0xac, 0x89, 0xa7, 0xbe, 0xd0, 0x6e, 0x81, 0x3e, 0x60, 0x26, 0x8c, 0xbe, 
  0x32, 0xe4, 0x8f, 0xbe, 0x3c, 0x30, 0x91, 0xbe, 0xa3, 0x56, 0x1c, 0xbd, 
  0xb1, 0x25, 0x87, 0xbd, 0x12, 0x06, 0xfc, 0x3d, 0x26, 0x2e, 0x8b, 0xbe, 
  0x5e, 0xeb, 0xb0, 0x3e, 0x1d, 0x80, 0xa1, 0xbd, 0x42, 0x70, 0xe2, 0x3d, 
  0x51, 0x41, 0x98, 0x3d, 0xf5, 0xb0, 0xb1, 0x3e, 0x00, 0x45, 0x0b, 0xbe, 
  0xb2, 0x6a, 0xca, 0xbc, 0xa0, 0xeb, 0x1e, 0xbd, 0x14, 0x74, 0x50, 0x3d, 
  0x2a, 0x24, 0x80, 0x3d, 0x0b, 0x0c, 0xa5, 0x3c, 0xc6, 0x61, 0xe6, 0xbb, 
  0x01, 0x33, 0x64, 0xbe, 0xea, 0x24, 0x7c, 0xbd, 0xdd, 0x73, 0x96, 0xbd, 
  0xbf, 0x5e, 0x11, 0xbe, 0x76, 0x46, 0x79, 0xbb, 0x85, 0x57, 0x89, 0x3c, 
  0xff, 0x89, 0x45, 0x3d, 0x05, 0x92, 0x31, 0x3d, 0x95, 0xad, 0xde, 0xbe, 
  0x74, 0x7b, 0x14, 0xbd, 0x21, 0x86, 0x73, 0x3e, 0x4c, 0x5e, 0x15, 0x3e, 
  0xb3, 0x0e, 0x6e, 0x3d, 0xcf, 0xe1, 0x0c, 0x3e, 0x38, 0xc9, 0xd0, 0xbd, 
  0x3a, 0xfa, 0x8f, 0xbd, 0x12, 0x51, 0xd4, 0xbd, 0xb0, 0x08, 0x3b, 0xbe, 
  0x16, 0xc0, 0xa6, 0xbd, 0xde, 0xdc, 0x5e, 0x3e, 0x61, 0x9f, 0x06, 0xbe, 
  0x03, 0x46, 0xe6, 0xbd, 0x17, 0x56, 0x30, 0x3e, 0xd8, 0x0d, 0xf6, 0xbe, 
  0xb5, 0x22, 0xe2, 0xbd, 0xf4, 0x08, 0x10, 0x3e, 0x2b, 0x57, 0x3c, 0xbe, 
  0x64, 0xd3, 0xe1, 0x3c, 0xd7, 0x48, 0x26, 0xbf, 0x4d, 0x08, 0x1c, 0x3d, 
  0xca, 0x93, 0x30, 0xbd, 0xa2, 0x4e, 0x7a, 0x3b, 0x7d, 0x4a, 0x7e, 0xbd, 
  0xfe, 0x2d, 0x01, 0xbe, 0xc6, 0xa8, 0xff, 0xff, 0x04, 0x00, 0x00, 0x00, 
  0x00, 0x08, 0x00, 0x00, 0xde, 0x2b, 0x25, 0xbe, 0x3f, 0x8e, 0x2b, 0xbe, 
  0xd0, 0x27, 0x94, 0xbe, 0x37, 0xd7, 0xc1, 0xbb, 0x9b, 0x65, 0x2c, 0x3c, 
  0x30, 0x83, 0x36, 0x3c, 0x33, 0x36, 0x9d, 0xbd, 0x66, 0x5b, 0xb8, 0xbe, 
  0x32, 0x49, 0x6b, 0x3e, 0xd8, 0x7b, 0xbb, 0x3e, 0xee, 0x18, 0xd3, 0x3d, 
  0x98, 0xb2, 0xe2, 0x3e, 0x94, 0xd0, 0xc0, 0xbe, 0x78, 0x16, 0xb2, 0x3d, 
  0x7c, 0x62, 0x9a, 0xbe, 0xd8, 0xdb, 0x85, 0x3e, 0xf7, 0xf1, 0x9e, 0x3c, 
  0x13, 0x4b, 0xe1, 0xbd, 0x1b, 0x71, 0x59, 0x3e, 0xc5, 0x18, 0xe6, 0x3e, 
  0xe9, 0x72, 0x05, 0xbe, 0x6e, 0xa6, 0xae, 0xbe, 0xe5, 0x94, 0x80, 0x3d, 
  0xca, 0xe7, 0xb9, 0x3e, 0xc9, 0x4f, 0xd2, 0xbe, 0x32, 0xa0, 0x44, 0x3e, 
  0x56, 0x11, 0xcf, 0x3d, 0xaa, 0x24, 0xab, 0xbe, 0x17, 0x9d, 0x94, 0x3d, 
  0xbd, 0x4b, 0x9e, 0xbe, 0x8a, 0xb6, 0x3e, 0xbe, 0x11, 0x69, 0x28, 0x3e, 
  0xa7, 0x25, 0xe4, 0xbe, 0x82, 0x47, 0x00, 0x3e, 0x23, 0x82, 0x87, 0xbd, 
  0xc8, 0x91, 0x5c, 0x38, 0xea, 0x60, 0xdb, 0x3d, 0x54, 0x18, 0xb9, 0x3e, 
  0x8b, 0xb6, 0xbf, 0x3e, 0x25, 0x88, 0x7c, 0xbe, 0x0b, 0xc3, 0x95, 0x3d, 
  0x71, 0x74, 0x85, 0x3e, 0x5f, 0x6e, 0x64, 0x3e, 0x02, 0x85, 0x1f, 0xbe, 
  0xd5, 0x2f, 0x21, 0x3e, 0x42, 0xb2, 0x74, 0x3e, 0x3f, 0x20, 0x85, 0x3d, 
  0x9d, 0x5a, 0x12, 0xbe, 0x50, 0x4c, 0x44, 0x3e, 0xd4, 0xc3, 0x05, 0x3f, 
  0x2b, 0xe3, 0xe8, 0xbc, 0x25, 0xbb, 0x93, 0x3c, 0xc0, 0x8e, 0x94, 0x3e, 
  0x3c, 0xaa, 0xa4, 0x3d, 0x7b, 0x3b, 0xa3, 0xbe, 0x8f, 0x0c, 0xe2, 0x3d, 
  0x33, 0x2b, 0x83, 0x3e, 0x12, 0x24, 0x91, 0xbe, 0xfa, 0xa0, 0x44, 0x3e, 
  0x37, 0x27, 0x91, 0xbe, 0x59, 0xf0, 0x4b, 0x3f, 0x6b, 0x0c, 0x80, 0x3d, 
  0x13, 0x0a, 0x7b, 0x3d, 0x2b, 0x47, 0x0b, 0xbe, 0x97, 0xf5, 0xb1, 0x3d, 
  0x5c, 0xe5, 0x59, 0xbe, 0xb2, 0x45, 0x8b, 0x3e, 0xce, 0xdc, 0x18, 0x3e, 
  0xa8, 0x37, 0x54, 0xbe, 0x47, 0x90, 0x7a, 0x3e, 0x4c, 0x57, 0x8c, 0x3e, 
  0xb9, 0x3e, 0xbf, 0x3e, 0x93, 0x2f, 0x3d, 0x3e, 0x34, 0x37, 0x5d, 0x3d, 
  0xdb, 0x42, 0xbe, 0xbd, 0xd8, 0x02, 0x40, 0xbd, 0xca, 0x9d, 0xaf, 0x3d, 
  0x4c, 0x21, 0x8d, 0x3e, 0x57, 0x8b, 0x41, 0xbe, 0x37, 0x82, 0x09, 0x3e, 
  0xb1, 0x64, 0x91, 0x3e, 0xf9, 0x64, 0x07, 0xbd, 0x92, 0x17, 0x0b, 0x3e, 
  0x71, 0x79, 0x80, 0xbe, 0x56, 0x46, 0xb6, 0x3e, 0x03, 0x69, 0xf5, 0x3d, 
  0x1b, 0x3e, 0x3b, 0x3e, 0x4d, 0x74, 0xe4, 0x3e, 0xbb, 0xb7, 0x2f, 0x3e, 
  0xbb, 0x6a, 0x46, 0x3e, 0x23, 0x1a, 0x02, 0xbe, 0xbd, 0x65, 0x37, 0xbe, 
  0xe6, 0x10, 0x3d, 0x3e, 0xa6, 0x85, 0x5c, 0xbd, 0xf2, 0x23, 0xb8, 0xbd, 
  0x6d, 0x28, 0x80, 0x3e, 0xc0, 0x06, 0xd4, 0x3e, 0x8b, 0xbb, 0xa2, 0xbc, 
  0xb3, 0x04, 0xd1, 0xbe, 0x0c, 0x13, 0x63, 0xbe, 0x47, 0x88, 0x74, 0x3e, 
  0x1b, 0x41, 0x80, 0xbe, 0xc9, 0x72, 0xb7, 0xbe, 0x6f, 0xee, 0x23, 0x3f, 
  0xd6, 0xde, 0xdb, 0x3d, 0x3c, 0xaf, 0xc7, 0x3d, 0x58, 0x54, 0x6d, 0xbd, 
  0x81, 0x8e, 0xa4, 0x3d, 0xe4, 0x95, 0xf6, 0xbc, 0x4c, 0x61, 0x40, 0xbe, 
  0x2f, 0xce, 0x79, 0x3e, 0xcc, 0xad, 0x13, 0x3b, 0x82, 0x67, 0xff, 0xbd, 
  0xd3, 0x4b, 0x9a, 0x3d, 0xff, 0xe5, 0xe4, 0x3e, 0x43, 0x1b, 0x54, 0xbe, 
  0x71, 0x7f, 0xac, 0xbd, 0xbd, 0x4f, 0x7a, 0x3e, 0x6d, 0x2e, 0xc3, 0x3d, 
  0x5e, 0xb1, 0x5b, 0x3e, 0x52, 0xd9, 0x8e, 0xbd, 0xc2, 0x0a, 0xac, 0x3d, 
  0xa6, 0x96, 0x41, 0x3b, 0xdc, 0xa1, 0x5a, 0x3d, 0x48, 0xca, 0x6c, 0xbe, 
  0xf1, 0x88, 0x7c, 0x3e, 0xa7, 0x89, 0xc0, 0xbe, 0x7c, 0xf1, 0xa0, 0xbe, 
  0x19, 0x51, 0x07, 0xbe, 0x61, 0x67, 0x93, 0xbe, 0xbf, 0x5d, 0x1b, 0x3e, 
  0x42, 0x92, 0x30, 0xbe, 0x35, 0xa7, 0xab, 0xbe, 0x1b, 0x3d, 0xb3, 0x3e, 
  0x9d, 0xb7, 0x66, 0x3e, 0x6a, 0x74, 0xb3, 0xbe, 0xf3, 0x34, 0xf1, 0xbd, 
  0x12, 0x2b, 0xec, 0xbd, 0xbd, 0xf3, 0x35, 0x3e, 0xdc, 0x0a, 0x04, 0x3e, 
  0x53, 0xaa, 0xf1, 0xbd, 0xa6, 0x07, 0xa1, 0xbe, 0xb7, 0x87, 0x06, 0xbd, 
  0xad, 0x24, 0xbe, 0x3d, 0x8c, 0x4a, 0x4b, 0x3e, 0x42, 0x57, 0x69, 0x3d, 
  0x0d, 0x9b, 0x2a, 0xbe, 0x6f, 0xe7, 0xfe, 0xbd, 0x9a, 0xd1, 0xd7, 0xbe, 
  0xd1, 0x3b, 0xd6, 0xbd, 0x07, 0x19, 0x1c, 0xbe, 0x43, 0x2c, 0xc0, 0xbe, 
  0x7d, 0xff, 0x7b, 0xbe, 0x67, 0x28, 0x89, 0xbe, 0x1a, 0x68, 0x08, 0xbe, 
  0xba, 0x8b, 0x95, 0xbe, 0xe6, 0x0e, 0x19, 0xbe, 0xa3, 0x05, 0xc2, 0xbe, 
  0x14, 0x35, 0x80, 0x3e, 0xd1, 0xa0, 0x4a, 0xbd, 0x7a, 0x84, 0xff, 0x3d, 
  0x1b, 0xbd, 0xa8, 0xba, 0x0d, 0xfb, 0x24, 0x3e, 0x12, 0xe4, 0x22, 0x3e, 
  0xce, 0x65, 0x1d, 0x3e, 0xee, 0x18, 0x66, 0xbe, 0x0a, 0xf0, 0x47, 0x3e, 
  0xe8, 0xca, 0x16, 0xbd, 0x89, 0x39, 0x44, 0xbd, 0x9f, 0x08, 0x76, 0x3e, 
  0xe2, 0x46, 0x1d, 0xbc, 0x06, 0x89, 0x08, 0xbc, 0x12, 0xef, 0xa0, 0x3e, 
  0x72, 0xe1, 0xbe, 0xbd, 0xe4, 0x77, 0xbf, 0xbc, 0xcf, 0xc7, 0x19, 0x3e, 
  0x25, 0xf9, 0x65, 0x3d, 0x3b, 0x8b, 0x4a, 0xbe, 0xce, 0xe6, 0x9c, 0x3d, 
  0x0c, 0x7a, 0x6c, 0xbe, 0x5a, 0x56, 0x32, 0x3e, 0xbf, 0xca, 0xe1, 0xbe, 
  0xf4, 0xaa, 0x3f, 0xbe, 0x34, 0x27, 0xbd, 0xbe, 0x0c, 0x26, 0x0a, 0xbc, 
  0x08, 0x76, 0xa4, 0xbe, 0x7b, 0xe3, 0x64, 0xbe, 0xeb, 0x30, 0x05, 0xbf, 
  0xa7, 0x88, 0x19, 0x3f, 0xa7, 0xff, 0x6c, 0xbd, 0x2d, 0x8a, 0x00, 0x3f, 
  0x30, 0x20, 0x9c, 0x3e, 0x3e, 0xf3, 0xa1, 0xbe, 0x38, 0x63, 0x9f, 0xbe, 
  0xfc, 0xe0, 0x3f, 0xbe, 0x58, 0x64, 0x0c, 0x3e, 0xd4, 0xd8, 0xb7, 0xbe, 
  0x3a, 0x69, 0x71, 0x3d, 0x62, 0x1c, 0xd3, 0x3d, 0xa4, 0x99, 0x56, 0xbe, 
  0xaf, 0x00, 0x98, 0xbe, 0x0a, 0xd9, 0x41, 0xbe, 0x23, 0xca, 0x4f, 0xbc, 
  0xf8, 0x88, 0x30, 0xbd, 0xdf, 0x95, 0x94, 0x3b, 0xc4, 0x37, 0x89, 0x3e, 
  0x90, 0xed, 0xfc, 0xbd, 0x7d, 0xfc, 0xae, 0x3e, 0xcb, 0xc2, 0xc0, 0xbd, 
  0x92, 0x9e, 0x49, 0xbe, 0x91, 0xd2, 0x09, 0xbe, 0x0a, 0xda, 0xd1, 0x3c, 
  0x89, 0xbc, 0x31, 0xbe, 0x7c, 0x3c, 0x81, 0x3e, 0xc9, 0x92, 0x54, 0x3e, 
  0xdf, 0xab, 0x1e, 0x3d, 0x03, 0x1c, 0xe2, 0xbd, 0x60, 0x9e, 0x1f, 0x3d, 
  0x52, 0x4c, 0x15, 0x3e, 0xe3, 0x79, 0x99, 0xbe, 0x25, 0x92, 0x71, 0x3e, 
  0x3c, 0x0c, 0xb0, 0x3e, 0xbc, 0xb3, 0x2e, 0x3c, 0xc6, 0x96, 0xa8, 0xbd, 
  0xd9, 0x27, 0xa5, 0xbd, 0x96, 0xb6, 0x98, 0xbd, 0xe4, 0xc2, 0x66, 0x3e, 
  0x39, 0x41, 0xc1, 0x3d, 0xd8, 0x11, 0x3c, 0xbe, 0x91, 0x55, 0x76, 0x3e, 
  0x75, 0xe9, 0xd6, 0x3d, 0x8f, 0xe5, 0x05, 0x3e, 0x58, 0xa1, 0x4a, 0xbe, 
  0xdc, 0x1f, 0xd1, 0x3e, 0x75, 0xb8, 0x6d, 0x3e, 0xd4, 0xac, 0x84, 0xbe, 
  0xcf, 0x80, 0xdb, 0x3d, 0x7f, 0xa5, 0x80, 0x3e, 0x53, 0x8e, 0xa4, 0xbb, 
  0xb7, 0x5b, 0xec, 0xbd, 0x71, 0x6a, 0x36, 0x3e, 0x58, 0x71, 0x54, 0x3e, 
  0x42, 0x25, 0x2b, 0x3e, 0xfe, 0x12, 0x6d, 0x3c, 0x53, 0x65, 0x99, 0xbe, 
  0x9f, 0xea, 0xfc, 0x3e, 0x90, 0x17, 0xe7, 0x3e, 0xb6, 0xc5, 0x0f, 0xbe, 
  0xc8, 0x95, 0x87, 0xbe, 0xb7, 0xcc, 0xe8, 0x3d, 0x2e, 0xaa, 0x31, 0xbe, 
  0xa5, 0xf4, 0x0d, 0x3f, 0xfa, 0x63, 0x4c, 0xbe, 0x8e, 0x9b, 0x9b, 0xbe, 
  0x33, 0x5b, 0x97, 0xbe, 0xac, 0x20, 0x5e, 0x3d, 0x4f, 0x34, 0x97, 0xbd, 
  0xae, 0x2d, 0x23, 0x3e, 0xfc, 0xa9, 0xf2, 0x3d, 0x6f, 0xbf, 0xb5, 0x3c, 
  0x6a, 0xf4, 0x92, 0x3c, 0xc9, 0x46, 0xfc, 0xbd, 0xa6, 0x38, 0xa3, 0xbe, 
  0x74, 0x12, 0xf2, 0xbd, 0xb9, 0x14, 0x05, 0xbe, 0x56, 0xd3, 0x34, 0x3e, 
  0xa1, 0x7a, 0x81, 0x3e, 0xf4, 0x15, 0x3b, 0x3e, 0x7e, 0x2e, 0x47, 0x3d, 
  0x41, 0x3a, 0x90, 0x3e, 0x8e, 0x76, 0xaf, 0x3e, 0xaa, 0x98, 0x12, 0xbe, 
  0xdc, 0x76, 0x52, 0x3d, 0x2a, 0x13, 0x4d, 0x3e, 0x28, 0xca, 0xda, 0xbe, 
  0x1e, 0xfb, 0x5f, 0x3e, 0x76, 0xc6, 0xa2, 0x3d, 0xe5, 0x7d, 0xdc, 0xbe, 
  0x77, 0x88, 0x7e, 0xbe, 0xf0, 0x47, 0xb5, 0x3c, 0x9a, 0xe0, 0xa8, 0xbc, 
  0x61, 0x0a, 0x86, 0x3e, 0xb3, 0x4a, 0x5f, 0x3e, 0x3e, 0xe2, 0x5a, 0xbe, 
  0xa2, 0x71, 0xaa, 0x3e, 0xab, 0x02, 0xee, 0x3b, 0x78, 0xef, 0x34, 0x3e, 
  0x55, 0x3c, 0x95, 0x3e, 0xf4, 0xc6, 0x0d, 0xbe, 0xc6, 0x07, 0x52, 0x3e, 
  0x73, 0x6c, 0x14, 0xbe, 0xa9, 0xd0, 0x60, 0x3d, 0xa2, 0x3a, 0x30, 0xbe, 
  0x32, 0xfd, 0x8d, 0xbe, 0xbb, 0x6c, 0x52, 0xbd, 0x70, 0x7e, 0x67, 0xbe, 
  0xd6, 0xe7, 0xd6, 0x3d, 0x47, 0xd9, 0x97, 0xbd, 0x0e, 0x3e, 0xa4, 0xbe, 
  0x6d, 0x51, 0x80, 0xbe, 0x75, 0xf0, 0xb5, 0x3d, 0x6d, 0x30, 0x5b, 0x3d, 
  0x84, 0x56, 0x84, 0x3e, 0x19, 0x5d, 0x57, 0x3e, 0x7f, 0xea, 0x92, 0xbd, 
  0x80, 0xd5, 0x9a, 0x3e, 0x9e, 0x94, 0x79, 0x3e, 0xd5, 0xa7, 0x80, 0xbe, 
  0x12, 0x66, 0xa0, 0xbd, 0x5a, 0x54, 0x47, 0x3d, 0x68, 0x49, 0x32, 0xbe, 
  0x37, 0xb5, 0xa4, 0x3d, 0xd3, 0x4b, 0x23, 0x3e, 0xe8, 0xef, 0xaa, 0x3e, 
  0x90, 0x23, 0x1a, 0xbe, 0x05, 0xb3, 0x84, 0xbe, 0x9f, 0x1f, 0x03, 0x3f, 
  0xf3, 0xed, 0x9d, 0x3e, 0xeb, 0xc2, 0x9e, 0x3e, 0xee, 0x62, 0x97, 0x3e, 
  0xc7, 0x20, 0x83, 0xbe, 0x55, 0xd6, 0x43, 0xbe, 0x39, 0x54, 0x2c, 0xbe, 
  0x23, 0x95, 0xaf, 0x3c, 0xdc, 0xf9, 0x20, 0x3e, 0x44, 0x6f, 0x4a, 0xbe, 
  0xd1, 0x5a, 0x66, 0x3d, 0x18, 0xae, 0x00, 0xbe, 0x3e, 0xfb, 0xab, 0xbe, 
  0x91, 0xda, 0x47, 0xbe, 0x4e, 0xe7, 0x9d, 0xbc, 0xae, 0xd7, 0x37, 0xbe, 
  0x4d, 0x9a, 0xec, 0x3e, 0x4f, 0xa3, 0x01, 0x3e, 0xc1, 0x3a, 0x7e, 0xbe, 
  0xb8, 0x82, 0x0b, 0x3e, 0x8d, 0xe5, 0xe7, 0xbe, 0xf8, 0xa9, 0xcd, 0xbe, 
  0x86, 0x64, 0x37, 0xbe, 0xf6, 0xe5, 0x52, 0xbe, 0x95, 0xa9, 0xf8, 0xbd, 
  0x37, 0xca, 0xd2, 0x3d, 0xa1, 0x50, 0xbe, 0x3e, 0x0a, 0x16, 0x00, 0xbe, 
  0x73, 0x7a, 0x2b, 0xbd, 0x5f, 0x07, 0x50, 0x3e, 0x2b, 0x44, 0x61, 0xbc, 
  0xf2, 0xc7, 0x6c, 0x3e, 0xba, 0xda, 0xe3, 0xbe, 0x02, 0xd3, 0xd0, 0xbe, 
  0x8a, 0x63, 0x02, 0xbe, 0x47, 0x59, 0xcd, 0x3d, 0x05, 0x8f, 0x3e, 0x3c, 
  0x9a, 0x2d, 0x88, 0xbe, 0xef, 0x06, 0x08, 0x3d, 0x6e, 0xc4, 0xb8, 0xbe, 
  0x32, 0x03, 0x35, 0x3d, 0x66, 0x17, 0x91, 0xbd, 0xb5, 0xf5, 0x83, 0x3e, 
  0x85, 0xd2, 0x34, 0xbd, 0x06, 0x24, 0xff, 0x3e, 0x4c, 0xdc, 0xa8, 0xbe, 
  0xba, 0x62, 0xc0, 0xbe, 0xbb, 0x66, 0x9d, 0x3e, 0x50, 0x07, 0x21, 0xbd, 
  0x3a, 0x2b, 0x58, 0xbe, 0x4c, 0xd5, 0x7b, 0x3e, 0xd9, 0x54, 0x84, 0x3e, 
  0x61, 0x7a, 0xdc, 0xbd, 0x2b, 0x96, 0xed, 0xbd, 0x22, 0x1b, 0x40, 0x3e, 
  0xf2, 0xa8, 0xdb, 0x3d, 0x6c, 0x12, 0x57, 0x3b, 0x86, 0x7c, 0x94, 0xbe, 
  0x73, 0xad, 0x5d, 0xbe, 0xf4, 0x76, 0x1f, 0xbe, 0x97, 0xb3, 0x82, 0x3e, 
  0x16, 0xb2, 0xe6, 0x3d, 0x89, 0xcf, 0xa1, 0xbe, 0xae, 0xd4, 0xe8, 0xbc, 
  0x41, 0x81, 0x03, 0x3e, 0x7d, 0x58, 0x06, 0xbe, 0x47, 0xed, 0xc8, 0x3d, 
  0xeb, 0x95, 0x10, 0xbe, 0x5a, 0xb9, 0x34, 0x3d, 0x3f, 0xeb, 0x28, 0x3e, 
  0xfe, 0xc2, 0x4e, 0xbe, 0x4a, 0x5f, 0x72, 0xbd, 0x9a, 0x61, 0x4d, 0xbe, 
  0x4f, 0xcc, 0x5d, 0x3e, 0xb2, 0xde, 0xd1, 0x3e, 0x54, 0x70, 0xb1, 0xbe, 
  0xcd, 0xb3, 0x51, 0x3e, 0xc0, 0xbd, 0x8a, 0x3d, 0x69, 0x30, 0x83, 0xbd, 
  0x15, 0x15, 0x11, 0x3e, 0xbb, 0x8c, 0x17, 0xbf, 0xd6, 0xde, 0x36, 0xbe, 
  0x35, 0xd9, 0x73, 0xbe, 0xcd, 0x25, 0x98, 0xbd, 0xb4, 0x79, 0xeb, 0x3e, 
  0xdf, 0x5c, 0x8c, 0xbd, 0x3a, 0xdd, 0xc1, 0xbd, 0x79, 0x8b, 0x28, 0x3e, 
  0x5c, 0x0d, 0x70, 0x3d, 0x49, 0x5d, 0x90, 0xbe, 0xad, 0xd9, 0x2f, 0xbc, 
  0x54, 0xc1, 0xe9, 0xbc, 0x1d, 0x18, 0x25, 0x3e, 0x40, 0x92, 0x97, 0xbd, 
  0x9f, 0x46, 0xb7, 0xbc, 0x16, 0x59, 0x8d, 0xbe, 0xa3, 0xc3, 0x9a, 0x3e, 
  0x96, 0x0b, 0xb7, 0xbc, 0xeb, 0x86, 0xb1, 0xbd, 0xf4, 0xae, 0x00, 0x3e, 
  0x30, 0xcf, 0x9b, 0xbe, 0x14, 0x5b, 0x8a, 0x3e, 0x2d, 0x91, 0x82, 0xbe, 
  0x48, 0xf1, 0xf3, 0xbc, 0xba, 0xad, 0x81, 0xbe, 0x4a, 0x40, 0x29, 0xbd, 
  0xc3, 0x28, 0x71, 0x3e, 0xe1, 0x10, 0x89, 0xbe, 0x85, 0xc1, 0xae, 0xbc, 
  0x4e, 0x6c, 0x75, 0xbe, 0x98, 0x31, 0x54, 0x3e, 0x2a, 0x73, 0x8c, 0x3e, 
  0x5e, 0x25, 0xcc, 0xbd, 0x2e, 0x57, 0x99, 0xbe, 0x0a, 0xe2, 0x4b, 0x3d, 
  0x3b, 0x10, 0xab, 0x3e, 0x7f, 0xa0, 0xc9, 0x3d, 0x34, 0xa7, 0xf1, 0xbc, 
  0x05, 0x4c, 0x05, 0x3e, 0x62, 0x9c, 0xdd, 0x3e, 0x36, 0x92, 0x7c, 0x3e, 
  0xcd, 0x34, 0x63, 0xbd, 0xb4, 0x72, 0x29, 0xbf, 0x11, 0x92, 0x3b, 0xbe, 
  0x6d, 0x00, 0xe5, 0xbd, 0x85, 0x67, 0x87, 0xbe, 0xe9, 0xda, 0x33, 0x3e, 
  0xa6, 0x97, 0x23, 0xbf, 0x6a, 0xb4, 0x89, 0x3f, 0x5b, 0x5c, 0xac, 0x3e, 
  0x19, 0xd6, 0x00, 0x3e, 0x9b, 0xf7, 0xd2, 0x3e, 0x88, 0x9b, 0xc4, 0xbe, 
  0x96, 0xf9, 0xab, 0xbe, 0xb7, 0x9c, 0x0f, 0x3e, 0x9b, 0xab, 0xb4, 0xbc, 
  0x19, 0x5b, 0x8d, 0x3e, 0xb6, 0x44, 0x50, 0xbe, 0xf2, 0xdc, 0x9f, 0xbe, 
  0xab, 0xb0, 0xc5, 0xbd, 0x2e, 0xb7, 0xb0, 0xbe, 0x97, 0xc3, 0x2a, 0xbe, 
  0xd3, 0xa6, 0x69, 0x3d, 0xeb, 0x88, 0x34, 0xbe, 0xde, 0xdb, 0xea, 0x3e, 
  0x6d, 0xa4, 0x5c, 0x3e, 0x86, 0x46, 0xca, 0xbd, 0xcb, 0x1e, 0xb1, 0x3e, 
  0x4e, 0xf3, 0x05, 0xbe, 0x2d, 0xe8, 0xb0, 0x3d, 0xed, 0xcb, 0x47, 0xbe, 
  0x42, 0xf1, 0xcf, 0xba, 0x29, 0xa0, 0x05, 0x3e, 0x51, 0xbb, 0xba, 0xbe, 
  0x56, 0x1b, 0xe6, 0xbe, 0xe3, 0xc6, 0xb1, 0x3e, 0xbe, 0x66, 0x3e, 0xbd, 
  0xb4, 0x15, 0x58, 0xbe, 0x0a, 0x08, 0xa0, 0x3e, 0xd2, 0x60, 0x36, 0xbe, 
  0x7b, 0x87, 0x82, 0x3e, 0xe2, 0x5f, 0xd8, 0x3d, 0x65, 0x82, 0x21, 0x3e, 
  0xb4, 0x38, 0x8e, 0xbe, 0x2a, 0x4c, 0x05, 0x3f, 0xbc, 0x3b, 0xda, 0x3d, 
  0xc4, 0x41, 0xe1, 0xbe, 0x1b, 0xaa, 0xc8, 0xbd, 0x9e, 0x0c, 0x0d, 0x3f, 
  0xcd, 0xf4, 0x8c, 0xbd, 0x36, 0xee, 0xdb, 0x3d, 0x34, 0xde, 0xcd, 0x3e, 
  0x93, 0xc7, 0x9c, 0x3d, 0x32, 0xaa, 0xc5, 0xbb, 0xee, 0x3f, 0x6f, 0xbd, 
  0x48, 0xbf, 0xa3, 0xbe, 0xf3, 0x90, 0x43, 0x3f, 0x73, 0xf7, 0xb3, 0x3e, 
  0x88, 0x2d, 0x23, 0xbe, 0xa2, 0xf5, 0xc9, 0x3d, 0xea, 0xe3, 0xf2, 0xbe, 
  0x5b, 0x0c, 0x71, 0xbe, 0x7e, 0xaa, 0x11, 0x3e, 0x6a, 0x9c, 0xb1, 0xbe, 
  0xb5, 0x24, 0x91, 0x3d, 0xcd, 0x11, 0xa6, 0x3e, 0xa1, 0x23, 0xd2, 0x3e, 
  0xbc, 0x56, 0x1f, 0xbd, 0x76, 0x5f, 0x96, 0xbc, 0xbc, 0x89, 0xbb, 0x3b, 
  0xfd, 0x20, 0x7a, 0x3e, 0xb7, 0x4e, 0x17, 0x3f, 0xb9, 0x48, 0xfd, 0xbe, 
  0xd9, 0x98, 0x6c, 0xbe, 0x35, 0x96, 0xdc, 0xbe, 0x20, 0x36, 0x59, 0xbe, 
  0xf4, 0x9d, 0xff, 0xff, 0xf8, 0x9d, 0xff, 0xff, 0xfc, 0x9d, 0xff, 0xff, 
  0x00, 0x9e, 0xff, 0xff, 0x04, 0x9e, 0xff, 0xff, 0x08, 0x9e, 0xff, 0xff, 
  0x0c, 0x9e, 0xff, 0xff, 0x10, 0x9e, 0xff, 0xff, 0x14, 0x9e, 0xff, 0xff, 
  0x18, 0x9e, 0xff, 0xff, 0x1c, 0x9e, 0xff, 0xff, 0x20, 0x9e, 0xff, 0xff, 
  0x24, 0x9e, 0xff, 0xff, 0x28, 0x9e, 0xff, 0xff, 0x2c, 0x9e, 0xff, 0xff, 
  0x30, 0x9e, 0xff, 0xff, 0x34, 0x9e, 0xff, 0xff, 0x38, 0x9e, 0xff, 0xff, 
  0x3c, 0x9e, 0xff, 0xff, 0x40, 0x9e, 0xff, 0xff, 0x44, 0x9e, 0xff, 0xff, 
  0x48, 0x9e, 0xff, 0xff, 0x4c, 0x9e, 0xff, 0xff, 0x50, 0x9e, 0xff, 0xff, 
  0x54, 0x9e, 0xff, 0xff, 0x58, 0x9e, 0xff, 0xff, 0x5c, 0x9e, 0xff, 0xff, 
  0x60, 0x9e, 0xff, 0xff, 0x64, 0x9e, 0xff, 0xff, 0x68, 0x9e, 0xff, 0xff, 
  0x6c, 0x9e, 0xff, 0xff, 0x70, 0x9e, 0xff, 0xff, 0x74, 0x9e, 0xff, 0xff, 
  0x78, 0x9e, 0xff, 0xff, 0x7c, 0x9e, 0xff, 0xff, 0x80, 0x9e, 0xff, 0xff, 
  0x84, 0x9e, 0xff, 0xff, 0x88, 0x9e, 0xff, 0xff, 0x8c, 0x9e, 0xff, 0xff, 
  0x6e, 0xb1, 0xff, 0xff, 0x04, 0x00, 0x00, 0x00, 0x00, 0x01, 0x00, 0x00, 
  0x09, 0x8b, 0xae, 0x3d, 0x79, 0xb8, 0x0d, 0x3d, 0xa3, 0x88, 0x06, 0xbd, 
  0x87, 0xa6, 0x6a, 0x3d, 0x61, 0x5f, 0xa5, 0x3d, 0x45, 0xc4, 0xae, 0x3d, 
  0x22, 0xe6, 0x07, 0x3e, 0xd0, 0xe5, 0x33, 0x3d, 0xf3, 0xe8, 0x22, 0x3d, 
  0xf8, 0xd5, 0xb9, 0xbd, 0xbf, 0xdf, 0xb9, 0xbb, 0x62, 0x2d, 0xc5, 0x3d, 
  0xe5, 0x2e, 0x16, 0x3f, 0x97, 0xd9, 0x85, 0x3d, 0x3b, 0xd6, 0xba, 0xbb, 
  0x41, 0xdd, 0xaf, 0xbd, 0x3c, 0xfe, 0x80, 0x3f, 0xca, 0x15, 0x71, 0x3f, 
  0xda, 0x42, 0x76, 0x3f, 0x83, 0x60, 0x79, 0x3f, 0x57, 0x9c, 0x81, 0x3f, 
  0x84, 0xa6, 0x79, 0x3f, 0x98, 0xde, 0x7d, 0x3f, 0x92, 0x1b, 0x88, 0x3f, 
  0x66, 0x38, 0x83, 0x3f, 0x1c, 0x0b, 0x68, 0x3f, 0x94, 0x23, 0x78, 0x3f, 
  0xd0, 0x93, 0x7e, 0x3f, 0xe9, 0xc9, 0x89, 0x3f, 0x01, 0x4c, 0x82, 0x3f, 
  0x21, 0x86, 0x70, 0x3f, 0x80, 0x6b, 0x68, 0x3f, 0x7f, 0xd1, 0xad, 0xba, 
  0x5d, 0x00, 0x74, 0xbb, 0x89, 0x1c, 0x0a, 0x3d, 0x0a, 0x9d, 0x20, 0xbd, 
  0x6a, 0x48, 0x03, 0x3d, 0x56, 0xb3, 0x38, 0x3d, 0x89, 0x33, 0xea, 0x3c, 
  0xdf, 0xbb, 0xc0, 0x3c, 0x0f, 0xad, 0xa0, 0x3c, 0x60, 0xa7, 0x15, 0x3c, 
  0x38, 0xb6, 0xec, 0xbb, 0x8b, 0xb7, 0x3a, 0x3d, 0x93, 0xb3, 0x4e, 0xbc, 
  0xa1, 0x10, 0x7b, 0xbb, 0x03, 0x0a, 0x58, 0xbd, 0xc6, 0x3d, 0xb6, 0xbc, 
  0xde, 0xcf, 0x9b, 0x3d, 0x3a, 0x0f, 0xe1, 0x3c, 0xa3, 0x8f, 0x09, 0xbd, 
  0x66, 0x3f, 0x5d, 0x3d, 0x0f, 0x53, 0xb2, 0x3d, 0x8e, 0xea, 0xaa, 0x3d, 
  0x91, 0x1e, 0xfd, 0x3d, 0x84, 0xd2, 0x2c, 0x3d, 0xd9, 0xfd, 0x23, 0x3d, 
  0xe7, 0x38, 0xbc, 0xbd, 0x68, 0x95, 0xde, 0xb9, 0xff, 0xeb, 0xba, 0x3d, 
  0x10, 0x5c, 0x01, 0x3f, 0x1e, 0x88, 0x9e, 0x3d, 0xb1, 0xc7, 0xf3, 0xbb, 
  0x3c, 0x5e, 0xad, 0xbd, 0x7a, 0xb2, 0xff, 0xff, 0x04, 0x00, 0x00, 0x00, 
  0x00, 0x10, 0x00, 0x00, 0xc6, 0x7d, 0x72, 0x3d, 0x30, 0xb7, 0x55, 0x3a, 
  0xd6, 0x3c, 0x14, 0x3e, 0xd7, 0xac, 0x6d, 0x3d, 0x86, 0xfc, 0xa3, 0xba, 
  0x66, 0x13, 0x85, 0x3d, 0xe3, 0xb8, 0x9b, 0x3c, 0xb4, 0x24, 0x22, 0x3d, 
  0x32, 0xde, 0x85, 0xbe, 0x00, 0x1b, 0x10, 0xbe, 0xb6, 0x16, 0xc1, 0x3d, 
  0xdc, 0x82, 0xf0, 0xbd, 0x53, 0xb9, 0xe0, 0x3e, 0xf9, 0x98, 0x15, 0x3e, 
  0x1b, 0xf2, 0x7f, 0xbd, 0x18, 0x1f, 0x79, 0xbd, 0xad, 0x0f, 0x55, 0xbe, 
  0x40, 0xa0, 0x1f, 0x3d, 0x9b, 0x40, 0x02, 0xbd, 0x04, 0x9f, 0xf5, 0x3c, 
  0xb4, 0xee, 0xd1, 0xbd, 0x3c, 0xee, 0x82, 0xbd, 0x60, 0x0a, 0x83, 0xbc, 
  0xfb, 0x21, 0x8e, 0xbd, 0x6b, 0xb0, 0x68, 0x3c, 0x36, 0xd1, 0xab, 0xbd, 
  0x79, 0x17, 0x4a, 0x3e, 0xc4, 0xae, 0xfc, 0x3d, 0xc7, 0x5b, 0x57, 0x3e, 
  0x7e, 0x92, 0x25, 0xbe, 0x99, 0xb5, 0x10, 0xbe, 0x3e, 0x26, 0x2c, 0xbe, 
  0xfd, 0x9c, 0xaf, 0x3d, 0x46, 0x33, 0x27, 0xbd, 0x49, 0x61, 0x0e, 0x3e, 
  0x09, 0xdf, 0x00, 0xbd, 0x3e, 0xa9, 0x33, 0xbe, 0x5f, 0x82, 0x08, 0x3d, 
  0x3e, 0x34, 0x49, 0xbd, 0x07, 0x6f, 0x5c, 0x3d, 0xca, 0xca, 0x72, 0x3d, 
  0xc9, 0xda, 0x87, 0xbc, 0x7e, 0x32, 0xe4, 0xbc, 0xdd, 0x74, 0x5f, 0x3d, 
  0xec, 0x73, 0xa7, 0xbb, 0x10, 0xaa, 0xfc, 0x3d, 0x8b, 0x8c, 0x78, 0x3c, 
  0xe1, 0xc5, 0xda, 0xbc, 0x89, 0x83, 0xe6, 0xbb, 0x3c, 0x4e, 0x02, 0x3e, 
  0xb8, 0x5a, 0x08, 0xbe, 0xeb, 0x8d, 0x40, 0x3c, 0xa6, 0x62, 0x1a, 0x3e, 
  0x40, 0x52, 0x02, 0xbc, 0xf4, 0x89, 0x7e, 0x3d, 0xb3, 0x3d, 0xb6, 0x3e, 
  0xe4, 0x58, 0x72, 0xbb, 0x09, 0x7d, 0xc3, 0xbd, 0xb2, 0x7a, 0x32, 0x3d, 
  0x17, 0x60, 0xd4, 0xbb, 0xa1, 0x00, 0x9d, 0xbd, 0xc7, 0xf7, 0x2b, 0x3e, 
  0xb7, 0x99, 0x27, 0xbd, 0x2a, 0x0d, 0x25, 0x3e, 0x50, 0x51, 0x0d, 0x3d, 
  0xca, 0x15, 0x46, 0x3e, 0x31, 0xa1, 0xbf, 0xbe, 0xb5, 0x37, 0x56, 0x3d, 
  0xa6, 0x18, 0x3f, 0xbc, 0x23, 0x79, 0xdc, 0x3b, 0xe4, 0xa1, 0xb5, 0xbe, 
  0x7f, 0x3f, 0x8c, 0x3e, 0xf2, 0xdc, 0x45, 0xbe, 0xe6, 0x3d, 0x4f, 0xbe, 
  0x60, 0x65, 0x82, 0x3e, 0x27, 0x26, 0xef, 0xbe, 0xc3, 0xc1, 0x16, 0x3f, 
  0xf8, 0x1b, 0x36, 0x3d, 0xd8, 0x5d, 0xa0, 0x3d, 0x3e, 0x1e, 0x92, 0xbc, 
  0x1c, 0xad, 0x4c, 0x3b, 0xae, 0x98, 0xa2, 0x3e, 0x87, 0x77, 0x9a, 0xbe, 
  0xa9, 0x79, 0x05, 0xbe, 0x8a, 0xfe, 0x30, 0x3e, 0x71, 0xc6, 0x47, 0xbe, 
  0x9a, 0x2b, 0x26, 0x3d, 0x1d, 0x44, 0x32, 0x3e, 0x85, 0x69, 0x36, 0xbd, 
  0xcd, 0x65, 0xf8, 0xbb, 0xc7, 0x5a, 0x37, 0xbd, 0x44, 0x95, 0x8e, 0xbe, 
  0x10, 0x52, 0x86, 0x3d, 0x35, 0x75, 0x40, 0x3e, 0x97, 0xf2, 0x32, 0xbd, 
  0xd4, 0xa9, 0xcc, 0xba, 0xc9, 0x0d, 0x71, 0x3e, 0x6b, 0x8f, 0xef, 0x3e, 
  0x65, 0xba, 0x1b, 0xbd, 0xe4, 0xbd, 0x7c, 0x3e, 0xe3, 0x44, 0x9a, 0x3d, 
  0xc6, 0x03, 0xe4, 0x3c, 0x51, 0x9e, 0xc2, 0xbd, 0xdc, 0x86, 0x08, 0x3f, 
  0x36, 0xc2, 0xa6, 0xbd, 0x96, 0xfb, 0x19, 0x3e, 0x84, 0xf0, 0x4d, 0x3e, 
  0x2a, 0x10, 0x38, 0xbd, 0xd8, 0xef, 0xa4, 0x3e, 0x1b, 0x69, 0x8f, 0x3e, 
  0x89, 0x82, 0x57, 0x3d, 0x08, 0x49, 0x0a, 0x3d, 0x8a, 0xe0, 0xf9, 0x3d, 
  0xd0, 0x75, 0x33, 0xbe, 0xb1, 0x6a, 0x43, 0x3e, 0x2e, 0x63, 0xe2, 0xbd, 
  0x56, 0xe5, 0x91, 0xbd, 0x47, 0x1f, 0xc2, 0x3d, 0x54, 0xb1, 0x8c, 0x3e, 
  0xa2, 0x2f, 0x58, 0xbe, 0xbf, 0xa8, 0xa4, 0x3e, 0x2e, 0xeb, 0x98, 0xbc, 
  0x44, 0xd9, 0x86, 0xbe, 0xff, 0xe9, 0x8e, 0xb9, 0x29, 0x21, 0xfb, 0x3c, 
  0x7c, 0xc6, 0xf5, 0x3d, 0xe4, 0x23, 0xae, 0xbe, 0x18, 0xdf, 0x83, 0x3d, 
  0xef, 0x1c, 0x39, 0xbe, 0xcc, 0xbb, 0x81, 0xbe, 0xce, 0xe2, 0x6f, 0x3e, 
  0x62, 0x8c, 0x9f, 0xbc, 0x37, 0xa9, 0x62, 0xbe, 0xac, 0x39, 0x16, 0x3e, 
  0x97, 0xaf, 0x69, 0x3e, 0xa2, 0x63, 0xdd, 0xbd, 0x42, 0xaf, 0x15, 0x3e, 
  0xa8, 0xf1, 0xc8, 0xbb, 0xee, 0x91, 0x83, 0xbe, 0x2c, 0x31, 0xa1, 0xbb, 
  0xb4, 0x8e, 0x44, 0xbd, 0x89, 0xf6, 0x08, 0xbe, 0x4b, 0x0b, 0x4f, 0xbd, 
  0x38, 0x9a, 0xf4, 0xbc, 0x97, 0x11, 0xb7, 0x3d, 0x4f, 0x5c, 0x4d, 0x3e, 
  0x85, 0xfb, 0xfc, 0x3c, 0x8d, 0x63, 0x8d, 0x3d, 0x87, 0x70, 0x8b, 0xbd, 
  0xae, 0x23, 0x07, 0xbc, 0x71, 0x1b, 0x83, 0x3e, 0x74, 0xd5, 0x2b, 0xbe, 
  0xdc, 0x6b, 0x22, 0xbd, 0xd0, 0xc0, 0xb1, 0xbe, 0x03, 0xc9, 0xd3, 0x3d, 
  0x52, 0x00, 0x2a, 0x3e, 0x09, 0x3e, 0x20, 0xbe, 0x66, 0x84, 0xd2, 0x3d, 
  0xde, 0x5c, 0x1a, 0x3e, 0xb9, 0x8a, 0x4e, 0x3d, 0x93, 0x96, 0xb3, 0xbd, 
  0x97, 0xca, 0x2a, 0xbd, 0x03, 0xb6, 0xc9, 0x3c, 0x9e, 0xee, 0xc1, 0xbc, 
  0xc3, 0x0b, 0xaa, 0xbd, 0x4b, 0x7a, 0x37, 0xbe, 0x1b, 0x32, 0x87, 0x3c, 
  0x1d, 0x19, 0xe7, 0xbc, 0xbd, 0xf6, 0x12, 0x3d, 0x35, 0xe1, 0x92, 0x3d, 
  0x60, 0xd0, 0x01, 0xbe, 0xee, 0x96, 0x13, 0xbe, 0x8f, 0xfa, 0x8d, 0x3e, 
  0x54, 0x72, 0x4d, 0x3e, 0xb6, 0x39, 0x01, 0xbc, 0x59, 0x9f, 0xd8, 0xbc, 
  0xa3, 0x18, 0x02, 0x3e, 0x50, 0x86, 0x0f, 0xbe, 0x13, 0xcc, 0x05, 0x3c, 
  0x7b, 0x1e, 0x02, 0x3e, 0xd5, 0x1e, 0x03, 0xbc, 0x9d, 0x64, 0x78, 0xbd, 
  0x9e, 0x59, 0x48, 0xbc, 0xba, 0x95, 0x82, 0x3e, 0x9b, 0xe4, 0xcb, 0xbd, 
  0xdf, 0x8f, 0x38, 0x3e, 0x8d, 0xbf, 0x88, 0x3e, 0xad, 0xaf, 0x5e, 0xbe, 
  0x6d, 0x1c, 0x07, 0xbe, 0x87, 0x3e, 0xfc, 0x3d, 0x29, 0x73, 0x0f, 0xbe, 
  0xf8, 0xb5, 0x26, 0x3e, 0xed, 0xe9, 0x1f, 0x3f, 0xdb, 0x06, 0x00, 0x3f, 
  0x16, 0x38, 0xe7, 0xbe, 0xf8, 0xce, 0x1a, 0x3f, 0x63, 0x01, 0x06, 0x3f, 
  0xb6, 0x11, 0x20, 0xbe, 0xd8, 0x65, 0x26, 0xbf, 0x62, 0x2b, 0x28, 0x3f, 
  0x93, 0xa3, 0x21, 0xbf, 0xdd, 0xf7, 0x01, 0x3f, 0xad, 0xdc, 0x00, 0x3f, 
  0x07, 0xa8, 0xc8, 0xbe, 0xc7, 0x4d, 0xec, 0x3e, 0xb3, 0xda, 0xf2, 0x3e, 
  0xf5, 0x37, 0x09, 0xbe, 0xec, 0x86, 0x9f, 0xbd, 0x42, 0xdb, 0x29, 0x3e, 
  0x77, 0x9d, 0xb1, 0x3d, 0xbe, 0x22, 0x74, 0xbe, 0xdf, 0xb1, 0x18, 0x3e, 
  0x92, 0x9c, 0x40, 0x3e, 0x3a, 0xd2, 0x41, 0x3e, 0x01, 0xca, 0x70, 0xbc, 
  0x2d, 0x80, 0x6b, 0xbd, 0x2d, 0xbe, 0x3e, 0xbc, 0x67, 0xf4, 0x3d, 0x3e, 
  0xf8, 0x96, 0x18, 0x3c, 0xd0, 0x45, 0x21, 0x3d, 0xcc, 0x5a, 0x1f, 0x3e, 
  0x11, 0x9a, 0x2a, 0x3e, 0xe9, 0x63, 0x96, 0x3e, 0x96, 0xaf, 0x4e, 0x3e, 
  0x8e, 0x8c, 0x19, 0x3e, 0x10, 0xf8, 0x81, 0x3d, 0xc1, 0x1f, 0x5b, 0xbd, 
  0x28, 0x77, 0x54, 0x3d, 0x8a, 0xff, 0x9c, 0x3e, 0x9a, 0xc0, 0xab, 0x3d, 
  0x5d, 0x27, 0x2e, 0xbc, 0xce, 0x08, 0x80, 0x3e, 0x94, 0x71, 0x02, 0xbe, 
  0x0f, 0xb4, 0xd5, 0x3d, 0x78, 0xf7, 0x87, 0x3d, 0x4a, 0x82, 0x5e, 0xbd, 
  0x46, 0x58, 0xc7, 0x3b, 0x25, 0x27, 0x9e, 0x3e, 0x3e, 0x15, 0x3d, 0x3d, 
  0x49, 0x49, 0x47, 0xbe, 0xb2, 0xd3, 0x8a, 0xbd, 0xfd, 0xfa, 0x4e, 0x3e, 
  0x18, 0x20, 0x02, 0xbe, 0xe0, 0x8c, 0xcf, 0xbd, 0x4c, 0x47, 0x2e, 0x3e, 
  0xb1, 0x62, 0x39, 0xbe, 0xdf, 0x78, 0x41, 0xbd, 0xe7, 0x09, 0x44, 0xbe, 
  0x31, 0x8b, 0x06, 0x3e, 0x71, 0x67, 0x66, 0xbe, 0xd2, 0x10, 0x31, 0xbe, 
  0x1e, 0xbe, 0x54, 0xbc, 0x1d, 0xf2, 0x93, 0x3d, 0x9f, 0xd3, 0x71, 0xbe, 
  0x05, 0x64, 0xab, 0xbd, 0x0b, 0xf0, 0x0b, 0x3e, 0x65, 0xc1, 0x83, 0xbe, 
  0xf6, 0x29, 0x81, 0xbc, 0x55, 0x71, 0x4d, 0x3e, 0x05, 0xa9, 0x30, 0x3e, 
  0x9e, 0x75, 0x8f, 0xbd, 0xfd, 0xfc, 0xf1, 0x3c, 0x98, 0x63, 0xe3, 0x3d, 
  0xc4, 0x41, 0x99, 0xbe, 0x0b, 0x8a, 0x00, 0x3e, 0xf7, 0x91, 0xba, 0xbd, 
  0x81, 0x23, 0x0f, 0xbc, 0x6a, 0xeb, 0x57, 0xbe, 0x21, 0x6c, 0xb2, 0x3e, 
  0x6a, 0x50, 0x7f, 0xbd, 0x84, 0x29, 0xf5, 0xbd, 0x80, 0xed, 0x17, 0xbd, 
  0xe1, 0xb2, 0x22, 0xbe, 0x2c, 0x44, 0x3d, 0xbe, 0x40, 0xdc, 0x32, 0x3d, 
  0x04, 0x66, 0x09, 0xbd, 0xdf, 0x8a, 0xe6, 0xbd, 0x1e, 0x4d, 0xb2, 0x3a, 
  0x26, 0x4d, 0x61, 0x3d, 0xab, 0xd9, 0x78, 0xbe, 0xac, 0x79, 0xd6, 0xbd, 
  0xe9, 0x9d, 0xdc, 0xbd, 0xae, 0xc9, 0x9c, 0xbe, 0x7e, 0x09, 0xa3, 0x3d, 
  0x5e, 0x33, 0x13, 0x3e, 0x79, 0x5f, 0x3a, 0xbe, 0x3e, 0xc4, 0xc3, 0xbc, 
  0xa3, 0x75, 0x54, 0x3c, 0xb2, 0xa6, 0xfc, 0x3d, 0xb6, 0xc8, 0xa7, 0xbc, 
  0xad, 0x21, 0xd2, 0x3d, 0x65, 0x9c, 0xf5, 0xbd, 0x02, 0x4b, 0x55, 0xbe, 
  0x32, 0x49, 0x89, 0x3e, 0xcd, 0xbb, 0xe1, 0x3d, 0x34, 0x52, 0x0f, 0xbd, 
  0x9b, 0x52, 0xc2, 0x3d, 0x89, 0x36, 0x79, 0x3d, 0xef, 0x4b, 0xb7, 0xbc, 
  0x1f, 0x7a, 0x1d, 0x3e, 0x94, 0x0a, 0x1b, 0x3e, 0x46, 0x6a, 0x10, 0xbd, 
  0xe7, 0x85, 0x4b, 0xbe, 0x44, 0x49, 0xf4, 0xbd, 0x22, 0xbe, 0x95, 0xbd, 
  0x33, 0x10, 0xf8, 0xbd, 0xe4, 0xc0, 0x99, 0x3d, 0x7b, 0x50, 0xae, 0x3b, 
  0x8e, 0x93, 0xcf, 0x3d, 0xbf, 0xc6, 0x82, 0xbe, 0xec, 0xfa, 0x14, 0xbe, 
  0x41, 0x31, 0x8c, 0x3d, 0x1d, 0x63, 0x47, 0x3e, 0x8c, 0xfe, 0x8a, 0x3d, 
  0xa7, 0x11, 0xa1, 0xbd, 0x49, 0xb7, 0xee, 0x3d, 0x7e, 0xf7, 0x83, 0xbe, 
  0x0f, 0x2c, 0xcb, 0x3d, 0x9d, 0x3f, 0xea, 0xbd, 0x7f, 0xcb, 0x3c, 0x3e, 
  0x09, 0x46, 0x00, 0x3e, 0x71, 0x44, 0x12, 0x3e, 0x2b, 0x4b, 0xe5, 0x3d, 
  0x28, 0x2f, 0x90, 0x3e, 0x63, 0x81, 0xc2, 0xbd, 0x9e, 0xd1, 0x7f, 0xbe, 
  0x8f, 0xa9, 0x25, 0xbd, 0x96, 0x56, 0xfe, 0x3d, 0xb1, 0xac, 0xc4, 0x3d, 
  0x01, 0xbb, 0x0a, 0xbe, 0xb0, 0x4a, 0x31, 0x3c, 0x78, 0xb4, 0x56, 0xbe, 
  0x81, 0xaa, 0xde, 0x3e, 0xca, 0xd1, 0x61, 0xbe, 0x06, 0xcb, 0x18, 0x3e, 
  0x52, 0xe8, 0x7b, 0x3e, 0x81, 0xea, 0xfe, 0x3d, 0x0b, 0xb6, 0x2d, 0x3e, 
  0x2a, 0x1a, 0x40, 0xbd, 0x7c, 0x7a, 0x35, 0x3e, 0x01, 0x46, 0x1c, 0xbd, 
  0xb5, 0xbf, 0x03, 0xbe, 0x96, 0x0f, 0xf8, 0x3d, 0xb6, 0xbe, 0xa4, 0xbe, 
  0x47, 0xc0, 0x19, 0x3b, 0x5d, 0xc7, 0x74, 0xbd, 0x36, 0xe3, 0x82, 0xbd, 
  0x33, 0xc5, 0x6a, 0xba, 0xaa, 0x4e, 0xe8, 0x3d, 0xcd, 0xef, 0x6b, 0xbd, 
  0x6e, 0x97, 0xe3, 0x3d, 0xc6, 0xdb, 0x28, 0xbe, 0x27, 0xad, 0x58, 0x3d, 
  0x72, 0x8c, 0x46, 0x3e, 0x55, 0x86, 0x44, 0xbe, 0xf2, 0x97, 0xfa, 0x3b, 
  0x0d, 0x84, 0x28, 0xbd, 0x92, 0xb4, 0x09, 0xbe, 0x92, 0x5f, 0x92, 0xbd, 
  0x25, 0xcd, 0xd4, 0xbd, 0x6c, 0x7c, 0xfe, 0xbd, 0x00, 0x87, 0x9d, 0x3d, 
  0xbe, 0xbe, 0x15, 0xbe, 0x47, 0xdc, 0xba, 0xbd, 0x04, 0x36, 0x83, 0x3d, 
  0x2b, 0x57, 0xda, 0x3c, 0x64, 0x6e, 0x1f, 0xbe, 0x11, 0xaf, 0x23, 0x3d, 
  0xeb, 0xa9, 0x11, 0xbe, 0x4d, 0xb1, 0x12, 0x3e, 0x7f, 0x90, 0x53, 0x3e, 
  0x1e, 0x8e, 0xab, 0x3d, 0xbf, 0xc7, 0xf3, 0xbd, 0x55, 0x46, 0x45, 0x3e, 
  0x24, 0x24, 0xb2, 0xbd, 0x74, 0xd9, 0xd4, 0x3c, 0xc7, 0x71, 0x17, 0xbd, 
  0x98, 0x8c, 0x1d, 0x3d, 0x77, 0x6b, 0xbe, 0xbe, 0x00, 0x28, 0xc1, 0x3d, 
  0xb5, 0xbe, 0xe7, 0xbd, 0xd7, 0x85, 0xd0, 0xbc, 0x7b, 0x48, 0x5c, 0xbe, 
  0xe9, 0x65, 0x0a, 0x3d, 0x50, 0xc8, 0xc7, 0xbe, 0x91, 0xa6, 0x9c, 0xbe, 
  0x51, 0x4e, 0x1d, 0x3e, 0xb1, 0x74, 0xf3, 0xbd, 0x64, 0xc5, 0x65, 0xbc, 
  0xa9, 0x84, 0x27, 0x3d, 0x9e, 0x1a, 0x28, 0x3d, 0x52, 0x82, 0x60, 0xbe, 
  0x88, 0xdb, 0x24, 0x3e, 0xe1, 0xd8, 0x00, 0xbe, 0xf0, 0x54, 0x2b, 0x3d, 
  0x05, 0x00, 0x97, 0xbc, 0x62, 0x6b, 0x5f, 0xbd, 0xc7, 0x49, 0x6e, 0x3c, 
  0xc8, 0x48, 0xcb, 0x3a, 0x7d, 0x22, 0x8b, 0xbc, 0x49, 0xde, 0xaa, 0x3d, 
  0x75, 0xac, 0x03, 0xbd, 0x96, 0xee, 0x31, 0x3e, 0x51, 0x48, 0x9d, 0xbd, 
  0x2f, 0x11, 0x79, 0xbc, 0x15, 0x28, 0x2f, 0xbe, 0x9a, 0x03, 0xd5, 0xbc, 
  0x6c, 0x30, 0x2c, 0xbd, 0xc8, 0x16, 0xa6, 0x3e, 0xc4, 0xfd, 0x4d, 0x3c, 
  0x92, 0xe1, 0x55, 0x3d, 0xb7, 0x1b, 0x6d, 0x3e, 0xe1, 0x26, 0x64, 0x3e, 
  0x48, 0x3f, 0x02, 0xbc, 0x99, 0x1a, 0x91, 0xbd, 0x81, 0x5d, 0x02, 0xbd, 
  0xa6, 0xef, 0x47, 0xbe, 0x11, 0x99, 0x7a, 0xbd, 0x3b, 0xec, 0xb1, 0x3c, 
  0x7a, 0xf7, 0x29, 0xbd, 0x57, 0xb1, 0x1f, 0x3d, 0xff, 0x6a, 0x81, 0x3d, 
  0x01, 0x75, 0x9a, 0x3e, 0x3b, 0x33, 0xaa, 0xbd, 0x56, 0x8b, 0xd2, 0x3d, 
  0x2b, 0x8d, 0x89, 0x3e, 0xf6, 0xe4, 0x08, 0xbe, 0xad, 0x90, 0x20, 0x3d, 
  0x8f, 0x41, 0xad, 0x3c, 0x4d, 0xf3, 0x40, 0xbd, 0xde, 0x7f, 0x7f, 0x3c, 
  0x89, 0x28, 0x5c, 0x3d, 0xba, 0xcc, 0xee, 0x3c, 0x9c, 0x4a, 0x25, 0x3e, 
  0x67, 0x4c, 0xd3, 0xbc, 0xea, 0xd0, 0xc0, 0xbd, 0xe2, 0xda, 0x74, 0x3d, 
  0x07, 0x22, 0x5c, 0x3e, 0x73, 0x68, 0x53, 0xbd, 0xea, 0x6b, 0x2a, 0x3e, 
  0x52, 0x44, 0x26, 0x3e, 0x8d, 0xea, 0xb4, 0xbd, 0x05, 0x4f, 0xad, 0xbd, 
  0x8a, 0xd7, 0x9c, 0xbd, 0xb2, 0x4a, 0xa3, 0x3d, 0x30, 0x26, 0xba, 0xbd, 
  0x7b, 0x19, 0xde, 0x3c, 0x2f, 0xd5, 0xae, 0xbe, 0x30, 0x9e, 0xe1, 0x3d, 
  0x97, 0x88, 0x49, 0xbc, 0xff, 0x5b, 0x8e, 0xbe, 0x7c, 0x39, 0x43, 0xbd, 
  0x28, 0xcc, 0x98, 0x3c, 0xf3, 0xdd, 0x6c, 0xbe, 0xc5, 0x03, 0x90, 0xbd, 
  0x61, 0x1a, 0xd3, 0x3d, 0x26, 0x91, 0xd6, 0xbd, 0x09, 0x8f, 0x6e, 0x3d, 
  0x94, 0x49, 0x64, 0x3e, 0xd7, 0x21, 0x76, 0xbd, 0xbc, 0xe0, 0x90, 0x3e, 
  0x11, 0x08, 0x0b, 0x3e, 0x09, 0x0d, 0xad, 0x3e, 0x5e, 0xd2, 0x5d, 0xbd, 
  0x67, 0xb7, 0x68, 0x3c, 0xc9, 0xaa, 0x2b, 0x3d, 0xe3, 0x57, 0x69, 0xbe, 
  0xdb, 0xfe, 0x72, 0x3d, 0x7f, 0x67, 0x15, 0x3e, 0xce, 0x3c, 0x56, 0xbd, 
  0xc6, 0xcc, 0xa0, 0x3c, 0xf6, 0xb0, 0xb9, 0xbd, 0x16, 0xd7, 0x6a, 0xbd, 
  0x6d, 0xc0, 0xc4, 0x3d, 0x58, 0x03, 0x01, 0x3e, 0xdd, 0xc2, 0x24, 0xbe, 
  0x2e, 0x8e, 0x96, 0x3d, 0xaa, 0x7a, 0xd7, 0x3d, 0x6c, 0x88, 0xb2, 0xbd, 
  0x1b, 0x4d, 0x32, 0x3e, 0xdb, 0x9f, 0xad, 0x3c, 0x26, 0x2d, 0xa1, 0xbc, 
  0x32, 0x52, 0x61, 0x3e, 0x1f, 0xda, 0x1d, 0xbd, 0x24, 0x84, 0x3a, 0x3e, 
  0xd7, 0xa4, 0x96, 0xbd, 0x9e, 0x23, 0x8a, 0x3d, 0xb7, 0x17, 0x1b, 0xbc, 
  0xe0, 0x8a, 0x60, 0xbe, 0x4e, 0x40, 0xd9, 0xbd, 0xe0, 0x14, 0x95, 0xbe, 
  0xf9, 0x14, 0x0a, 0xbe, 0xfa, 0xc0, 0x6c, 0xbc, 0x87, 0xb3, 0x3b, 0xbc, 
  0x4a, 0x2b, 0x08, 0xbe, 0xdb, 0x4e, 0xc5, 0x3d, 0x4c, 0xc9, 0x4e, 0x3d, 
  0x76, 0x7e, 0x3f, 0x3e, 0x7c, 0x8d, 0x0b, 0x3e, 0x11, 0x3c, 0x5e, 0xbe, 
  0xe8, 0xf0, 0xbb, 0xbc, 0x3f, 0xa6, 0xc9, 0xbc, 0xe5, 0xc1, 0x24, 0xbe, 
  0x83, 0x12, 0x1c, 0xbc, 0x20, 0x96, 0x27, 0x3e, 0xce, 0x13, 0x13, 0xbe, 
  0x5c, 0x98, 0x54, 0xbd, 0xa9, 0x37, 0x05, 0xbe, 0xfc, 0xad, 0x0f, 0x3e, 
  0xd2, 0xa3, 0x91, 0x3d, 0xb9, 0x64, 0x07, 0x3d, 0x8b, 0x70, 0x6f, 0x3e, 
  0x0e, 0x7f, 0x24, 0xbe, 0x3f, 0xfc, 0xdf, 0xbd, 0x25, 0xb6, 0xb3, 0x3d, 
  0x8a, 0xe4, 0x98, 0xbc, 0xc7, 0xac, 0x2d, 0x3e, 0xed, 0x9d, 0xbc, 0xbd, 
  0x17, 0x12, 0xb3, 0xbd, 0x77, 0x45, 0xec, 0xbd, 0xa7, 0x74, 0xe5, 0xbd, 
  0x59, 0x90, 0x70, 0xbd, 0x46, 0x13, 0x8a, 0x3e, 0x29, 0xe4, 0x38, 0x3d, 
  0xa0, 0xca, 0xb4, 0x3e, 0x0b, 0xa4, 0x98, 0xbc, 0xd1, 0xf3, 0x44, 0x3d, 
  0xbd, 0xcf, 0x5c, 0x3d, 0x9c, 0xee, 0x1e, 0x3e, 0x53, 0x98, 0x60, 0xbe, 
  0x94, 0xdf, 0xfd, 0xbd, 0xa8, 0x4b, 0xf0, 0xbd, 0x9c, 0xc7, 0xa7, 0x3d, 
  0x67, 0x48, 0xd1, 0xbc, 0xe5, 0x71, 0xd2, 0xbb, 0xeb, 0xb7, 0xba, 0x3e, 
  0x6b, 0xa1, 0x01, 0xbe, 0x15, 0x8c, 0x45, 0x3d, 0x02, 0xa2, 0x7d, 0xbe, 
  0x18, 0x64, 0x5a, 0xbd, 0x30, 0x7f, 0x55, 0x3e, 0xc8, 0xa3, 0x0a, 0xbc, 
  0x21, 0x53, 0x72, 0x3e, 0x22, 0xe6, 0x58, 0xbe, 0x3c, 0x55, 0xe8, 0xbc, 
  0x34, 0x83, 0x18, 0x3e, 0x6f, 0xe6, 0xb2, 0xbd, 0x8d, 0x90, 0xbe, 0xbd, 
  0x5c, 0x11, 0x36, 0xbe, 0xba, 0xfc, 0x21, 0xbc, 0x99, 0x6b, 0x2b, 0x3e, 
  0x03, 0x2e, 0x0b, 0x3e, 0xf1, 0x45, 0xfd, 0x3c, 0xfd, 0x5a, 0x40, 0xbe, 
  0x5f, 0xb0, 0x40, 0xbc, 0xf5, 0xf9, 0x68, 0xbd, 0xd8, 0x3d, 0x13, 0xbe, 
  0xa8, 0x66, 0x05, 0x3e, 0xa7, 0xbc, 0x5c, 0xbd, 0x58, 0x71, 0x96, 0xbd, 
  0xa6, 0x97, 0xd3, 0xbd, 0x65, 0x21, 0x67, 0xbe, 0xba, 0xca, 0x0a, 0xbe, 
  0xef, 0xf2, 0xe7, 0xbd, 0x43, 0x71, 0x8b, 0xbe, 0x35, 0xfd, 0x03, 0xbe, 
  0x93, 0xdc, 0xea, 0x3c, 0x06, 0x3a, 0xee, 0x3d, 0xa4, 0x0d, 0x61, 0xbd, 
  0x3b, 0xe2, 0x1c, 0xbc, 0x8d, 0x33, 0xbd, 0x3c, 0x61, 0x9f, 0x70, 0x3d, 
  0x31, 0x34, 0x09, 0xbe, 0xd5, 0x7b, 0x33, 0x3e, 0x97, 0x23, 0x38, 0xbd, 
  0x7e, 0x35, 0x66, 0x3d, 0x30, 0x21, 0xca, 0x3d, 0x4f, 0xea, 0xe7, 0x3e, 
  0x96, 0xcc, 0xe3, 0x3d, 0xce, 0xe5, 0xc0, 0x3d, 0xf8, 0xcc, 0x6e, 0x3c, 
  0x25, 0x71, 0x2f, 0xbe, 0xef, 0xcc, 0xf3, 0xbe, 0xc3, 0xa3, 0x2f, 0x3c, 
  0x67, 0x9a, 0xd4, 0x3d, 0xac, 0x78, 0x2b, 0xbe, 0xad, 0x9c, 0x8b, 0x3b, 
  0x56, 0xe4, 0x97, 0xbe, 0xe9, 0x74, 0xd2, 0x3e, 0xa3, 0xdf, 0x27, 0x3e, 
  0xb7, 0xcc, 0x33, 0x3c, 0x8a, 0x6c, 0xc2, 0xbd, 0x0e, 0x15, 0x2e, 0xbc, 
  0x5e, 0xb4, 0xed, 0xbd, 0x22, 0xe9, 0x00, 0xbe, 0x5c, 0x64, 0x57, 0x3e, 
  0xe3, 0xeb, 0x07, 0x3e, 0x51, 0x4a, 0xfa, 0x3d, 0xb1, 0x87, 0xd4, 0xbd, 
  0x37, 0x76, 0xfe, 0x3d, 0x5b, 0x8c, 0xef, 0xbc, 0x22, 0xae, 0x3f, 0x3e, 
  0xec, 0x1c, 0xb2, 0xbc, 0xc6, 0x1e, 0xa9, 0x3c, 0x5f, 0xca, 0x91, 0x3d, 
  0xb3, 0x67, 0x3c, 0x3d, 0xd3, 0x8c, 0xc3, 0xbe, 0xfc, 0xc5, 0x10, 0x3d, 
  0x19, 0xbd, 0x06, 0xbd, 0x2d, 0x39, 0x16, 0x3e, 0x5b, 0x9b, 0x3a, 0xbe, 
  0xf3, 0xe7, 0x0b, 0xbe, 0xe2, 0x12, 0x5d, 0x3d, 0x7e, 0xfc, 0x01, 0xbd, 
  0xc5, 0x75, 0x44, 0xbb, 0x4a, 0x96, 0x75, 0x3e, 0x58, 0xbc, 0xd0, 0xbd, 
  0xd8, 0xb0, 0xe8, 0x3d, 0x83, 0x87, 0x52, 0xba, 0xf3, 0x5c, 0x39, 0x3e, 
  0x76, 0xda, 0x07, 0xbe, 0x83, 0xcd, 0xb0, 0xbd, 0x50, 0x81, 0x6c, 0xbe, 
  0x1e, 0x3a, 0x8c, 0x3d, 0x18, 0x41, 0xbc, 0x3e, 0x09, 0x8c, 0x9a, 0x3e, 
  0xf0, 0xf5, 0xfd, 0xbd, 0xce, 0x02, 0xef, 0xbc, 0x84, 0x80, 0xbd, 0x3d, 
  0xcd, 0xf6, 0x9e, 0x3d, 0xff, 0x0d, 0x3f, 0x3d, 0x84, 0x6e, 0xcb, 0x3c, 
  0x84, 0x38, 0xf9, 0xbb, 0x8e, 0xc4, 0x59, 0x3e, 0x1c, 0x95, 0x5e, 0x3e, 
  0x60, 0x84, 0x4e, 0xbe, 0xf5, 0x82, 0x14, 0x3e, 0x93, 0xf9, 0x49, 0x3e, 
  0x76, 0x28, 0x32, 0x3e, 0x50, 0x3a, 0x4f, 0x3c, 0xb7, 0x11, 0x4e, 0xbe, 
  0x5e, 0x13, 0x96, 0xbd, 0xa0, 0x44, 0x51, 0x3e, 0x73, 0x02, 0x72, 0xba, 
  0x4f, 0xf2, 0xa2, 0xbb, 0x1a, 0x71, 0x16, 0x3e, 0x98, 0xbb, 0x29, 0x3d, 
  0x2d, 0x66, 0x87, 0xbe, 0x32, 0xc7, 0x4a, 0x3d, 0x5d, 0x8d, 0x07, 0xbe, 
  0x3e, 0x24, 0x40, 0xbe, 0xe8, 0xa3, 0x04, 0x3e, 0x42, 0xe4, 0x1a, 0x3d, 
  0x58, 0x61, 0x2c, 0x3e, 0x0c, 0xeb, 0x86, 0x3d, 0x6b, 0x22, 0xe8, 0xbb, 
  0xc5, 0xfd, 0x05, 0xbd, 0xe7, 0x89, 0xa7, 0xbd, 0xfc, 0xf8, 0x82, 0xbd, 
  0x44, 0x15, 0x0c, 0xbe, 0x43, 0x57, 0x0e, 0x3e, 0x6a, 0xaf, 0x53, 0x3e, 
  0x94, 0x7c, 0x1b, 0xbe, 0x78, 0x00, 0x33, 0xbd, 0x33, 0x9e, 0x18, 0xbe, 
  0x08, 0xbc, 0x06, 0xbd, 0x44, 0x83, 0xab, 0xbb, 0x53, 0x4b, 0x25, 0xbd, 
  0x21, 0xbf, 0xf2, 0x3c, 0x2d, 0x18, 0xc8, 0x3d, 0x21, 0x49, 0xf1, 0xbd, 
  0x64, 0xe5, 0x8b, 0xbd, 0xbc, 0x39, 0x2e, 0x3e, 0x47, 0x70, 0x01, 0x3e, 
  0xed, 0x4d, 0x22, 0x3d, 0x11, 0x12, 0x86, 0x3d, 0x97, 0x93, 0xe0, 0x3d, 
  0x27, 0xa6, 0x8c, 0xbe, 0xd8, 0x0e, 0x02, 0xbd, 0x92, 0x00, 0x1f, 0x3d, 
  0x18, 0xac, 0xdb, 0x3d, 0xd7, 0x2a, 0xc2, 0x3c, 0xbd, 0x5f, 0x10, 0x3e, 
  0x96, 0x44, 0x1b, 0x3e, 0xf5, 0x6a, 0xc4, 0xbd, 0x95, 0xc7, 0x19, 0xbe, 
  0xc1, 0xde, 0xf5, 0x3c, 0xbd, 0x6d, 0x92, 0x3d, 0x4d, 0x93, 0x94, 0x3e, 
  0x5f, 0xad, 0xb6, 0x3d, 0x9d, 0x75, 0x18, 0xbe, 0xec, 0x2a, 0x35, 0xbe, 
  0x0e, 0xc2, 0xb1, 0x3d, 0x09, 0x64, 0x13, 0xbc, 0xfb, 0xfa, 0x18, 0xbd, 
  0x81, 0x30, 0x16, 0x3c, 0x2b, 0x23, 0xa9, 0x3b, 0xe6, 0xfa, 0x0c, 0xbc, 
  0xcc, 0x65, 0x2a, 0x3e, 0x00, 0x3d, 0xae, 0x3d, 0xcf, 0x97, 0x48, 0x3c, 
  0xb1, 0x30, 0xe9, 0xbd, 0x93, 0xd3, 0x0c, 0xbe, 0x24, 0x9e, 0x58, 0x3c, 
  0x70, 0x3a, 0x8c, 0xbc, 0x9d, 0x89, 0x90, 0xbd, 0x34, 0x8c, 0x1e, 0x3e, 
  0xb4, 0x65, 0x12, 0x3e, 0x48, 0x41, 0x9c, 0xbe, 0x2f, 0xf4, 0xc2, 0xbd, 
  0x31, 0x66, 0x0a, 0xbe, 0xfe, 0xf4, 0x0d, 0xbe, 0xf2, 0x65, 0x17, 0xbc, 
  0xb5, 0x72, 0x42, 0xbd, 0x9e, 0x39, 0x22, 0xbe, 0x6a, 0xf6, 0x43, 0xbd, 
  0x4c, 0x16, 0x5d, 0xbe, 0x70, 0x41, 0xdc, 0xbd, 0x79, 0x82, 0x95, 0x3e, 
  0x39, 0x7a, 0xa8, 0xbd, 0xc9, 0xb0, 0x31, 0x3d, 0xc4, 0x24, 0xe2, 0xbd, 
  0x66, 0x10, 0x71, 0xbc, 0x43, 0xb8, 0xdd, 0x3c, 0x8b, 0x0d, 0x65, 0xbd, 
  0x8b, 0x7a, 0x08, 0xbe, 0xc7, 0x8e, 0x15, 0x3e, 0x4c, 0xdd, 0x5e, 0xbe, 
  0xc4, 0x98, 0x26, 0x3c, 0x91, 0x0f, 0xd5, 0xbb, 0xfe, 0xc1, 0xd2, 0x3c, 
  0xf5, 0xce, 0xa3, 0xbe, 0x80, 0x27, 0x07, 0xbe, 0x34, 0x08, 0x8a, 0xbd, 
  0xf5, 0xf3, 0x74, 0x3e, 0x32, 0xbb, 0xb5, 0xbc, 0x80, 0xa2, 0xff, 0xbd, 
  0xf0, 0xf1, 0xfa, 0x3d, 0x7a, 0x75, 0xdb, 0xbc, 0xc2, 0x15, 0x6c, 0x3e, 
  0x3f, 0xc8, 0x2b, 0xbe, 0x86, 0xe7, 0x14, 0x3e, 0xee, 0x0c, 0x43, 0x3c, 
  0xab, 0x92, 0xd7, 0xbd, 0x18, 0x5c, 0xb7, 0x3d, 0xb0, 0xdd, 0x49, 0xbe, 
  0x50, 0x51, 0xb1, 0x3c, 0x32, 0x6d, 0x0a, 0xbe, 0xd0, 0xf0, 0x07, 0xbe, 
  0x22, 0xe8, 0x4e, 0xbd, 0x06, 0xb0, 0x92, 0x3c, 0x94, 0xe3, 0x21, 0x3d, 
  0xa9, 0x1c, 0x0b, 0xbe, 0x46, 0x5e, 0xa0, 0x3d, 0x83, 0xc4, 0xbb, 0xbc, 
  0xdb, 0xa9, 0xbd, 0x3d, 0xd0, 0x86, 0x2b, 0x3e, 0x83, 0x7f, 0x0e, 0xbe, 
  0xcd, 0x09, 0xd7, 0x3d, 0x46, 0x2e, 0xbe, 0xbc, 0xd4, 0x5d, 0x0a, 0x3e, 
  0x6a, 0x2b, 0xde, 0x3d, 0x1f, 0xf8, 0xbe, 0x3d, 0x67, 0xb4, 0x8f, 0xbd, 
  0x64, 0x6f, 0x8a, 0xbd, 0x5f, 0x08, 0x2c, 0x3d, 0xa9, 0x88, 0xb5, 0x3c, 
  0xc7, 0x8d, 0x9c, 0xbe, 0xa9, 0xdc, 0x0f, 0xbe, 0xf4, 0x2d, 0x77, 0x3d, 
  0x15, 0x21, 0xd2, 0x3d, 0xb7, 0x7d, 0x65, 0xbe, 0xc1, 0x67, 0xa4, 0xbd, 
  0xa0, 0x24, 0xd3, 0x3d, 0x31, 0xca, 0xd5, 0xbc, 0x7d, 0x32, 0x54, 0xbd, 
  0x70, 0x4a, 0x75, 0x3c, 0xa0, 0x90, 0xcb, 0x3c, 0x4c, 0x38, 0xab, 0xbd, 
  0x43, 0x9c, 0x0a, 0x3e, 0x0a, 0xf3, 0x00, 0x3f, 0x2a, 0x72, 0x36, 0x3e, 
  0x20, 0x21, 0xa9, 0x3d, 0x0f, 0x34, 0x44, 0x3d, 0x86, 0x62, 0x98, 0x3d, 
  0xd6, 0x55, 0x46, 0x3e, 0x59, 0xad, 0x9e, 0xbd, 0xc2, 0x5f, 0x96, 0x3d, 
  0x12, 0x69, 0xb3, 0xbe, 0xf5, 0x38, 0x8f, 0xbd, 0xbb, 0x4f, 0xf1, 0xbd, 
  0x65, 0x47, 0xc3, 0xbc, 0x47, 0xa7, 0x0a, 0xbe, 0x62, 0xd0, 0x42, 0x3e, 
  0xa6, 0x8f, 0xfd, 0xbc, 0x5a, 0x71, 0x9d, 0xbe, 0xaf, 0x75, 0xb9, 0x3e, 
  0x8f, 0x9a, 0x55, 0x3d, 0x90, 0xa6, 0x86, 0x3d, 0x80, 0x34, 0x01, 0x3e, 
  0x25, 0xf0, 0x1f, 0x3e, 0x12, 0xf0, 0x3f, 0x3d, 0xd5, 0xbb, 0xe5, 0x3d, 
  0x15, 0x31, 0x90, 0xbc, 0x73, 0xe5, 0x26, 0x3e, 0x11, 0x95, 0x66, 0x3e, 
  0xcf, 0x1a, 0xf7, 0xbd, 0x76, 0x29, 0x8c, 0xbc, 0xbc, 0xb9, 0xca, 0x3d, 
  0x3c, 0x7b, 0x05, 0x3d, 0xc1, 0xcb, 0x11, 0xbe, 0x0c, 0x99, 0x40, 0x3e, 
  0x9c, 0x59, 0x80, 0x3e, 0xed, 0xd3, 0x8b, 0xbd, 0x26, 0xd1, 0xe7, 0xbd, 
  0x76, 0x9b, 0x5e, 0x3e, 0x56, 0xbc, 0x1c, 0x3e, 0xd3, 0x4a, 0x0f, 0x3e, 
  0x2b, 0xb5, 0xf5, 0xbd, 0xd6, 0x39, 0xad, 0x3c, 0x09, 0x36, 0xcb, 0xb9, 
  0xff, 0xae, 0x16, 0x3e, 0xaf, 0x34, 0x86, 0x3d, 0x59, 0x0c, 0xab, 0x3e, 
  0xfc, 0xc0, 0x17, 0x3e, 0xa1, 0xcb, 0x80, 0xbd, 0xf4, 0xf2, 0x1c, 0x3e, 
  0x95, 0x72, 0x25, 0xbe, 0x06, 0x8a, 0x9a, 0x3e, 0xc0, 0xd7, 0xef, 0x3b, 
  0xbb, 0x12, 0x3b, 0xbe, 0xc4, 0x3e, 0x72, 0x3e, 0x43, 0xcf, 0x12, 0x3e, 
  0x9c, 0x19, 0x4e, 0x3e, 0x77, 0xc6, 0x44, 0xbe, 0xb5, 0x1a, 0x9c, 0x3e, 
  0x94, 0xa8, 0x28, 0x3d, 0x0e, 0xa4, 0x83, 0xbd, 0xd8, 0x3f, 0x91, 0xbe, 
  0xdd, 0x4b, 0xaa, 0x3c, 0x08, 0xca, 0x6e, 0xbd, 0x31, 0x4f, 0x56, 0x3d, 
  0xba, 0x20, 0x9a, 0x3d, 0xf0, 0xbd, 0xea, 0xbd, 0x75, 0x73, 0xd3, 0x3e, 
  0x52, 0xbc, 0x49, 0xbd, 0x64, 0x75, 0xec, 0x3d, 0x2e, 0x1e, 0x56, 0xbd, 
  0x16, 0x41, 0xdc, 0x3e, 0x4e, 0xf4, 0xd8, 0xbb, 0xa5, 0x36, 0xc6, 0xbe, 
  0xfb, 0xf2, 0xa1, 0x3e, 0x02, 0x52, 0xa9, 0x3e, 0xfa, 0x31, 0xee, 0x3c, 
  0x0d, 0x29, 0xe6, 0xbd, 0x73, 0x0d, 0x82, 0x3e, 0x4e, 0x9e, 0x07, 0x3c, 
  0xf0, 0x0b, 0x87, 0xbc, 0x18, 0x59, 0x02, 0x3e, 0x52, 0x49, 0xaf, 0xbe, 
  0xb7, 0xac, 0xf2, 0x3d, 0x0a, 0xea, 0xa2, 0xbd, 0x67, 0x89, 0xd9, 0x3d, 
  0x1c, 0xf3, 0x3c, 0xbe, 0x4d, 0x97, 0xdf, 0x3e, 0x47, 0x54, 0xc7, 0x3e, 
  0xda, 0x91, 0x8a, 0xbe, 0x96, 0x9a, 0x8e, 0x3e, 0x62, 0x27, 0x43, 0xbc, 
  0x25, 0x58, 0x6c, 0xbe, 0xbc, 0xc8, 0x73, 0xbd, 0xe4, 0x05, 0xb6, 0x3e, 
  0x67, 0xb5, 0x13, 0xbf, 0x8c, 0x9b, 0x0d, 0xbc, 0x5b, 0x18, 0xe3, 0x3d, 
  0x02, 0x99, 0x60, 0xbd, 0xa5, 0x67, 0xd3, 0x3e, 0x53, 0x15, 0x4c, 0x3d, 
  0x29, 0x25, 0x01, 0x3e, 0x4b, 0x63, 0x10, 0x3e, 0xc1, 0x3c, 0x56, 0xbe, 
  0x67, 0xe4, 0x8c, 0xbe, 0xf4, 0x08, 0x63, 0x3d, 0x42, 0xd3, 0x9a, 0xbd, 
  0xb8, 0xde, 0x6c, 0xbe, 0x4a, 0x40, 0xa1, 0x3d, 0x5f, 0x44, 0x92, 0xbd, 
  0x29, 0x7e, 0xe7, 0xbd, 0x30, 0x4d, 0xab, 0x3e, 0x1d, 0xa0, 0xb9, 0xbd, 
  0x2d, 0x80, 0x75, 0xbe, 0xf0, 0xf0, 0x3a, 0x3e, 0xd6, 0x57, 0x07, 0x3e, 
  0x2f, 0xaa, 0xf0, 0xbd, 0x8f, 0xa9, 0x2b, 0xbd, 0x86, 0x97, 0x0e, 0x3d, 
  0x73, 0xa7, 0xc7, 0xbe, 0x73, 0xc6, 0x35, 0x3e, 0x32, 0xf1, 0xa7, 0xbc, 
  0xf8, 0x88, 0x14, 0x3e, 0x9f, 0x43, 0x51, 0x3c, 0x0b, 0xa8, 0x14, 0x3e, 
  0xf9, 0x3f, 0x37, 0x3d, 0x2e, 0xec, 0x80, 0xba, 0x1b, 0x36, 0x87, 0x3d, 
  0x03, 0x6b, 0x41, 0x3c, 0xe4, 0x08, 0x02, 0xbd, 0x2b, 0x24, 0xea, 0x3d, 
  0xa5, 0x71, 0x22, 0x3e, 0xc3, 0x1d, 0xea, 0xbd, 0xe1, 0x0e, 0x25, 0x3e, 
  0x60, 0x7b, 0xd8, 0x3d, 0x78, 0xf8, 0x37, 0xbe, 0xf2, 0xb7, 0xcf, 0x3d, 
  0x95, 0xa9, 0x49, 0x3d, 0xa0, 0x59, 0xe9, 0xbc, 0x42, 0x22, 0x64, 0xbe, 
  0x32, 0x2d, 0xb9, 0xbd, 0x1d, 0xe1, 0x08, 0x3e, 0xcf, 0x84, 0x91, 0xbd, 
  0x84, 0xf3, 0x0c, 0x3e, 0xa0, 0x16, 0x84, 0xbd, 0xb9, 0xcd, 0xfb, 0xbd, 
  0xc4, 0xdd, 0x05, 0x3e, 0x06, 0x7e, 0x24, 0xbd, 0x21, 0x6d, 0xf2, 0xbd, 
  0xd5, 0xc3, 0x58, 0xbe, 0x41, 0xc2, 0x71, 0x3c, 0xe5, 0x8f, 0x38, 0x3e, 
  0x9e, 0x95, 0x43, 0x3d, 0x3a, 0x6c, 0xd3, 0x3c, 0x52, 0x00, 0x00, 0x3e, 
  0x01, 0xe9, 0x64, 0xbd, 0x56, 0x65, 0x4f, 0x3c, 0x2b, 0x45, 0x9a, 0x3d, 
  0xc0, 0x06, 0xec, 0x3d, 0x13, 0x95, 0xd7, 0xbd, 0xd7, 0xa2, 0xa6, 0xbd, 
  0x22, 0x1f, 0x08, 0x3e, 0x46, 0xbe, 0x9f, 0x3d, 0xf9, 0x06, 0x6f, 0x3e, 
  0x3a, 0x9e, 0xa2, 0x3d, 0x60, 0xae, 0x92, 0xbe, 0x10, 0xcf, 0xc6, 0xbc, 
  0x9e, 0x46, 0x2e, 0x3e, 0x40, 0xa3, 0xed, 0x3d, 0x0a, 0x90, 0x54, 0x3d, 
  0x00, 0xc4, 0xdc, 0x3c, 0x70, 0xd0, 0x33, 0x3e, 0x41, 0x08, 0xf1, 0x3d, 
  0x90, 0x20, 0x1b, 0x3e, 0x98, 0xa0, 0xc8, 0x3d, 0xe2, 0xad, 0x59, 0xbe, 
  0xb5, 0x6f, 0x04, 0xbe, 0x2c, 0x29, 0x37, 0x3e, 0x51, 0x8c, 0x7b, 0xbe, 
  0x62, 0x7a, 0x51, 0x3e, 0x4f, 0x10, 0x13, 0xbd, 0xf5, 0x13, 0xae, 0x3b, 
  0xde, 0xb9, 0x4c, 0xba, 0x31, 0xb3, 0x04, 0x3f, 0xfe, 0xef, 0x2c, 0x3f, 
  0xb0, 0xb8, 0x02, 0xbf, 0xc1, 0x2d, 0x40, 0x3f, 0x07, 0xd3, 0xfe, 0x3e, 
  0x67, 0x37, 0xde, 0xbe, 0x18, 0x45, 0xc8, 0xbe, 0x7c, 0xeb, 0x28, 0x3f, 
  0xa7, 0xb8, 0x3b, 0xbf, 0xb0, 0xfb, 0x3a, 0x3f, 0x2e, 0xc1, 0x41, 0x3f, 
  0xcb, 0x2f, 0x1d, 0xbf, 0x47, 0x3c, 0x10, 0x3f, 0xdf, 0x8b, 0x12, 0x3f, 
  0xcb, 0xa0, 0x62, 0x3e, 0x80, 0x83, 0x86, 0xbe, 0x6e, 0x75, 0x18, 0x3d, 
  0x64, 0xfb, 0x96, 0x3d, 0xef, 0x02, 0xe2, 0x3d, 0xbb, 0xef, 0x89, 0x3e, 
  0xcd, 0x16, 0x5d, 0x3e, 0xf1, 0x7b, 0x78, 0xbe, 0xfa, 0x01, 0x0e, 0x3e, 
  0x56, 0xfd, 0xb7, 0x3e, 0x25, 0x7f, 0x1c, 0xbe, 0xc0, 0xf5, 0x15, 0xbd, 
  0x88, 0xc1, 0x63, 0x3c, 0xe5, 0xe6, 0x94, 0xbd, 0x44, 0x2a, 0xef, 0x3e, 
  0x78, 0x20, 0xab, 0x3d, 0x5c, 0xa6, 0x41, 0x3d, 0x8c, 0x6e, 0x82, 0xbe, 
  0x0c, 0x02, 0xe3, 0x3d, 0xf3, 0x2e, 0x9d, 0x3d, 0x20, 0xae, 0xa0, 0xbe, 
  0x9f, 0xff, 0x56, 0x3e, 0x63, 0x95, 0x0c, 0x3e, 0x89, 0xe7, 0x8c, 0x3c, 
  0x2f, 0x4f, 0xdf, 0x3c, 0x2b, 0x23, 0xc5, 0x3e, 0x8e, 0x88, 0xc5, 0x3d, 
  0x12, 0x3a, 0x80, 0xbd, 0x5c, 0xbf, 0x1c, 0xbe, 0x0b, 0xd0, 0x29, 0x3e, 
  0xe2, 0x29, 0x7f, 0x3d, 0x6a, 0xa6, 0x71, 0x3e, 0x26, 0x37, 0xd3, 0xbd, 
  0xd0, 0xbe, 0xea, 0x3c, 0x8b, 0x83, 0x40, 0x3d, 0xae, 0x1c, 0x47, 0x3c, 
  0x10, 0xfd, 0x56, 0xbe, 0x71, 0x97, 0x5a, 0x3e, 0x2c, 0xb5, 0x0c, 0xbe, 
  0x1c, 0x5f, 0xc6, 0xbd, 0xa6, 0xa0, 0x1a, 0x3d, 0x09, 0x8b, 0x8a, 0xbc, 
  0xcd, 0x9c, 0xc4, 0xbb, 0xee, 0x75, 0x8f, 0xbd, 0xb2, 0xfe, 0x37, 0xbd, 
  0x76, 0x7b, 0x81, 0xbb, 0xe8, 0xab, 0x0f, 0x3f, 0x2b, 0x1e, 0xdc, 0x3d, 
  0x0d, 0x9c, 0x88, 0x3d, 0x8c, 0xd8, 0x6b, 0x3d, 0x86, 0xc2, 0xff, 0xff, 
  0x04, 0x00, 0x00, 0x00, 0x00, 0x01, 0x00, 0x00, 0x66, 0x82, 0xab, 0x3e, 
  0x7d, 0xe8, 0xb1, 0x3e, 0xb6, 0xfb, 0x24, 0x3e, 0x4e, 0x02, 0x1f, 0x3e, 
  0x23, 0x1f, 0xcb, 0x3e, 0x0b, 0x62, 0xe0, 0x3e, 0x0b, 0xb9, 0x83, 0x3e, 
  0xb4, 0xf6, 0x6a, 0xbc, 0x5a, 0xa2, 0xac, 0xbd, 0x43, 0xd3, 0xd7, 0x3b, 
  0x93, 0xf9, 0xcb, 0x3d, 0x3a, 0xa0, 0xad, 0x3e, 0x30, 0x01, 0xcb, 0x3e, 
  0x71, 0xda, 0xaf, 0x3e, 0xeb, 0xb4, 0x82, 0x3e, 0x2c, 0xd5, 0x63, 0x3d, 
  0x44, 0xce, 0x18, 0xbe, 0xd4, 0x53, 0xe4, 0x3d, 0x91, 0x59, 0x15, 0x3e, 
  0xc1, 0x85, 0xd2, 0xbc, 0x27, 0x2a, 0x31, 0xbe, 0x12, 0x73, 0xd9, 0x3d, 
  0xa1, 0x12, 0x3a, 0x3d, 0x06, 0xa8, 0xe9, 0xbe, 0x12, 0x8b, 0xde, 0xbd, 
  0xe4, 0x99, 0x19, 0x3e, 0x26, 0xe9, 0x7e, 0xbd, 0x5c, 0xfd, 0xe9, 0xbd, 
  0x02, 0x11, 0xfb, 0x3e, 0x4e, 0x79, 0xdf, 0x3d, 0x89, 0x29, 0x8c, 0x3d, 
  0x9b, 0x9e, 0x30, 0x3e, 0xab, 0xda, 0x86, 0x3e, 0xaf, 0xd3, 0x4d, 0x3e, 
  0x0e, 0xe3, 0x6d, 0xbe, 0xfa, 0xc2, 0x94, 0x3e, 0x76, 0xca, 0xda, 0x3c, 
  0x7a, 0x24, 0x8c, 0xbe, 0x62, 0x3e, 0x78, 0xbe, 0x05, 0x6d, 0xe4, 0x3d, 
  0x14, 0xfe, 0xc4, 0xbe, 0x06, 0x54, 0x6d, 0x3d, 0x2d, 0xbd, 0xb4, 0x3e, 
  0x65, 0x9e, 0x98, 0xbe, 0xe0, 0x45, 0x97, 0x3e, 0x4a, 0x23, 0x95, 0x3e, 
  0xf4, 0x66, 0x9c, 0x3e, 0x6d, 0xbd, 0x8b, 0x3d, 0x46, 0x87, 0x17, 0xbd, 
  0x2d, 0x15, 0xe2, 0x3e, 0x7c, 0x84, 0x89, 0x3e, 0x5b, 0x21, 0x7c, 0x3e, 
  0xb0, 0xc9, 0x3b, 0x3b, 0x76, 0xd9, 0x9f, 0x3e, 0x04, 0x70, 0x98, 0x3e, 
  0x3a, 0xee, 0x4e, 0x3b, 0x86, 0xa8, 0x4f, 0x3d, 0x4e, 0xd4, 0x01, 0x3e, 
  0x57, 0x47, 0xe6, 0xbd, 0xbd, 0x81, 0xe4, 0x3e, 0x3f, 0x6e, 0x6a, 0x3f, 
  0x6a, 0xf7, 0x03, 0xbe, 0x99, 0x6a, 0xa0, 0xbe, 0x46, 0x9c, 0x95, 0xbe, 
  0xb4, 0xb0, 0xff, 0xff, 0xb8, 0xb0, 0xff, 0xff, 0xbc, 0xb0, 0xff, 0xff, 
  0xc0, 0xb0, 0xff, 0xff, 0xc4, 0xb0, 0xff, 0xff, 0xc8, 0xb0, 0xff, 0xff, 
  0xcc, 0xb0, 0xff, 0xff, 0xd0, 0xb0, 0xff, 0xff, 0xd4, 0xb0, 0xff, 0xff, 
  0xd8, 0xb0, 0xff, 0xff, 0xdc, 0xb0, 0xff, 0xff, 0xe0, 0xb0, 0xff, 0xff, 
  0xe4, 0xb0, 0xff, 0xff, 0xe8, 0xb0, 0xff, 0xff, 0xec, 0xb0, 0xff, 0xff, 
  0xf0, 0xb0, 0xff, 0xff, 0xf4, 0xb0, 0xff, 0xff, 0xf8, 0xb0, 0xff, 0xff, 
  0xfc, 0xb0, 0xff, 0xff, 0xde, 0xc3, 0xff, 0xff, 0x04, 0x00, 0x00, 0x00, 
  0x10, 0x00, 0x00, 0x00, 0x9f, 0x64, 0x45, 0x04, 0x00, 0x00, 0x00, 0x00, 
  0x00, 0x00, 0x00, 0x00, 0x00, 0x00, 0x00, 0x00, 0xfa, 0xc3, 0xff, 0xff, 
  0x04, 0x00, 0x00, 0x00, 0x10, 0x00, 0x00, 0x00, 0x4d, 0x8e, 0x67, 0x33, 
  0x00, 0x00, 0x00, 0x00, 0x00, 0x00, 0x00, 0x00, 0x00, 0x00, 0x00, 0x00, 
  0x38, 0xb1, 0xff, 0xff, 0x3c, 0xb1, 0xff, 0xff, 0x40, 0xb1, 0xff, 0xff, 
  0x44, 0xb1, 0xff, 0xff, 0x48, 0xb1, 0xff, 0xff, 0x4c, 0xb1, 0xff, 0xff, 
  0x50, 0xb1, 0xff, 0xff, 0x54, 0xb1, 0xff, 0xff, 0x58, 0xb1, 0xff, 0xff, 
  0x5c, 0xb1, 0xff, 0xff, 0x60, 0xb1, 0xff, 0xff, 0x64, 0xb1, 0xff, 0xff, 
  0x68, 0xb1, 0xff, 0xff, 0x6c, 0xb1, 0xff, 0xff, 0x70, 0xb1, 0xff, 0xff, 
  0x74, 0xb1, 0xff, 0xff, 0x78, 0xb1, 0xff, 0xff, 0x7c, 0xb1, 0xff, 0xff, 
  0x80, 0xb1, 0xff, 0xff, 0x84, 0xb1, 0xff, 0xff, 0x88, 0xb1, 0xff, 0xff, 
  0x8c, 0xb1, 0xff, 0xff, 0x90, 0xb1, 0xff, 0xff, 0x94, 0xb1, 0xff, 0xff, 
  0x98, 0xb1, 0xff, 0xff, 0x9c, 0xb1, 0xff, 0xff, 0xa0, 0xb1, 0xff, 0xff, 
  0xa4, 0xb1, 0xff, 0xff, 0xa8, 0xb1, 0xff, 0xff, 0xac, 0xb1, 0xff, 0xff, 
  0xb0, 0xb1, 0xff, 0xff, 0xb4, 0xb1, 0xff, 0xff, 0xb8, 0xb1, 0xff, 0xff, 
  0xbc, 0xb1, 0xff, 0xff, 0xc0, 0xb1, 0xff, 0xff, 0xa2, 0xc4, 0xff, 0xff, 
  0x04, 0x00, 0x00, 0x00, 0x04, 0x00, 0x00, 0x00, 0x3c, 0x00, 0x00, 0x00, 
  0xb2, 0xc4, 0xff, 0xff, 0x04, 0x00, 0x00, 0x00, 0x04, 0x00, 0x00, 0x00, 
  0x08, 0x00, 0x00, 0x00, 0xc2, 0xc4, 0xff, 0xff, 0x04, 0x00, 0x00, 0x00, 
  0x08, 0x00, 0x00, 0x00, 0xff, 0xff, 0xff, 0xff, 0x08, 0x00, 0x00, 0x00, 
  0xd6, 0xc4, 0xff, 0xff, 0x04, 0x00, 0x00, 0x00, 0x04, 0x00, 0x00, 0x00, 
  0x10, 0x00, 0x00, 0x00, 0x08, 0xb2, 0xff, 0xff, 0xea, 0xc4, 0xff, 0xff, 
  0x04, 0x00, 0x00, 0x00, 0x0c, 0x00, 0x00, 0x00, 0x01, 0x00, 0x00, 0x00, 
  0x00, 0x00, 0x00, 0x00, 0x02, 0x00, 0x00, 0x00, 0x24, 0xb2, 0xff, 0xff, 
  0x28, 0xb2, 0xff, 0xff, 0x0a, 0xc5, 0xff, 0xff, 0x04, 0x00, 0x00, 0x00, 
  0x04, 0x00, 0x00, 0x00, 0x01, 0x00, 0x00, 0x00, 0x1a, 0xc5, 0xff, 0xff, 
  0x04, 0x00, 0x00, 0x00, 0x08, 0x00, 0x00, 0x00, 0xff, 0xff, 0xff, 0xff, 
  0x10, 0x00, 0x00, 0x00, 0x2e, 0xc5, 0xff, 0xff, 0x04, 0x00, 0x00, 0x00, 
  0x04, 0x00, 0x00, 0x00, 0x00, 0x00, 0x00, 0x00, 0x3e, 0xc5, 0xff, 0xff, 
  0x04, 0x00, 0x00, 0x00, 0x10, 0x00, 0x00, 0x00, 0x00, 0x00, 0x00, 0x00, 
  0x00, 0x00, 0x00, 0x00, 0x01, 0x00, 0x00, 0x00, 0x00, 0x00, 0x00, 0x00, 
  0x5a, 0xc5, 0xff, 0xff, 0x04, 0x00, 0x00, 0x00, 0x00, 0x01, 0x00, 0x00, 
  0xfc, 0xa6, 0x14, 0x3e, 0x98, 0x22, 0x24, 0x3f, 0x08, 0x5d, 0x27, 0x3f, 
  0xb9, 0x58, 0x51, 0xbd, 0x9f, 0x55, 0xe0, 0x3e, 0x07, 0xbb, 0xf1, 0x3d, 
  0x82, 0xdd, 0x52, 0xbe, 0x2f, 0x4e, 0x82, 0x3e, 0xa4, 0x18, 0xdc, 0x3e, 
  0x7a, 0x81, 0x2e, 0x3b, 0x1e, 0xe8, 0xc8, 0xbe, 0x09, 0x5c, 0xea, 0x3e, 
  0x25, 0xc7, 0x8d, 0xbd, 0x6a, 0xd0, 0xbd, 0xbe, 0x0c, 0xf1, 0x44, 0xbe, 
  0x9c, 0x65, 0x0d, 0x3f, 0xf4, 0xf0, 0x98, 0x3e, 0xbd, 0x85, 0xe1, 0x3e, 
  0x7a, 0x22, 0xf1, 0x3e, 0x93, 0x87, 0xa9, 0xbd, 0x0a, 0xc4, 0x99, 0xbe, 
  0x9c, 0xbc, 0xd0, 0x3e, 0xea, 0x9c, 0x03, 0x3f, 0xdc, 0x8a, 0x04, 0x3e, 
  0x56, 0x15, 0xa2, 0xbe, 0x75, 0x1e, 0x16, 0xbf, 0x76, 0x7e, 0xd8, 0x3e, 
  0xd1, 0x8c, 0xaf, 0x3e, 0xa7, 0xf6, 0x73, 0xbe, 0xae, 0x91, 0x5c, 0xbe, 
  0x6d, 0xc8, 0xee, 0x3e, 0x48, 0xc4, 0xc7, 0xbe, 0x80, 0x11, 0x8c, 0xbe, 
  0x91, 0x37, 0x30, 0x3e, 0x4a, 0xdf, 0x1a, 0xbd, 0x5e, 0x43, 0xe6, 0xbd, 
  0xab, 0x59, 0x15, 0x3e, 0x7e, 0xb6, 0xd7, 0x3d, 0xe9, 0x5e, 0xe8, 0x3e, 
  0xd7, 0xe4, 0xbe, 0xbe, 0xf8, 0x6a, 0xa4, 0xbe, 0x59, 0x12, 0x19, 0xbf, 
  0x2a, 0x08, 0x27, 0x3c, 0x05, 0x47, 0xf0, 0xbe, 0x5a, 0x32, 0x92, 0x3e, 
  0xa7, 0x30, 0x0a, 0x3f, 0x2a, 0x8b, 0xef, 0x3e, 0x3e, 0xc4, 0x0f, 0x3f, 
  0x5d, 0x8d, 0xb8, 0x3d, 0x86, 0xa9, 0x0c, 0x3f, 0x2d, 0xdf, 0x5d, 0xbe, 
  0x50, 0x52, 0xf5, 0x3e, 0x33, 0x53, 0x66, 0x3e, 0x32, 0x2a, 0x9c, 0xbe, 
  0xdd, 0x94, 0x93, 0xbe, 0xb0, 0xfe, 0xbc, 0x3e, 0x39, 0x23, 0xd9, 0xbd, 
  0xb3, 0xae, 0xef, 0x3e, 0xa7, 0x7b, 0xa5, 0x3e, 0xf3, 0x18, 0x8c, 0xbe, 
  0xcc, 0x57, 0xdf, 0x3e, 0x41, 0xae, 0xd9, 0xbe, 0x2c, 0x69, 0xa0, 0x3e, 
  0x0d, 0x80, 0x05, 0x3e, 0x66, 0xc6, 0xff, 0xff, 0x04, 0x00, 0x00, 0x00, 
  0x20, 0x00, 0x00, 0x00, 0x8d, 0x5a, 0x95, 0x3e, 0x97, 0x80, 0x50, 0x3f, 
  0x37, 0xa1, 0x32, 0xbf, 0xc9, 0x2d, 0xb6, 0xbe, 0x1a, 0x8b, 0x2b, 0xbf, 
  0x69, 0xfa, 0x29, 0x3f, 0x2f, 0x87, 0xd8, 0x3e, 0x77, 0x49, 0x5d, 0x3f, 
  0x92, 0xc6, 0xff, 0xff, 0x04, 0x00, 0x00, 0x00, 0x0c, 0x00, 0x00, 0x00, 
  0xff, 0xff, 0xff, 0xff, 0x00, 0x00, 0x00, 0x00, 0x00, 0x00, 0x00, 0x00, 
  0xaa, 0xc6, 0xff, 0xff, 0x04, 0x00, 0x00, 0x00, 0x0c, 0x00, 0x00, 0x00, 
  0x00, 0x00, 0x00, 0x00, 0x00, 0x00, 0x00, 0x00, 0x08, 0x00, 0x00, 0x00, 
  0xc2, 0xc6, 0xff, 0xff, 0x04, 0x00, 0x00, 0x00, 0x0c, 0x00, 0x00, 0x00, 
  0x01, 0x00, 0x00, 0x00, 0x01, 0x00, 0x00, 0x00, 0x01, 0x00, 0x00, 0x00, 
  0xda, 0xc6, 0xff, 0xff, 0x04, 0x00, 0x00, 0x00, 0x04, 0x00, 0x00, 0x00, 
  0xd2, 0x83, 0x0a, 0x3d, 0xea, 0xc6, 0xff, 0xff, 0x04, 0x00, 0x00, 0x00, 
  0x20, 0x00, 0x00, 0x00, 0x59, 0x8d, 0x83, 0x3d, 0xbe, 0x6d, 0xee, 0x3c, 
  0xee, 0x1c, 0x0e, 0xbd, 0x40, 0xa7, 0x14, 0xbd, 0xbf, 0xe8, 0xcf, 0xbc, 
  0xac, 0x32, 0x95, 0x3d, 0xf7, 0x37, 0x5a, 0x3d, 0x39, 0x95, 0x9a, 0x3c, 
  0x38, 0xb4, 0xff, 0xff, 0x3c, 0xb4, 0xff, 0xff, 0x0f, 0x00, 0x00, 0x00, 
  0x4d, 0x4c, 0x49, 0x52, 0x20, 0x43, 0x6f, 0x6e, 0x76, 0x65, 0x72, 0x74, 
  0x65, 0x64, 0x2e, 0x00, 0x06, 0x00, 0x00, 0x00, 0x70, 0x2f, 0x00, 0x00, 
  0xdc, 0x2c, 0x00, 0x00, 0x44, 0x28, 0x00, 0x00, 0x90, 0x16, 0x00, 0x00, 
  0xf8, 0x11, 0x00, 0x00, 0x04, 0x00, 0x00, 0x00, 0xb6, 0xd0, 0xff, 0xff, 
  0x14, 0x00, 0x00, 0x00, 0x38, 0x00, 0x00, 0x00, 0x88, 0x04, 0x00, 0x00, 
  0xa0, 0x04, 0x00, 0x00, 0xb8, 0x04, 0x00, 0x00, 0x22, 0x00, 0x00, 0x00, 
  0x73, 0x65, 0x71, 0x75, 0x65, 0x6e, 0x74, 0x69, 0x61, 0x6c, 0x5f, 0x33, 
  0x5f, 0x31, 0x2f, 0x6c, 0x73, 0x74, 0x6d, 0x5f, 0x37, 0x5f, 0x31, 0x2f, 
  0x77, 0x68, 0x69, 0x6c, 0x65, 0x5f, 0x62, 0x6f, 0x64, 0x79, 0x00, 0x00, 
  0x12, 0x00, 0x00, 0x00, 0x20, 0x04, 0x00, 0x00, 0xe8, 0x03, 0x00, 0x00, 
  0xb4, 0x03, 0x00, 0x00, 0x80, 0x03, 0x00, 0x00, 0x48, 0x03, 0x00, 0x00, 
  0x14, 0x03, 0x00, 0x00, 0xe0, 0x02, 0x00, 0x00, 0x9c, 0x02, 0x00, 0x00, 
  0x78, 0x02, 0x00, 0x00, 0x54, 0x02, 0x00, 0x00, 0x20, 0x02, 0x00, 0x00, 
  0xfc, 0x01, 0x00, 0x00, 0xd8, 0x01, 0x00, 0x00, 0xa4, 0x01, 0x00, 0x00, 
  0x70, 0x01, 0x00, 0x00, 0x4c, 0x01, 0x00, 0x00, 0x18, 0x01, 0x00, 0x00, 
  0x04, 0x00, 0x00, 0x00, 0xf8, 0xc9, 0xff, 0xff, 0x10, 0x00, 0x00, 0x00, 
  0xf0, 0x00, 0x00, 0x00, 0xf4, 0x00, 0x00, 0x00, 0x15, 0x00, 0x00, 0x00, 
  0xde, 0x00, 0x00, 0x00, 0x11, 0x54, 0x65, 0x6e, 0x73, 0x6f, 0x72, 0x4c, 
  0x69, 0x73, 0x74, 0x53, 0x65, 0x74, 0x49, 0x74, 0x65, 0x6d, 0x00, 0xc1, 
  0x12, 0x11, 0x54, 0x65, 0x6e, 0x73, 0x6f, 0x72, 0x4c, 0x69, 0x73, 0x74, 
  0x53, 0x65, 0x74, 0x49, 0x74, 0x65, 0x6d, 0x1a, 0x00, 0x1a, 0x00, 0x1a, 
  0x00, 0x2a, 0x23, 0x0a, 0x1d, 0x72, 0x65, 0x73, 0x69, 0x7a, 0x65, 0x5f, 
  0x69, 0x66, 0x5f, 0x69, 0x6e, 0x64, 0x65, 0x78, 0x5f, 0x6f, 0x75, 0x74, 
  0x5f, 0x6f, 0x66, 0x5f, 0x62, 0x6f, 0x75, 0x6e, 0x64, 0x73, 0x12, 0x02, 
  0x28, 0x00, 0x2a, 0x13, 0x0a, 0x0d, 0x65, 0x6c, 0x65, 0x6d, 0x65, 0x6e, 
  0x74, 0x5f, 0x64, 0x74, 0x79, 0x70, 0x65, 0x12, 0x02, 0x30, 0x01, 0x32, 
  0x6c, 0x0a, 0x42, 0x73, 0x65, 0x71, 0x75, 0x65, 0x6e, 0x74, 0x69, 0x61, 
  0x6c, 0x5f, 0x33, 0x5f, 0x31, 0x2f, 0x6c, 0x73, 0x74, 0x6d, 0x5f, 0x37, 
  0x5f, 0x31, 0x2f, 0x77, 0x68, 0x69, 0x6c, 0x65, 0x2f, 0x54, 0x65, 0x6e, 
  0x73, 0x6f, 0x72, 0x41, 0x72, 0x72, 0x61, 0x79, 0x56, 0x32, 0x57, 0x72, 
  0x69, 0x74, 0x65, 0x2f, 0x54, 0x65, 0x6e, 0x73, 0x6f, 0x72, 0x4c, 0x69, 
  0x73, 0x74, 0x53, 0x65, 0x74, 0x49, 0x74, 0x65, 0x6d, 0x12, 0x26, 0x73, 
  0x65, 0x71, 0x75, 0x65, 0x6e, 0x74, 0x69, 0x61, 0x6c, 0x5f, 0x33, 0x5f, 
  0x31, 0x5f, 0x6c, 0x73, 0x74, 0x6d, 0x5f, 0x37, 0x5f, 0x31, 0x5f, 0x77, 
  0x68, 0x69, 0x6c, 0x65, 0x5f, 0x62, 0x6f, 0x64, 0x79, 0x5f, 0x39, 0x35, 
  0x34, 0x00, 0x02, 0xd6, 0xc4, 0x14, 0x14, 0x04, 0x28, 0x01, 0x00, 0x00, 
  0x01, 0x00, 0x00, 0x00, 0x1f, 0x00, 0x00, 0x00, 0x03, 0x00, 0x00, 0x00, 
  0x02, 0x00, 0x00, 0x00, 0x06, 0x00, 0x00, 0x00, 0x1e, 0x00, 0x00, 0x00, 
  0x8a, 0xc9, 0xff, 0xff, 0x14, 0x00, 0x00, 0x00, 0x00, 0x00, 0x00, 0x15, 
  0x10, 0x00, 0x00, 0x00, 0x14, 0x00, 0x00, 0x00, 0x13, 0x00, 0x00, 0x00, 
  0x24, 0xb6, 0xff, 0xff, 0x01, 0x00, 0x00, 0x00, 0x1e, 0x00, 0x00, 0x00, 
  0x02, 0x00, 0x00, 0x00, 0x19, 0x00, 0x00, 0x00, 0x1d, 0x00, 0x00, 0x00, 
  0xb2, 0xcb, 0xff, 0xff, 0x0c, 0x00, 0x00, 0x00, 0x10, 0x00, 0x00, 0x00, 
  0x14, 0x00, 0x00, 0x00, 0x01, 0x00, 0x00, 0x00, 0x1d, 0x00, 0x00, 0x00, 
  0x01, 0x00, 0x00, 0x00, 0x1c, 0x00, 0x00, 0x00, 0xda, 0xc9, 0xff, 0xff, 
  0x14, 0x00, 0x00, 0x00, 0x00, 0x00, 0x00, 0x0b, 0x10, 0x00, 0x00, 0x00, 
  0x14, 0x00, 0x00, 0x00, 0x0b, 0x00, 0x00, 0x00, 0x74, 0xb6, 0xff, 0xff, 
  0x01, 0x00, 0x00, 0x00, 0x1c, 0x00, 0x00, 0x00, 0x02, 0x00, 0x00, 0x00, 
  0x18, 0x00, 0x00, 0x00, 0x1b, 0x00, 0x00, 0x00, 0x0a, 0xca, 0xff, 0xff, 
  0x14, 0x00, 0x00, 0x00, 0x00, 0x00, 0x00, 0x15, 0x10, 0x00, 0x00, 0x00, 
  0x14, 0x00, 0x00, 0x00, 0x13, 0x00, 0x00, 0x00, 0xa4, 0xb6, 0xff, 0xff, 
  0x01, 0x00, 0x00, 0x00, 0x1b, 0x00, 0x00, 0x00, 0x02, 0x00, 0x00, 0x00, 
  0x16, 0x00, 0x00, 0x00, 0x1a, 0x00, 0x00, 0x00, 0x32, 0xcc, 0xff, 0xff, 
  0x0c, 0x00, 0x00, 0x00, 0x10, 0x00, 0x00, 0x00, 0x14, 0x00, 0x00, 0x00, 
  0x01, 0x00, 0x00, 0x00, 0x1a, 0x00, 0x00, 0x00, 0x01, 0x00, 0x00, 0x00, 
  0x14, 0x00, 0x00, 0x00, 0x52, 0xcc, 0xff, 0xff, 0x0c, 0x00, 0x00, 0x00, 
  0x10, 0x00, 0x00, 0x00, 0x12, 0x00, 0x00, 0x00, 0x01, 0x00, 0x00, 0x00, 
  0x19, 0x00, 0x00, 0x00, 0x01, 0x00, 0x00, 0x00, 0x15, 0x00, 0x00, 0x00, 
  0x7a, 0xca, 0xff, 0xff, 0x14, 0x00, 0x00, 0x00, 0x00, 0x00, 0x00, 0x15, 
  0x10, 0x00, 0x00, 0x00, 0x14, 0x00, 0x00, 0x00, 0x13, 0x00, 0x00, 0x00, 
  0x14, 0xb7, 0xff, 0xff, 0x01, 0x00, 0x00, 0x00, 0x18, 0x00, 0x00, 0x00, 
  0x02, 0x00, 0x00, 0x00, 0x17, 0x00, 0x00, 0x00, 0x04, 0x00, 0x00, 0x00, 
  0xa2, 0xcc, 0xff, 0xff, 0x0c, 0x00, 0x00, 0x00, 0x10, 0x00, 0x00, 0x00, 
  0x12, 0x00, 0x00, 0x00, 0x01, 0x00, 0x00, 0x00, 0x17, 0x00, 0x00, 0x00, 
  0x01, 0x00, 0x00, 0x00, 0x13, 0x00, 0x00, 0x00, 0xc2, 0xcc, 0xff, 0xff, 
  0x0c, 0x00, 0x00, 0x00, 0x10, 0x00, 0x00, 0x00, 0x12, 0x00, 0x00, 0x00, 
  0x01, 0x00, 0x00, 0x00, 0x16, 0x00, 0x00, 0x00, 0x01, 0x00, 0x00, 0x00, 
  0x12, 0x00, 0x00, 0x00, 0xea, 0xca, 0xff, 0xff, 0x14, 0x00, 0x00, 0x00, 
  0x00, 0x00, 0x00, 0x23, 0x14, 0x00, 0x00, 0x00, 0x24, 0x00, 0x00, 0x00, 
  0x11, 0x00, 0x00, 0x00, 0x62, 0xca, 0xff, 0xff, 0x04, 0x00, 0x00, 0x00, 
  0x04, 0x00, 0x00, 0x00, 0x12, 0x00, 0x00, 0x00, 0x13, 0x00, 0x00, 0x00, 
  0x14, 0x00, 0x00, 0x00, 0x15, 0x00, 0x00, 0x00, 0x02, 0x00, 0x00, 0x00, 
  0x07, 0x00, 0x00, 0x00, 0x11, 0x00, 0x00, 0x00, 0x2a, 0xcb, 0xff, 0xff, 
  0x14, 0x00, 0x00, 0x00, 0x00, 0x00, 0x00, 0x0b, 0x10, 0x00, 0x00, 0x00, 
  0x14, 0x00, 0x00, 0x00, 0x0b, 0x00, 0x00, 0x00, 0xc4, 0xb7, 0xff, 0xff, 
  0x01, 0x00, 0x00, 0x00, 0x11, 0x00, 0x00, 0x00, 0x02, 0x00, 0x00, 0x00, 
  0x10, 0x00, 0x00, 0x00, 0x0a, 0x00, 0x00, 0x00, 0x5a, 0xcb, 0xff, 0xff, 
  0x14, 0x00, 0x00, 0x00, 0x00, 0x00, 0x00, 0x0b, 0x10, 0x00, 0x00, 0x00, 
  0x14, 0x00, 0x00, 0x00, 0x0b, 0x00, 0x00, 0x00, 0xf4, 0xb7, 0xff, 0xff, 
  0x01, 0x00, 0x00, 0x00, 0x10, 0x00, 0x00, 0x00, 0x02, 0x00, 0x00, 0x00, 
  0x0f, 0x00, 0x00, 0x00, 0x0c, 0x00, 0x00, 0x00, 0x8a, 0xcb, 0xff, 0xff, 
  0x14, 0x00, 0x00, 0x00, 0x00, 0x00, 0x00, 0x08, 0x10, 0x00, 0x00, 0x00, 
  0x14, 0x00, 0x00, 0x00, 0x0d, 0x00, 0x00, 0x00, 0x24, 0xb8, 0xff, 0xff, 
  0x01, 0x00, 0x00, 0x00, 0x0f, 0x00, 0x00, 0x00, 0x03, 0x00, 0x00, 0x00, 
  0x0e, 0x00, 0x00, 0x00, 0x08, 0x00, 0x00, 0x00, 0xff, 0xff, 0xff, 0xff, 
  0xbe, 0xcb, 0xff, 0xff, 0x14, 0x00, 0x00, 0x00, 0x00, 0x00, 0x00, 0x17, 
  0x10, 0x00, 0x00, 0x00, 0x14, 0x00, 0x00, 0x00, 0x10, 0x00, 0x00, 0x00, 
  0x58, 0xb8, 0xff, 0xff, 0x01, 0x00, 0x00, 0x00, 0x0e, 0x00, 0x00, 0x00, 
  0x02, 0x00, 0x00, 0x00, 0x05, 0x00, 0x00, 0x00, 0x01, 0x00, 0x00, 0x00, 
  0xee, 0xcb, 0xff, 0xff, 0x14, 0x00, 0x00, 0x00, 0x00, 0x00, 0x00, 0x0b, 
  0x10, 0x00, 0x00, 0x00, 0x14, 0x00, 0x00, 0x00, 0x0b, 0x00, 0x00, 0x00, 
  0x88, 0xb8, 0xff, 0xff, 0x01, 0x00, 0x00, 0x00, 0x0d, 0x00, 0x00, 0x00, 
  0x02, 0x00, 0x00, 0x00, 0x00, 0x00, 0x00, 0x00, 0x07, 0x00, 0x00, 0x00, 
  0x1e, 0xcc, 0xff, 0xff, 0x14, 0x00, 0x00, 0x00, 0x00, 0x00, 0x00, 0x08, 
  0x10, 0x00, 0x00, 0x00, 0x14, 0x00, 0x00, 0x00, 0x0d, 0x00, 0x00, 0x00, 
  0xb8, 0xb8, 0xff, 0xff, 0x01, 0x00, 0x00, 0x00, 0x0c, 0x00, 0x00, 0x00, 
  0x03, 0x00, 0x00, 0x00, 0x03, 0x00, 0x00, 0x00, 0x09, 0x00, 0x00, 0x00, 
  0xff, 0xff, 0xff, 0xff, 0x52, 0xcc, 0xff, 0xff, 0x14, 0x00, 0x00, 0x00, 
  0x00, 0x00, 0x00, 0x0b, 0x10, 0x00, 0x00, 0x00, 0x14, 0x00, 0x00, 0x00, 
  0x0b, 0x00, 0x00, 0x00, 0xec, 0xb8, 0xff, 0xff, 0x01, 0x00, 0x00, 0x00, 
  0x0b, 0x00, 0x00, 0x00, 0x02, 0x00, 0x00, 0x00, 0x01, 0x00, 0x00, 0x00, 
  0x07, 0x00, 0x00, 0x00, 0x06, 0x00, 0x00, 0x00, 0x0d, 0x00, 0x00, 0x00, 
  0x0b, 0x00, 0x00, 0x00, 0x1f, 0x00, 0x00, 0x00, 0x1e, 0x00, 0x00, 0x00, 
  0x1c, 0x00, 0x00, 0x00, 0x05, 0x00, 0x00, 0x00, 0x06, 0x00, 0x00, 0x00, 
  0x00, 0x00, 0x00, 0x00, 0x01, 0x00, 0x00, 0x00, 0x02, 0x00, 0x00, 0x00, 
  0x03, 0x00, 0x00, 0x00, 0x04, 0x00, 0x00, 0x00, 0x05, 0x00, 0x00, 0x00, 
  0x20, 0x00, 0x00, 0x00, 0xd0, 0x0c, 0x00, 0x00, 0x7c, 0x0c, 0x00, 0x00, 
  0x04, 0x0c, 0x00, 0x00, 0x9c, 0x0b, 0x00, 0x00, 0x34, 0x0b, 0x00, 0x00, 
  0xc4, 0x0a, 0x00, 0x00, 0x84, 0x0a, 0x00, 0x00, 0x44, 0x0a, 0x00, 0x00, 
  0x00, 0x0a, 0x00, 0x00, 0xbc, 0x09, 0x00, 0x00, 0x50, 0x09, 0x00, 0x00, 
  0x00, 0x09, 0x00, 0x00, 0x8c, 0x08, 0x00, 0x00, 0x3c, 0x08, 0x00, 0x00, 
  0xb8, 0x07, 0x00, 0x00, 0x44, 0x07, 0x00, 0x00, 0xd4, 0x06, 0x00, 0x00, 
  0x64, 0x06, 0x00, 0x00, 0xf4, 0x05, 0x00, 0x00, 0x80, 0x05, 0x00, 0x00, 
  0x0c, 0x05, 0x00, 0x00, 0x98, 0x04, 0x00, 0x00, 0x24, 0x04, 0x00, 0x00, 
  0xb0, 0x03, 0x00, 0x00, 0x40, 0x03, 0x00, 0x00, 0xcc, 0x02, 0x00, 0x00, 
  0x5c, 0x02, 0x00, 0x00, 0xec, 0x01, 0x00, 0x00, 0x7c, 0x01, 0x00, 0x00, 
  0x08, 0x01, 0x00, 0x00, 0x98, 0x00, 0x00, 0x00, 0x04, 0x00, 0x00, 0x00, 
  0x40, 0xc0, 0xff, 0xff, 0x1c, 0x00, 0x00, 0x00, 0x00, 0x00, 0x00, 0x01, 
  0x34, 0x00, 0x00, 0x00, 0x34, 0x00, 0x00, 0x00, 0x8e, 0x00, 0x00, 0x00, 
  0x00, 0x00, 0x00, 0x0e, 0x70, 0x00, 0x00, 0x00, 0x01, 0x00, 0x00, 0x00, 
  0x04, 0x00, 0x00, 0x00, 0x26, 0xc0, 0xff, 0xff, 0x00, 0x00, 0x00, 0x01, 
  0x04, 0x00, 0x00, 0x00, 0x02, 0x00, 0x00, 0x00, 0x00, 0x00, 0x00, 0x00, 
  0x08, 0x00, 0x00, 0x00, 0x00, 0xba, 0xff, 0xff, 0x42, 0x00, 0x00, 0x00, 
  0x73, 0x65, 0x71, 0x75, 0x65, 0x6e, 0x74, 0x69, 0x61, 0x6c, 0x5f, 0x33, 
  0x5f, 0x31, 0x2f, 0x6c, 0x73, 0x74, 0x6d, 0x5f, 0x37, 0x5f, 0x31, 0x2f, 
  0x77, 0x68, 0x69, 0x6c, 0x65, 0x2f, 0x54, 0x65, 0x6e, 0x73, 0x6f, 0x72, 
  0x41, 0x72, 0x72, 0x61, 0x79, 0x56, 0x32, 0x57, 0x72, 0x69, 0x74, 0x65, 
  0x2f, 0x54, 0x65, 0x6e, 0x73, 0x6f, 0x72, 0x4c, 0x69, 0x73, 0x74, 0x53, 
  0x65, 0x74, 0x49, 0x74, 0x65, 0x6d, 0x00, 0x00, 0x00, 0x00, 0x00, 0x00, 
  0x92, 0xba, 0xff, 0xff, 0x00, 0x00, 0x00, 0x01, 0x14, 0x00, 0x00, 0x00, 
  0x1c, 0x00, 0x00, 0x00, 0x1c, 0x00, 0x00, 0x00, 0x8d, 0x00, 0x00, 0x00, 
  0x48, 0x00, 0x00, 0x00, 0x02, 0x00, 0x00, 0x00, 0xff, 0xff, 0xff, 0xff, 
  0x08, 0x00, 0x00, 0x00, 0x78, 0xba, 0xff, 0xff, 0x2f, 0x00, 0x00, 0x00, 
  0x73, 0x65, 0x71, 0x75, 0x65, 0x6e, 0x74, 0x69, 0x61, 0x6c, 0x5f, 0x33, 
  0x5f, 0x31, 0x2f, 0x6c, 0x73, 0x74, 0x6d, 0x5f, 0x37, 0x5f, 0x31, 0x2f, 
  0x77, 0x68, 0x69, 0x6c, 0x65, 0x2f, 0x6c, 0x73, 0x74, 0x6d, 0x5f, 0x63, 
  0x65, 0x6c, 0x6c, 0x5f, 0x31, 0x2f, 0x6d, 0x75, 0x6c, 0x5f, 0x32, 0x00, 
  0x02, 0x00, 0x00, 0x00, 0x01, 0x00, 0x00, 0x00, 0x08, 0x00, 0x00, 0x00, 
  0xfe, 0xba, 0xff, 0xff, 0x00, 0x00, 0x00, 0x01, 0x14, 0x00, 0x00, 0x00, 
  0x1c, 0x00, 0x00, 0x00, 0x1c, 0x00, 0x00, 0x00, 0x8c, 0x00, 0x00, 0x00, 
  0x4c, 0x00, 0x00, 0x00, 0x02, 0x00, 0x00, 0x00, 0xff, 0xff, 0xff, 0xff, 
  0x08, 0x00, 0x00, 0x00, 0xe4, 0xba, 0xff, 0xff, 0x30, 0x00, 0x00, 0x00, 
  0x73, 0x65, 0x71, 0x75, 0x65, 0x6e, 0x74, 0x69, 0x61, 0x6c, 0x5f, 0x33, 
  0x5f, 0x31, 0x2f, 0x6c, 0x73, 0x74, 0x6d, 0x5f, 0x37, 0x5f, 0x31, 0x2f, 
  0x77, 0x68, 0x69, 0x6c, 0x65, 0x2f, 0x6c, 0x73, 0x74, 0x6d, 0x5f, 0x63, 
  0x65, 0x6c, 0x6c, 0x5f, 0x31, 0x2f, 0x54, 0x61, 0x6e, 0x68, 0x5f, 0x31, 
  0x00, 0x00, 0x00, 0x00, 0x02, 0x00, 0x00, 0x00, 0x01, 0x00, 0x00, 0x00, 
  0x08, 0x00, 0x00, 0x00, 0x6e, 0xbb, 0xff, 0xff, 0x00, 0x00, 0x00, 0x01, 
  0x14, 0x00, 0x00, 0x00, 0x1c, 0x00, 0x00, 0x00, 0x1c, 0x00, 0x00, 0x00, 
  0x8b, 0x00, 0x00, 0x00, 0x48, 0x00, 0x00, 0x00, 0x02, 0x00, 0x00, 0x00, 
  0xff, 0xff, 0xff, 0xff, 0x08, 0x00, 0x00, 0x00, 0x54, 0xbb, 0xff, 0xff, 
  0x2f, 0x00, 0x00, 0x00, 0x73, 0x65, 0x71, 0x75, 0x65, 0x6e, 0x74, 0x69, 
  0x61, 0x6c, 0x5f, 0x33, 0x5f, 0x31, 0x2f, 0x6c, 0x73, 0x74, 0x6d, 0x5f, 
  0x37, 0x5f, 0x31, 0x2f, 0x77, 0x68, 0x69, 0x6c, 0x65, 0x2f, 0x6c, 0x73, 
  0x74, 0x6d, 0x5f, 0x63, 0x65, 0x6c, 0x6c, 0x5f, 0x31, 0x2f, 0x61, 0x64, 
  0x64, 0x5f, 0x32, 0x00, 0x02, 0x00, 0x00, 0x00, 0x01, 0x00, 0x00, 0x00, 
  0x08, 0x00, 0x00, 0x00, 0xda, 0xbb, 0xff, 0xff, 0x00, 0x00, 0x00, 0x01, 
  0x14, 0x00, 0x00, 0x00, 0x1c, 0x00, 0x00, 0x00, 0x1c, 0x00, 0x00, 0x00, 
  0x8a, 0x00, 0x00, 0x00, 0x48, 0x00, 0x00, 0x00, 0x02, 0x00, 0x00, 0x00, 
  0xff, 0xff, 0xff, 0xff, 0x08, 0x00, 0x00, 0x00, 0xc0, 0xbb, 0xff, 0xff, 
  0x2f, 0x00, 0x00, 0x00, 0x73, 0x65, 0x71, 0x75, 0x65, 0x6e, 0x74, 0x69, 
  0x61, 0x6c, 0x5f, 0x33, 0x5f, 0x31, 0x2f, 0x6c, 0x73, 0x74, 0x6d, 0x5f, 
  0x37, 0x5f, 0x31, 0x2f, 0x77, 0x68, 0x69, 0x6c, 0x65, 0x2f, 0x6c, 0x73, 
  0x74, 0x6d, 0x5f, 0x63, 0x65, 0x6c, 0x6c, 0x5f, 0x31, 0x2f, 0x6d, 0x75, 
  0x6c, 0x5f, 0x31, 0x00, 0x02, 0x00, 0x00, 0x00, 0x01, 0x00, 0x00, 0x00, 
  0x08, 0x00, 0x00, 0x00, 0x46, 0xbc, 0xff, 0xff, 0x00, 0x00, 0x00, 0x01, 
  0x14, 0x00, 0x00, 0x00, 0x1c, 0x00, 0x00, 0x00, 0x1c, 0x00, 0x00, 0x00, 
  0x89, 0x00, 0x00, 0x00, 0x48, 0x00, 0x00, 0x00, 0x02, 0x00, 0x00, 0x00, 
  0xff, 0xff, 0xff, 0xff, 0x08, 0x00, 0x00, 0x00, 0x2c, 0xbc, 0xff, 0xff, 
  0x2e, 0x00, 0x00, 0x00, 0x73, 0x65, 0x71, 0x75, 0x65, 0x6e, 0x74, 0x69, 
  0x61, 0x6c, 0x5f, 0x33, 0x5f, 0x31, 0x2f, 0x6c, 0x73, 0x74, 0x6d, 0x5f, 
  0x37, 0x5f, 0x31, 0x2f, 0x77, 0x68, 0x69, 0x6c, 0x65, 0x2f, 0x6c, 0x73, 
  0x74, 0x6d, 0x5f, 0x63, 0x65, 0x6c, 0x6c, 0x5f, 0x31, 0x2f, 0x54, 0x61, 
  0x6e, 0x68, 0x00, 0x00, 0x02, 0x00, 0x00, 0x00, 0x01, 0x00, 0x00, 0x00, 
  0x08, 0x00, 0x00, 0x00, 0xb2, 0xbc, 0xff, 0xff, 0x00, 0x00, 0x00, 0x01, 
  0x14, 0x00, 0x00, 0x00, 0x1c, 0x00, 0x00, 0x00, 0x1c, 0x00, 0x00, 0x00, 
  0x88, 0x00, 0x00, 0x00, 0x4c, 0x00, 0x00, 0x00, 0x02, 0x00, 0x00, 0x00, 
  0xff, 0xff, 0xff, 0xff, 0x08, 0x00, 0x00, 0x00, 0x98, 0xbc, 0xff, 0xff, 
  0x33, 0x00, 0x00, 0x00, 0x73, 0x65, 0x71, 0x75, 0x65, 0x6e, 0x74, 0x69, 
  0x61, 0x6c, 0x5f, 0x33, 0x5f, 0x31, 0x2f, 0x6c, 0x73, 0x74, 0x6d, 0x5f, 
  0x37, 0x5f, 0x31, 0x2f, 0x77, 0x68, 0x69, 0x6c, 0x65, 0x2f, 0x6c, 0x73, 
  0x74, 0x6d, 0x5f, 0x63, 0x65, 0x6c, 0x6c, 0x5f, 0x31, 0x2f, 0x53, 0x69, 
  0x67, 0x6d, 0x6f, 0x69, 0x64, 0x5f, 0x32, 0x00, 0x02, 0x00, 0x00, 0x00, 
  0x01, 0x00, 0x00, 0x00, 0x08, 0x00, 0x00, 0x00, 0x22, 0xbd, 0xff, 0xff, 
  0x00, 0x00, 0x00, 0x01, 0x14, 0x00, 0x00, 0x00, 0x1c, 0x00, 0x00, 0x00, 
  0x1c, 0x00, 0x00, 0x00, 0x87, 0x00, 0x00, 0x00, 0x48, 0x00, 0x00, 0x00, 
  0x02, 0x00, 0x00, 0x00, 0xff, 0xff, 0xff, 0xff, 0x08, 0x00, 0x00, 0x00, 
  0x08, 0xbd, 0xff, 0xff, 0x2d, 0x00, 0x00, 0x00, 0x73, 0x65, 0x71, 0x75, 
  0x65, 0x6e, 0x74, 0x69, 0x61, 0x6c, 0x5f, 0x33, 0x5f, 0x31, 0x2f, 0x6c, 
  0x73, 0x74, 0x6d, 0x5f, 0x37, 0x5f, 0x31, 0x2f, 0x77, 0x68, 0x69, 0x6c, 
  0x65, 0x2f, 0x6c, 0x73, 0x74, 0x6d, 0x5f, 0x63, 0x65, 0x6c, 0x6c, 0x5f, 
  0x31, 0x2f, 0x6d, 0x75, 0x6c, 0x00, 0x00, 0x00, 0x02, 0x00, 0x00, 0x00, 
  0x01, 0x00, 0x00, 0x00, 0x08, 0x00, 0x00, 0x00, 0x8e, 0xbd, 0xff, 0xff, 
  0x00, 0x00, 0x00, 0x01, 0x14, 0x00, 0x00, 0x00, 0x1c, 0x00, 0x00, 0x00, 
  0x1c, 0x00, 0x00, 0x00, 0x86, 0x00, 0x00, 0x00, 0x4c, 0x00, 0x00, 0x00, 
  0x02, 0x00, 0x00, 0x00, 0xff, 0xff, 0xff, 0xff, 0x08, 0x00, 0x00, 0x00, 
  0x74, 0xbd, 0xff, 0xff, 0x33, 0x00, 0x00, 0x00, 0x73, 0x65, 0x71, 0x75, 
  0x65, 0x6e, 0x74, 0x69, 0x61, 0x6c, 0x5f, 0x33, 0x5f, 0x31, 0x2f, 0x6c, 
  0x73, 0x74, 0x6d, 0x5f, 0x37, 0x5f, 0x31, 0x2f, 0x77, 0x68, 0x69, 0x6c, 
  0x65, 0x2f, 0x6c, 0x73, 0x74, 0x6d, 0x5f, 0x63, 0x65, 0x6c, 0x6c, 0x5f, 
  0x31, 0x2f, 0x53, 0x69, 0x67, 0x6d, 0x6f, 0x69, 0x64, 0x5f, 0x31, 0x00, 
  0x02, 0x00, 0x00, 0x00, 0x01, 0x00, 0x00, 0x00, 0x08, 0x00, 0x00, 0x00, 
  0xfe, 0xbd, 0xff, 0xff, 0x00, 0x00, 0x00, 0x01, 0x14, 0x00, 0x00, 0x00, 
  0x1c, 0x00, 0x00, 0x00, 0x1c, 0x00, 0x00, 0x00, 0x85, 0x00, 0x00, 0x00, 
  0x4c, 0x00, 0x00, 0x00, 0x02, 0x00, 0x00, 0x00, 0xff, 0xff, 0xff, 0xff, 
  0x08, 0x00, 0x00, 0x00, 0xe4, 0xbd, 0xff, 0xff, 0x31, 0x00, 0x00, 0x00, 
  0x73, 0x65, 0x71, 0x75, 0x65, 0x6e, 0x74, 0x69, 0x61, 0x6c, 0x5f, 0x33, 
  0x5f, 0x31, 0x2f, 0x6c, 0x73, 0x74, 0x6d, 0x5f, 0x37, 0x5f, 0x31, 0x2f, 
  0x77, 0x68, 0x69, 0x6c, 0x65, 0x2f, 0x6c, 0x73, 0x74, 0x6d, 0x5f, 0x63, 
  0x65, 0x6c, 0x6c, 0x5f, 0x31, 0x2f, 0x53, 0x69, 0x67, 0x6d, 0x6f, 0x69, 
  0x64, 0x00, 0x00, 0x00, 0x02, 0x00, 0x00, 0x00, 0x01, 0x00, 0x00, 0x00, 
  0x08, 0x00, 0x00, 0x00, 0x6e, 0xbe, 0xff, 0xff, 0x00, 0x00, 0x00, 0x01, 
  0x14, 0x00, 0x00, 0x00, 0x1c, 0x00, 0x00, 0x00, 0x1c, 0x00, 0x00, 0x00, 
  0x84, 0x00, 0x00, 0x00, 0x4c, 0x00, 0x00, 0x00, 0x02, 0x00, 0x00, 0x00, 
  0xff, 0xff, 0xff, 0xff, 0x08, 0x00, 0x00, 0x00, 0x54, 0xbe, 0xff, 0xff, 
  0x30, 0x00, 0x00, 0x00, 0x73, 0x65, 0x71, 0x75, 0x65, 0x6e, 0x74, 0x69, 
  0x61, 0x6c, 0x5f, 0x33, 0x5f, 0x31, 0x2f, 0x6c, 0x73, 0x74, 0x6d, 0x5f, 
  0x37, 0x5f, 0x31, 0x2f, 0x77, 0x68, 0x69, 0x6c, 0x65, 0x2f, 0x6c, 0x73, 
  0x74, 0x6d, 0x5f, 0x63, 0x65, 0x6c, 0x6c, 0x5f, 0x31, 0x2f, 0x73, 0x70, 
  0x6c, 0x69, 0x74, 0x33, 0x00, 0x00, 0x00, 0x00, 0x02, 0x00, 0x00, 0x00, 
  0x01, 0x00, 0x00, 0x00, 0x08, 0x00, 0x00, 0x00, 0xde, 0xbe, 0xff, 0xff, 
  0x00, 0x00, 0x00, 0x01, 0x14, 0x00, 0x00, 0x00, 0x1c, 0x00, 0x00, 0x00, 
  0x1c, 0x00, 0x00, 0x00, 0x83, 0x00, 0x00, 0x00, 0x4c, 0x00, 0x00, 0x00, 
  0x02, 0x00, 0x00, 0x00, 0xff, 0xff, 0xff, 0xff, 0x08, 0x00, 0x00, 0x00, 
  0xc4, 0xbe, 0xff, 0xff, 0x30, 0x00, 0x00, 0x00, 0x73, 0x65, 0x71, 0x75, 
  0x65, 0x6e, 0x74, 0x69, 0x61, 0x6c, 0x5f, 0x33, 0x5f, 0x31, 0x2f, 0x6c, 
  0x73, 0x74, 0x6d, 0x5f, 0x37, 0x5f, 0x31, 0x2f, 0x77, 0x68, 0x69, 0x6c, 
  0x65, 0x2f, 0x6c, 0x73, 0x74, 0x6d, 0x5f, 0x63, 0x65, 0x6c, 0x6c, 0x5f, 
  0x31, 0x2f, 0x73, 0x70, 0x6c, 0x69, 0x74, 0x32, 0x00, 0x00, 0x00, 0x00, 
  0x02, 0x00, 0x00, 0x00, 0x01, 0x00, 0x00, 0x00, 0x08, 0x00, 0x00, 0x00, 
  0x4e, 0xbf, 0xff, 0xff, 0x00, 0x00, 0x00, 0x01, 0x14, 0x00, 0x00, 0x00, 
  0x1c, 0x00, 0x00, 0x00, 0x1c, 0x00, 0x00, 0x00, 0x82, 0x00, 0x00, 0x00, 
  0x4c, 0x00, 0x00, 0x00, 0x02, 0x00, 0x00, 0x00, 0xff, 0xff, 0xff, 0xff, 
  0x08, 0x00, 0x00, 0x00, 0x34, 0xbf, 0xff, 0xff, 0x30, 0x00, 0x00, 0x00, 
  0x73, 0x65, 0x71, 0x75, 0x65, 0x6e, 0x74, 0x69, 0x61, 0x6c, 0x5f, 0x33, 
  0x5f, 0x31, 0x2f, 0x6c, 0x73, 0x74, 0x6d, 0x5f, 0x37, 0x5f, 0x31, 0x2f, 
  0x77, 0x68, 0x69, 0x6c, 0x65, 0x2f, 0x6c, 0x73, 0x74, 0x6d, 0x5f, 0x63, 
  0x65, 0x6c, 0x6c, 0x5f, 0x31, 0x2f, 0x73, 0x70, 0x6c, 0x69, 0x74, 0x31, 
  0x00, 0x00, 0x00, 0x00, 0x02, 0x00, 0x00, 0x00, 0x01, 0x00, 0x00, 0x00, 
  0x08, 0x00, 0x00, 0x00, 0xbe, 0xbf, 0xff, 0xff, 0x00, 0x00, 0x00, 0x01, 
  0x14, 0x00, 0x00, 0x00, 0x1c, 0x00, 0x00, 0x00, 0x1c, 0x00, 0x00, 0x00, 
  0x81, 0x00, 0x00, 0x00, 0x48, 0x00, 0x00, 0x00, 0x02, 0x00, 0x00, 0x00, 
  0xff, 0xff, 0xff, 0xff, 0x08, 0x00, 0x00, 0x00, 0xa4, 0xbf, 0xff, 0xff, 
  0x2f, 0x00, 0x00, 0x00, 0x73, 0x65, 0x71, 0x75, 0x65, 0x6e, 0x74, 0x69, 
  0x61, 0x6c, 0x5f, 0x33, 0x5f, 0x31, 0x2f, 0x6c, 0x73, 0x74, 0x6d, 0x5f, 
  0x37, 0x5f, 0x31, 0x2f, 0x77, 0x68, 0x69, 0x6c, 0x65, 0x2f, 0x6c, 0x73, 
  0x74, 0x6d, 0x5f, 0x63, 0x65, 0x6c, 0x6c, 0x5f, 0x31, 0x2f, 0x73, 0x70, 
  0x6c, 0x69, 0x74, 0x00, 0x02, 0x00, 0x00, 0x00, 0x01, 0x00, 0x00, 0x00, 
  0x08, 0x00, 0x00, 0x00, 0x2a, 0xc0, 0xff, 0xff, 0x00, 0x00, 0x00, 0x01, 
  0x14, 0x00, 0x00, 0x00, 0x1c, 0x00, 0x00, 0x00, 0x1c, 0x00, 0x00, 0x00, 
  0x80, 0x00, 0x00, 0x00, 0x48, 0x00, 0x00, 0x00, 0x02, 0x00, 0x00, 0x00, 
  0xff, 0xff, 0xff, 0xff, 0x20, 0x00, 0x00, 0x00, 0x10, 0xc0, 0xff, 0xff, 
  0x2f, 0x00, 0x00, 0x00, 0x73, 0x65, 0x71, 0x75, 0x65, 0x6e, 0x74, 0x69, 
  0x61, 0x6c, 0x5f, 0x33, 0x5f, 0x31, 0x2f, 0x6c, 0x73, 0x74, 0x6d, 0x5f, 
  0x37, 0x5f, 0x31, 0x2f, 0x77, 0x68, 0x69, 0x6c, 0x65, 0x2f, 0x6c, 0x73, 
  0x74, 0x6d, 0x5f, 0x63, 0x65, 0x6c, 0x6c, 0x5f, 0x31, 0x2f, 0x61, 0x64, 
  0x64, 0x5f, 0x31, 0x00, 0x02, 0x00, 0x00, 0x00, 0x01, 0x00, 0x00, 0x00, 
  0x20, 0x00, 0x00, 0x00, 0x96, 0xc0, 0xff, 0xff, 0x00, 0x00, 0x00, 0x01, 
  0x14, 0x00, 0x00, 0x00, 0x1c, 0x00, 0x00, 0x00, 0x1c, 0x00, 0x00, 0x00, 
  0x7f, 0x00, 0x00, 0x00, 0x48, 0x00, 0x00, 0x00, 0x02, 0x00, 0x00, 0x00, 
  0xff, 0xff, 0xff, 0xff, 0x20, 0x00, 0x00, 0x00, 0x7c, 0xc0, 0xff, 0xff, 
  0x2d, 0x00, 0x00, 0x00, 0x73, 0x65, 0x71, 0x75, 0x65, 0x6e, 0x74, 0x69, 
  0x61, 0x6c, 0x5f, 0x33, 0x5f, 0x31, 0x2f, 0x6c, 0x73, 0x74, 0x6d, 0x5f, 
  0x37, 0x5f, 0x31, 0x2f, 0x77, 0x68, 0x69, 0x6c, 0x65, 0x2f, 0x6c, 0x73, 
  0x74, 0x6d, 0x5f, 0x63, 0x65, 0x6c, 0x6c, 0x5f, 0x31, 0x2f, 0x61, 0x64, 
  0x64, 0x00, 0x00, 0x00, 0x02, 0x00, 0x00, 0x00, 0x01, 0x00, 0x00, 0x00, 
  0x20, 0x00, 0x00, 0x00, 0x02, 0xc1, 0xff, 0xff, 0x00, 0x00, 0x00, 0x01, 
  0x14, 0x00, 0x00, 0x00, 0x1c, 0x00, 0x00, 0x00, 0x1c, 0x00, 0x00, 0x00, 
  0x7e, 0x00, 0x00, 0x00, 0x4c, 0x00, 0x00, 0x00, 0x02, 0x00, 0x00, 0x00, 
  0xff, 0xff, 0xff, 0xff, 0x20, 0x00, 0x00, 0x00, 0xe8, 0xc0, 0xff, 0xff, 
  0x30, 0x00, 0x00, 0x00, 0x73, 0x65, 0x71, 0x75, 0x65, 0x6e, 0x74, 0x69, 
  0x61, 0x6c, 0x5f, 0x33, 0x5f, 0x31, 0x2f, 0x6c, 0x73, 0x74, 0x6d, 0x5f, 
  0x37, 0x5f, 0x31, 0x2f, 0x77, 0x68, 0x69, 0x6c, 0x65, 0x2f, 0x6c, 0x73, 
  0x74, 0x6d, 0x5f, 0x63, 0x65, 0x6c, 0x6c, 0x5f, 0x31, 0x2f, 0x4d, 0x61, 
  0x74, 0x4d, 0x75, 0x6c, 0x00, 0x00, 0x00, 0x00, 0x02, 0x00, 0x00, 0x00, 
  0x01, 0x00, 0x00, 0x00, 0x20, 0x00, 0x00, 0x00, 0x72, 0xc1, 0xff, 0xff, 
  0x00, 0x00, 0x00, 0x01, 0x14, 0x00, 0x00, 0x00, 0x1c, 0x00, 0x00, 0x00, 
  0x1c, 0x00, 0x00, 0x00, 0x7d, 0x00, 0x00, 0x00, 0x5c, 0x00, 0x00, 0x00, 
  0x02, 0x00, 0x00, 0x00, 0xff, 0xff, 0xff, 0xff, 0x10, 0x00, 0x00, 0x00, 
  0x58, 0xc1, 0xff, 0xff, 0x41, 0x00, 0x00, 0x00, 0x73, 0x65, 0x71, 0x75, 
  0x65, 0x6e, 0x74, 0x69, 0x61, 0x6c, 0x5f, 0x33, 0x5f, 0x31, 0x2f, 0x6c, 
  0x73, 0x74, 0x6d, 0x5f, 0x37, 0x5f, 0x31, 0x2f, 0x77, 0x68, 0x69, 0x6c, 
  0x65, 0x2f, 0x54, 0x65, 0x6e, 0x73, 0x6f, 0x72, 0x41, 0x72, 0x72, 0x61, 
  0x79, 0x56, 0x32, 0x52, 0x65, 0x61, 0x64, 0x2f, 0x54, 0x65, 0x6e, 0x73, 
  0x6f, 0x72, 0x4c, 0x69, 0x73, 0x74, 0x47, 0x65, 0x74, 0x49, 0x74, 0x65, 
  0x6d, 0x00, 0x00, 0x00, 0x02, 0x00, 0x00, 0x00, 0x01, 0x00, 0x00, 0x00, 
  0x10, 0x00, 0x00, 0x00, 0xce, 0xc2, 0xff, 0xff, 0x00, 0x00, 0x00, 0x01, 
  0x14, 0x00, 0x00, 0x00, 0x14, 0x00, 0x00, 0x00, 0x7c, 0x00, 0x00, 0x00, 
  0x00, 0x00, 0x00, 0x02, 0x30, 0x00, 0x00, 0x00, 0xcc, 0xc1, 0xff, 0xff, 
  0x23, 0x00, 0x00, 0x00, 0x73, 0x65, 0x71, 0x75, 0x65, 0x6e, 0x74, 0x69, 
  0x61, 0x6c, 0x5f, 0x33, 0x5f, 0x31, 0x2f, 0x6c, 0x73, 0x74, 0x6d, 0x5f, 
  0x37, 0x5f, 0x31, 0x2f, 0x77, 0x68, 0x69, 0x6c, 0x65, 0x2f, 0x61, 0x64, 
  0x64, 0x5f, 0x31, 0x00, 0x00, 0x00, 0x00, 0x00, 0x3e, 0xc2, 0xff, 0xff, 
  0x00, 0x00, 0x00, 0x01, 0x14, 0x00, 0x00, 0x00, 0x1c, 0x00, 0x00, 0x00, 
  0x1c, 0x00, 0x00, 0x00, 0x7b, 0x00, 0x00, 0x00, 0x4c, 0x00, 0x00, 0x00, 
  0x02, 0x00, 0x00, 0x00, 0xff, 0xff, 0xff, 0xff, 0x20, 0x00, 0x00, 0x00, 
  0x24, 0xc2, 0xff, 0xff, 0x32, 0x00, 0x00, 0x00, 0x73, 0x65, 0x71, 0x75, 
  0x65, 0x6e, 0x74, 0x69, 0x61, 0x6c, 0x5f, 0x33, 0x5f, 0x31, 0x2f, 0x6c, 
  0x73, 0x74, 0x6d, 0x5f, 0x37, 0x5f, 0x31, 0x2f, 0x77, 0x68, 0x69, 0x6c, 
  0x65, 0x2f, 0x6c, 0x73, 0x74, 0x6d, 0x5f, 0x63, 0x65, 0x6c, 0x6c, 0x5f, 
  0x31, 0x2f, 0x4d, 0x61, 0x74, 0x4d, 0x75, 0x6c, 0x5f, 0x31, 0x00, 0x00, 
  0x02, 0x00, 0x00, 0x00, 0x01, 0x00, 0x00, 0x00, 0x20, 0x00, 0x00, 0x00, 
  0x8a, 0xc3, 0xff, 0xff, 0x00, 0x00, 0x00, 0x01, 0x14, 0x00, 0x00, 0x00, 
  0x14, 0x00, 0x00, 0x00, 0x7a, 0x00, 0x00, 0x00, 0x00, 0x00, 0x00, 0x02, 
  0x30, 0x00, 0x00, 0x00, 0x88, 0xc2, 0xff, 0xff, 0x21, 0x00, 0x00, 0x00, 
  0x73, 0x65, 0x71, 0x75, 0x65, 0x6e, 0x74, 0x69, 0x61, 0x6c, 0x5f, 0x33, 
  0x5f, 0x31, 0x2f, 0x6c, 0x73, 0x74, 0x6d, 0x5f, 0x37, 0x5f, 0x31, 0x2f, 
  0x77, 0x68, 0x69, 0x6c, 0x65, 0x2f, 0x61, 0x64, 0x64, 0x00, 0x00, 0x00, 
  0x00, 0x00, 0x00, 0x00, 0x4a, 0xc3, 0xff, 0xff, 0x00, 0x00, 0x00, 0x01, 
  0x10, 0x00, 0x00, 0x00, 0x10, 0x00, 0x00, 0x00, 0x79, 0x00, 0x00, 0x00, 
  0x4c, 0x00, 0x00, 0x00, 0xd0, 0xc2, 0xff, 0xff, 0x3e, 0x00, 0x00, 0x00, 
  0x73, 0x65, 0x71, 0x75, 0x65, 0x6e, 0x74, 0x69, 0x61, 0x6c, 0x5f, 0x33, 
  0x5f, 0x31, 0x2f, 0x6c, 0x73, 0x74, 0x6d, 0x5f, 0x37, 0x5f, 0x31, 0x2f, 
  0x77, 0x68, 0x69, 0x6c, 0x65, 0x2f, 0x6c, 0x73, 0x74, 0x6d, 0x5f, 0x63, 
  0x65, 0x6c, 0x6c, 0x5f, 0x31, 0x2f, 0x61, 0x64, 0x64, 0x5f, 0x31, 0x2f, 
  0x52, 0x65, 0x61, 0x64, 0x56, 0x61, 0x72, 0x69, 0x61, 0x62, 0x6c, 0x65, 
  0x4f, 0x70, 0x00, 0x00, 0x01, 0x00, 0x00, 0x00, 0x20, 0x00, 0x00, 0x00, 
  0xb2, 0xc3, 0xff, 0xff, 0x00, 0x00, 0x00, 0x01, 0x10, 0x00, 0x00, 0x00, 
  0x10, 0x00, 0x00, 0x00, 0x78, 0x00, 0x00, 0x00, 0x20, 0x00, 0x00, 0x00, 
  0x38, 0xc3, 0xff, 0xff, 0x10, 0x00, 0x00, 0x00, 0x61, 0x72, 0x69, 0x74, 
  0x68, 0x2e, 0x63, 0x6f, 0x6e, 0x73, 0x74, 0x61, 0x6e, 0x74, 0x32, 0x36, 
  0x00, 0x00, 0x00, 0x00, 0x02, 0x00, 0x00, 0x00, 0x20, 0x00, 0x00, 0x00, 
  0x08, 0x00, 0x00, 0x00, 0xf2, 0xc3, 0xff, 0xff, 0x00, 0x00, 0x00, 0x01, 
  0x10, 0x00, 0x00, 0x00, 0x10, 0x00, 0x00, 0x00, 0x77, 0x00, 0x00, 0x00, 
  0x20, 0x00, 0x00, 0x00, 0x78, 0xc3, 0xff, 0xff, 0x10, 0x00, 0x00, 0x00, 
  0x61, 0x72, 0x69, 0x74, 0x68, 0x2e, 0x63, 0x6f, 0x6e, 0x73, 0x74, 0x61, 
  0x6e, 0x74, 0x32, 0x35, 0x00, 0x00, 0x00, 0x00, 0x02, 0x00, 0x00, 0x00, 
  0x20, 0x00, 0x00, 0x00, 0x10, 0x00, 0x00, 0x00, 0xbe, 0xc4, 0xff, 0xff, 
  0x00, 0x00, 0x00, 0x01, 0x14, 0x00, 0x00, 0x00, 0x14, 0x00, 0x00, 0x00, 
  0x0c, 0x00, 0x00, 0x00, 0x00, 0x00, 0x00, 0x02, 0x20, 0x00, 0x00, 0x00, 
  0xbc, 0xc3, 0xff, 0xff, 0x10, 0x00, 0x00, 0x00, 0x61, 0x72, 0x69, 0x74, 
  0x68, 0x2e, 0x63, 0x6f, 0x6e, 0x73, 0x74, 0x61, 0x6e, 0x74, 0x32, 0x34, 
  0x00, 0x00, 0x00, 0x00, 0x00, 0x00, 0x00, 0x00, 0xfa, 0xc4, 0xff, 0xff, 
  0x00, 0x00, 0x00, 0x01, 0x14, 0x00, 0x00, 0x00, 0x14, 0x00, 0x00, 0x00, 
  0x0a, 0x00, 0x00, 0x00, 0x00, 0x00, 0x00, 0x02, 0x20, 0x00, 0x00, 0x00, 
  0xf8, 0xc3, 0xff, 0xff, 0x10, 0x00, 0x00, 0x00, 0x61, 0x72, 0x69, 0x74, 
  0x68, 0x2e, 0x63, 0x6f, 0x6e, 0x73, 0x74, 0x61, 0x6e, 0x74, 0x32, 0x33, 
  0x00, 0x00, 0x00, 0x00, 0x00, 0x00, 0x00, 0x00, 0x5a, 0xc4, 0xff, 0xff, 
  0x00, 0x00, 0x00, 0x01, 0x14, 0x00, 0x00, 0x00, 0x20, 0x00, 0x00, 0x00, 
  0x20, 0x00, 0x00, 0x00, 0x74, 0x00, 0x00, 0x00, 0x44, 0x00, 0x00, 0x00, 
  0x03, 0x00, 0x00, 0x00, 0x3c, 0x00, 0x00, 0x00, 0xff, 0xff, 0xff, 0xff, 
  0x10, 0x00, 0x00, 0x00, 0x44, 0xc4, 0xff, 0xff, 0x27, 0x00, 0x00, 0x00, 
  0x73, 0x65, 0x71, 0x75, 0x65, 0x6e, 0x74, 0x69, 0x61, 0x6c, 0x5f, 0x33, 
  0x5f, 0x31, 0x2f, 0x6c, 0x73, 0x74, 0x6d, 0x5f, 0x37, 0x5f, 0x31, 0x2f, 
  0x77, 0x68, 0x69, 0x6c, 0x65, 0x5f, 0x62, 0x6f, 0x64, 0x79, 0x5f, 0x61, 
  0x72, 0x67, 0x35, 0x00, 0x03, 0x00, 0x00, 0x00, 0x3c, 0x00, 0x00, 0x00, 
  0x01, 0x00, 0x00, 0x00, 0x10, 0x00, 0x00, 0x00, 0xc6, 0xc4, 0xff, 0xff, 
  0x00, 0x00, 0x00, 0x01, 0x14, 0x00, 0x00, 0x00, 0x1c, 0x00, 0x00, 0x00, 
  0x1c, 0x00, 0x00, 0x00, 0x73, 0x00, 0x00, 0x00, 0x40, 0x00, 0x00, 0x00, 
  0x02, 0x00, 0x00, 0x00, 0xff, 0xff, 0xff, 0xff, 0x08, 0x00, 0x00, 0x00, 
  0xac, 0xc4, 0xff, 0xff, 0x27, 0x00, 0x00, 0x00, 0x73, 0x65, 0x71, 0x75, 
  0x65, 0x6e, 0x74, 0x69, 0x61, 0x6c, 0x5f, 0x33, 0x5f, 0x31, 0x2f, 0x6c, 
  0x73, 0x74, 0x6d, 0x5f, 0x37, 0x5f, 0x31, 0x2f, 0x77, 0x68, 0x69, 0x6c, 
  0x65, 0x5f, 0x62, 0x6f, 0x64, 0x79, 0x5f, 0x61, 0x72, 0x67, 0x34, 0x00, 
  0x02, 0x00, 0x00, 0x00, 0x01, 0x00, 0x00, 0x00, 0x08, 0x00, 0x00, 0x00, 
  0x2a, 0xc5, 0xff, 0xff, 0x00, 0x00, 0x00, 0x01, 0x14, 0x00, 0x00, 0x00, 
  0x1c, 0x00, 0x00, 0x00, 0x1c, 0x00, 0x00, 0x00, 0x72, 0x00, 0x00, 0x00, 
  0x40, 0x00, 0x00, 0x00, 0x02, 0x00, 0x00, 0x00, 0xff, 0xff, 0xff, 0xff, 
  0x08, 0x00, 0x00, 0x00, 0x10, 0xc5, 0xff, 0xff, 0x27, 0x00, 0x00, 0x00, 
  0x73, 0x65, 0x71, 0x75, 0x65, 0x6e, 0x74, 0x69, 0x61, 0x6c, 0x5f, 0x33, 
  0x5f, 0x31, 0x2f, 0x6c, 0x73, 0x74, 0x6d, 0x5f, 0x37, 0x5f, 0x31, 0x2f, 
  0x77, 0x68, 0x69, 0x6c, 0x65, 0x5f, 0x62, 0x6f, 0x64, 0x79, 0x5f, 0x61, 
  0x72, 0x67, 0x33, 0x00, 0x02, 0x00, 0x00, 0x00, 0x01, 0x00, 0x00, 0x00, 
  0x08, 0x00, 0x00, 0x00, 0xcc, 0xcb, 0xff, 0xff, 0x1c, 0x00, 0x00, 0x00, 
  0x00, 0x00, 0x00, 0x01, 0x34, 0x00, 0x00, 0x00, 0x34, 0x00, 0x00, 0x00, 
  0x71, 0x00, 0x00, 0x00, 0x00, 0x00, 0x00, 0x0e, 0x54, 0x00, 0x00, 0x00, 
  0x01, 0x00, 0x00, 0x00, 0x04, 0x00, 0x00, 0x00, 0xb2, 0xcb, 0xff, 0xff, 
  0x00, 0x00, 0x00, 0x01, 0x04, 0x00, 0x00, 0x00, 0x02, 0x00, 0x00, 0x00, 
  0x00, 0x00, 0x00, 0x00, 0x08, 0x00, 0x00, 0x00, 0x8c, 0xc5, 0xff, 0xff, 
  0x27, 0x00, 0x00, 0x00, 0x73, 0x65, 0x71, 0x75, 0x65, 0x6e, 0x74, 0x69, 
  0x61, 0x6c, 0x5f, 0x33, 0x5f, 0x31, 0x2f, 0x6c, 0x73, 0x74, 0x6d, 0x5f, 
  0x37, 0x5f, 0x31, 0x2f, 0x77, 0x68, 0x69, 0x6c, 0x65, 0x5f, 0x62, 0x6f, 
  0x64, 0x79, 0x5f, 0x61, 0x72, 0x67, 0x32, 0x00, 0x00, 0x00, 0x00, 0x00, 
  0xde, 0xc6, 0xff, 0xff, 0x00, 0x00, 0x00, 0x01, 0x14, 0x00, 0x00, 0x00, 
  0x14, 0x00, 0x00, 0x00, 0x70, 0x00, 0x00, 0x00, 0x00, 0x00, 0x00, 0x02, 
  0x34, 0x00, 0x00, 0x00, 0xdc, 0xc5, 0xff, 0xff, 0x27, 0x00, 0x00, 0x00, 
  0x73, 0x65, 0x71, 0x75, 0x65, 0x6e, 0x74, 0x69, 0x61, 0x6c, 0x5f, 0x33, 
  0x5f, 0x31, 0x2f, 0x6c, 0x73, 0x74, 0x6d, 0x5f, 0x37, 0x5f, 0x31, 0x2f, 
  0x77, 0x68, 0x69, 0x6c, 0x65, 0x5f, 0x62, 0x6f, 0x64, 0x79, 0x5f, 0x61, 
  0x72, 0x67, 0x31, 0x00, 0x00, 0x00, 0x00, 0x00, 0x2e, 0xc7, 0xff, 0xff, 
  0x00, 0x00, 0x00, 0x01, 0x14, 0x00, 0x00, 0x00, 0x14, 0x00, 0x00, 0x00, 
  0x6f, 0x00, 0x00, 0x00, 0x00, 0x00, 0x00, 0x02, 0x34, 0x00, 0x00, 0x00, 
  0x2c, 0xc6, 0xff, 0xff, 0x27, 0x00, 0x00, 0x00, 0x73, 0x65, 0x71, 0x75, 
  0x65, 0x6e, 0x74, 0x69, 0x61, 0x6c, 0x5f, 0x33, 0x5f, 0x31, 0x2f, 0x6c, 
  0x73, 0x74, 0x6d, 0x5f, 0x37, 0x5f, 0x31, 0x2f, 0x77, 0x68, 0x69, 0x6c, 
  0x65, 0x5f, 0x62, 0x6f, 0x64, 0x79, 0x5f, 0x61, 0x72, 0x67, 0x30, 0x00, 
  0x00, 0x00, 0x00, 0x00, 0xa6, 0xe2, 0xff, 0xff, 0x14, 0x00, 0x00, 0x00, 
  0x38, 0x00, 0x00, 0x00, 0xb0, 0x00, 0x00, 0x00, 0xb4, 0x00, 0x00, 0x00, 
  0xcc, 0x00, 0x00, 0x00, 0x22, 0x00, 0x00, 0x00, 0x73, 0x65, 0x71, 0x75, 
  0x65, 0x6e, 0x74, 0x69, 0x61, 0x6c, 0x5f, 0x33, 0x5f, 0x31, 0x2f, 0x6c, 
  0x73, 0x74, 0x6d, 0x5f, 0x37, 0x5f, 0x31, 0x2f, 0x77, 0x68, 0x69, 0x6c, 
  0x65, 0x5f, 0x63, 0x6f, 0x6e, 0x64, 0x00, 0x00, 0x03, 0x00, 0x00, 0x00, 
  0x54, 0x00, 0x00, 0x00, 0x2c, 0x00, 0x00, 0x00, 0x04, 0x00, 0x00, 0x00, 
  0x26, 0xdc, 0xff, 0xff, 0x0c, 0x00, 0x00, 0x00, 0x10, 0x00, 0x00, 0x00, 
  0x0f, 0x00, 0x00, 0x00, 0x01, 0x00, 0x00, 0x00, 0x09, 0x00, 0x00, 0x00, 
  0x02, 0x00, 0x00, 0x00, 0x08, 0x00, 0x00, 0x00, 0x07, 0x00, 0x00, 0x00, 
  0x4a, 0xdc, 0xff, 0xff, 0x0c, 0x00, 0x00, 0x00, 0x10, 0x00, 0x00, 0x00, 
  0x0e, 0x00, 0x00, 0x00, 0x01, 0x00, 0x00, 0x00, 0x08, 0x00, 0x00, 0x00, 
  0x02, 0x00, 0x00, 0x00, 0x00, 0x00, 0x00, 0x00, 0x06, 0x00, 0x00, 0x00, 
  0x6e, 0xdc, 0xff, 0xff, 0x0c, 0x00, 0x00, 0x00, 0x10, 0x00, 0x00, 0x00, 
  0x0e, 0x00, 0x00, 0x00, 0x01, 0x00, 0x00, 0x00, 0x07, 0x00, 0x00, 0x00, 
  0x02, 0x00, 0x00, 0x00, 0x01, 0x00, 0x00, 0x00, 0x06, 0x00, 0x00, 0x00, 
  0x01, 0x00, 0x00, 0x00, 0x09, 0x00, 0x00, 0x00, 0x06, 0x00, 0x00, 0x00, 
  0x00, 0x00, 0x00, 0x00, 0x01, 0x00, 0x00, 0x00, 0x02, 0x00, 0x00, 0x00, 
  0x03, 0x00, 0x00, 0x00, 0x04, 0x00, 0x00, 0x00, 0x05, 0x00, 0x00, 0x00, 
  0x0a, 0x00, 0x00, 0x00, 0x60, 0x03, 0x00, 0x00, 0x0c, 0x03, 0x00, 0x00, 
  0x94, 0x02, 0x00, 0x00, 0x2c, 0x02, 0x00, 0x00, 0xc4, 0x01, 0x00, 0x00, 
  0x54, 0x01, 0x00, 0x00, 0x00, 0x01, 0x00, 0x00, 0xb0, 0x00, 0x00, 0x00, 
  0x5c, 0x00, 0x00, 0x00, 0x04, 0x00, 0x00, 0x00, 0x8a, 0xc8, 0xff, 0xff, 
  0x00, 0x00, 0x00, 0x01, 0x14, 0x00, 0x00, 0x00, 0x14, 0x00, 0x00, 0x00, 
  0x6e, 0x00, 0x00, 0x00, 0x00, 0x00, 0x00, 0x06, 0x38, 0x00, 0x00, 0x00, 
  0x88, 0xc7, 0xff, 0xff, 0x28, 0x00, 0x00, 0x00, 0x73, 0x65, 0x71, 0x75, 
  0x65, 0x6e, 0x74, 0x69, 0x61, 0x6c, 0x5f, 0x33, 0x5f, 0x31, 0x2f, 0x6c, 
  0x73, 0x74, 0x6d, 0x5f, 0x37, 0x5f, 0x31, 0x2f, 0x77, 0x68, 0x69, 0x6c, 
  0x65, 0x2f, 0x4c, 0x6f, 0x67, 0x69, 0x63, 0x61, 0x6c, 0x41, 0x6e, 0x64, 
  0x00, 0x00, 0x00, 0x00, 0x00, 0x00, 0x00, 0x00, 0xde, 0xc8, 0xff, 0xff, 
  0x00, 0x00, 0x00, 0x01, 0x14, 0x00, 0x00, 0x00, 0x14, 0x00, 0x00, 0x00, 
  0x6d, 0x00, 0x00, 0x00, 0x00, 0x00, 0x00, 0x06, 0x34, 0x00, 0x00, 0x00, 
  0xdc, 0xc7, 0xff, 0xff, 0x24, 0x00, 0x00, 0x00, 0x73, 0x65, 0x71, 0x75, 
  0x65, 0x6e, 0x74, 0x69, 0x61, 0x6c, 0x5f, 0x33, 0x5f, 0x31, 0x2f, 0x6c, 
  0x73, 0x74, 0x6d, 0x5f, 0x37, 0x5f, 0x31, 0x2f, 0x77, 0x68, 0x69, 0x6c, 
  0x65, 0x2f, 0x4c, 0x65, 0x73, 0x73, 0x5f, 0x31, 0x00, 0x00, 0x00, 0x00, 
  0x00, 0x00, 0x00, 0x00, 0x2e, 0xc9, 0xff, 0xff, 0x00, 0x00, 0x00, 0x01, 
  0x14, 0x00, 0x00, 0x00, 0x14, 0x00, 0x00, 0x00, 0x6c, 0x00, 0x00, 0x00, 
  0x00, 0x00, 0x00, 0x06, 0x30, 0x00, 0x00, 0x00, 0x2c, 0xc8, 0xff, 0xff, 
  0x22, 0x00, 0x00, 0x00, 0x73, 0x65, 0x71, 0x75, 0x65, 0x6e, 0x74, 0x69, 
  0x61, 0x6c, 0x5f, 0x33, 0x5f, 0x31, 0x2f, 0x6c, 0x73, 0x74, 0x6d, 0x5f, 
  0x37, 0x5f, 0x31, 0x2f, 0x77, 0x68, 0x69, 0x6c, 0x65, 0x2f, 0x4c, 0x65, 
  0x73, 0x73, 0x00, 0x00, 0x00, 0x00, 0x00, 0x00, 0x7a, 0xc9, 0xff, 0xff, 
  0x00, 0x00, 0x00, 0x01, 0x14, 0x00, 0x00, 0x00, 0x14, 0x00, 0x00, 0x00, 
  0x14, 0x00, 0x00, 0x00, 0x00, 0x00, 0x00, 0x02, 0x34, 0x00, 0x00, 0x00, 
  0x78, 0xc8, 0xff, 0xff, 0x25, 0x00, 0x00, 0x00, 0x73, 0x65, 0x71, 0x75, 
  0x65, 0x6e, 0x74, 0x69, 0x61, 0x6c, 0x5f, 0x33, 0x5f, 0x31, 0x2f, 0x6c, 
  0x73, 0x74, 0x6d, 0x5f, 0x36, 0x5f, 0x31, 0x2f, 0x77, 0x68, 0x69, 0x6c, 
  0x65, 0x2f, 0x4c, 0x65, 0x73, 0x73, 0x2f, 0x79, 0x32, 0x00, 0x00, 0x00, 
  0x00, 0x00, 0x00, 0x00, 0xee, 0xc8, 0xff, 0xff, 0x00, 0x00, 0x00, 0x01, 
  0x14, 0x00, 0x00, 0x00, 0x20, 0x00, 0x00, 0x00, 0x20, 0x00, 0x00, 0x00, 
  0x6a, 0x00, 0x00, 0x00, 0x44, 0x00, 0x00, 0x00, 0x03, 0x00, 0x00, 0x00, 
  0x3c, 0x00, 0x00, 0x00, 0xff, 0xff, 0xff, 0xff, 0x10, 0x00, 0x00, 0x00, 
  0xd8, 0xc8, 0xff, 0xff, 0x27, 0x00, 0x00, 0x00, 0x73, 0x65, 0x71, 0x75, 
  0x65, 0x6e, 0x74, 0x69, 0x61, 0x6c, 0x5f, 0x33, 0x5f, 0x31, 0x2f, 0x6c, 
  0x73, 0x74, 0x6d, 0x5f, 0x37, 0x5f, 0x31, 0x2f, 0x77, 0x68, 0x69, 0x6c, 
  0x65, 0x5f, 0x63, 0x6f, 0x6e, 0x64, 0x5f, 0x61, 0x72, 0x67, 0x35, 0x00, 
  0x03, 0x00, 0x00, 0x00, 0x3c, 0x00, 0x00, 0x00, 0x01, 0x00, 0x00, 0x00, 
  0x10, 0x00, 0x00, 0x00, 0x5a, 0xc9, 0xff, 0xff, 0x00, 0x00, 0x00, 0x01, 
  0x14, 0x00, 0x00, 0x00, 0x1c, 0x00, 0x00, 0x00, 0x1c, 0x00, 0x00, 0x00, 
  0x69, 0x00, 0x00, 0x00, 0x40, 0x00, 0x00, 0x00, 0x02, 0x00, 0x00, 0x00, 
  0xff, 0xff, 0xff, 0xff, 0x08, 0x00, 0x00, 0x00, 0x40, 0xc9, 0xff, 0xff, 
  0x27, 0x00, 0x00, 0x00, 0x73, 0x65, 0x71, 0x75, 0x65, 0x6e, 0x74, 0x69, 
  0x61, 0x6c, 0x5f, 0x33, 0x5f, 0x31, 0x2f, 0x6c, 0x73, 0x74, 0x6d, 0x5f, 
  0x37, 0x5f, 0x31, 0x2f, 0x77, 0x68, 0x69, 0x6c, 0x65, 0x5f, 0x63, 0x6f, 
  0x6e, 0x64, 0x5f, 0x61, 0x72, 0x67, 0x34, 0x00, 0x02, 0x00, 0x00, 0x00, 
  0x01, 0x00, 0x00, 0x00, 0x08, 0x00, 0x00, 0x00, 0xbe, 0xc9, 0xff, 0xff, 
  0x00, 0x00, 0x00, 0x01, 0x14, 0x00, 0x00, 0x00, 0x1c, 0x00, 0x00, 0x00, 
  0x1c, 0x00, 0x00, 0x00, 0x68, 0x00, 0x00, 0x00, 0x40, 0x00, 0x00, 0x00, 
  0x02, 0x00, 0x00, 0x00, 0xff, 0xff, 0xff, 0xff, 0x08, 0x00, 0x00, 0x00, 
  0xa4, 0xc9, 0xff, 0xff, 0x27, 0x00, 0x00, 0x00, 0x73, 0x65, 0x71, 0x75, 
  0x65, 0x6e, 0x74, 0x69, 0x61, 0x6c, 0x5f, 0x33, 0x5f, 0x31, 0x2f, 0x6c, 
  0x73, 0x74, 0x6d, 0x5f, 0x37, 0x5f, 0x31, 0x2f, 0x77, 0x68, 0x69, 0x6c, 
  0x65, 0x5f, 0x63, 0x6f, 0x6e, 0x64, 0x5f, 0x61, 0x72, 0x67, 0x33, 0x00, 
  0x02, 0x00, 0x00, 0x00, 0x01, 0x00, 0x00, 0x00, 0x08, 0x00, 0x00, 0x00, 
  0x60, 0xd0, 0xff, 0xff, 0x1c, 0x00, 0x00, 0x00, 0x00, 0x00, 0x00, 0x01, 
  0x34, 0x00, 0x00, 0x00, 0x34, 0x00, 0x00, 0x00, 0x67, 0x00, 0x00, 0x00, 
  0x00, 0x00, 0x00, 0x0e, 0x54, 0x00, 0x00, 0x00, 0x01, 0x00, 0x00, 0x00, 
  0x04, 0x00, 0x00, 0x00, 0x46, 0xd0, 0xff, 0xff, 0x00, 0x00, 0x00, 0x01, 
  0x04, 0x00, 0x00, 0x00, 0x02, 0x00, 0x00, 0x00, 0x00, 0x00, 0x00, 0x00, 
  0x08, 0x00, 0x00, 0x00, 0x20, 0xca, 0xff, 0xff, 0x27, 0x00, 0x00, 0x00, 
  0x73, 0x65, 0x71, 0x75, 0x65, 0x6e, 0x74, 0x69, 0x61, 0x6c, 0x5f, 0x33, 
  0x5f, 0x31, 0x2f, 0x6c, 0x73, 0x74, 0x6d, 0x5f, 0x37, 0x5f, 0x31, 0x2f, 
  0x77, 0x68, 0x69, 0x6c, 0x65, 0x5f, 0x63, 0x6f, 0x6e, 0x64, 0x5f, 0x61, 
  0x72, 0x67, 0x32, 0x00, 0x00, 0x00, 0x00, 0x00, 0x72, 0xcb, 0xff, 0xff, 
  0x00, 0x00, 0x00, 0x01, 0x14, 0x00, 0x00, 0x00, 0x14, 0x00, 0x00, 0x00, 
  0x66, 0x00, 0x00, 0x00, 0x00, 0x00, 0x00, 0x02, 0x34, 0x00, 0x00, 0x00, 
  0x70, 0xca, 0xff, 0xff, 0x27, 0x00, 0x00, 0x00, 0x73, 0x65, 0x71, 0x75, 
  0x65, 0x6e, 0x74, 0x69, 0x61, 0x6c, 0x5f, 0x33, 0x5f, 0x31, 0x2f, 0x6c, 
  0x73, 0x74, 0x6d, 0x5f, 0x37, 0x5f, 0x31, 0x2f, 0x77, 0x68, 0x69, 0x6c, 
  0x65, 0x5f, 0x63, 0x6f, 0x6e, 0x64, 0x5f, 0x61, 0x72, 0x67, 0x31, 0x00, 
  0x00, 0x00, 0x00, 0x00, 0xc2, 0xcb, 0xff, 0xff, 0x00, 0x00, 0x00, 0x01, 
  0x14, 0x00, 0x00, 0x00, 0x14, 0x00, 0x00, 0x00, 0x65, 0x00, 0x00, 0x00, 
  0x00, 0x00, 0x00, 0x02, 0x34, 0x00, 0x00, 0x00, 0xc0, 0xca, 0xff, 0xff, 
  0x27, 0x00, 0x00, 0x00, 0x73, 0x65, 0x71, 0x75, 0x65, 0x6e, 0x74, 0x69, 
  0x61, 0x6c, 0x5f, 0x33, 0x5f, 0x31, 0x2f, 0x6c, 0x73, 0x74, 0x6d, 0x5f, 
  0x37, 0x5f, 0x31, 0x2f, 0x77, 0x68, 0x69, 0x6c, 0x65, 0x5f, 0x63, 0x6f, 
  0x6e, 0x64, 0x5f, 0x61, 0x72, 0x67, 0x30, 0x00, 0x00, 0x00, 0x00, 0x00, 
  0x3a, 0xe7, 0xff, 0xff, 0x14, 0x00, 0x00, 0x00, 0x38, 0x00, 0x00, 0x00, 
  0x88, 0x04, 0x00, 0x00, 0xa0, 0x04, 0x00, 0x00, 0xb8, 0x04, 0x00, 0x00, 
  0x22, 0x00, 0x00, 0x00, 0x73, 0x65, 0x71, 0x75, 0x65, 0x6e, 0x74, 0x69, 
  0x61, 0x6c, 0x5f, 0x33, 0x5f, 0x31, 0x2f, 0x6c, 0x73, 0x74, 0x6d, 0x5f, 
  0x36, 0x5f, 0x31, 0x2f, 0x77, 0x68, 0x69, 0x6c, 0x65, 0x5f, 0x62, 0x6f, 
  0x64, 0x79, 0x00, 0x00, 0x12, 0x00, 0x00, 0x00, 0x20, 0x04, 0x00, 0x00, 
  0xe8, 0x03, 0x00, 0x00, 0xb4, 0x03, 0x00, 0x00, 0x80, 0x03, 0x00, 0x00, 
  0x48, 0x03, 0x00, 0x00, 0x14, 0x03, 0x00, 0x00, 0xe0, 0x02, 0x00, 0x00, 
  0x9c, 0x02, 0x00, 0x00, 0x78, 0x02, 0x00, 0x00, 0x54, 0x02, 0x00, 0x00, 
  0x20, 0x02, 0x00, 0x00, 0xfc, 0x01, 0x00, 0x00, 0xd8, 0x01, 0x00, 0x00, 
  0xa4, 0x01, 0x00, 0x00, 0x70, 0x01, 0x00, 0x00, 0x4c, 0x01, 0x00, 0x00, 
  0x18, 0x01, 0x00, 0x00, 0x04, 0x00, 0x00, 0x00, 0x7c, 0xe0, 0xff, 0xff, 
  0x10, 0x00, 0x00, 0x00, 0xf0, 0x00, 0x00, 0x00, 0xf4, 0x00, 0x00, 0x00, 
