#include "model.h"

alignas(8) const unsigned char model_temperature[] = {

  0x1c, 0x00, 0x00, 0x00, 0x54, 0x46, 0x4c, 0x33, 0x14, 0x00, 0x20, 0x00, 
  0x1c, 0x00, 0x18, 0x00, 0x14, 0x00, 0x10, 0x00, 0x0c, 0x00, 0x00, 0x00, 
  0x08, 0x00, 0x04, 0x00, 0x14, 0x00, 0x00, 0x00, 0x1c, 0x00, 0x00, 0x00, 
  0x88, 0x00, 0x00, 0x00, 0xd8, 0x00, 0x00, 0x00, 0x3c, 0x19, 0x00, 0x00, 
  0x4c, 0x19, 0x00, 0x00, 0x4c, 0x42, 0x00, 0x00, 0x03, 0x00, 0x00, 0x00, 
  0x01, 0x00, 0x00, 0x00, 0x04, 0x00, 0x00, 0x00, 0x46, 0xcc, 0xff, 0xff, 
  0x0c, 0x00, 0x00, 0x00, 0x1c, 0x00, 0x00, 0x00, 0x3c, 0x00, 0x00, 0x00, 
  0x0f, 0x00, 0x00, 0x00, 0x73, 0x65, 0x72, 0x76, 0x69, 0x6e, 0x67, 0x5f, 
  0x64, 0x65, 0x66, 0x61, 0x75, 0x6c, 0x74, 0x00, 0x01, 0x00, 0x00, 0x00, 
  0x04, 0x00, 0x00, 0x00, 0xc0, 0xca, 0xff, 0xff, 0x22, 0x00, 0x00, 0x00, 
  0x04, 0x00, 0x00, 0x00, 0x08, 0x00, 0x00, 0x00, 0x6f, 0x75, 0x74, 0x70, 
  0x75, 0x74, 0x5f, 0x30, 0x00, 0x00, 0x00, 0x00, 0x01, 0x00, 0x00, 0x00, 
  0x04, 0x00, 0x00, 0x00, 0x6a, 0xca, 0xff, 0xff, 0x04, 0x00, 0x00, 0x00, 
  0x0b, 0x00, 0x00, 0x00, 0x69, 0x6e, 0x70, 0x75, 0x74, 0x5f, 0x6c, 0x61, 
  0x79, 0x65, 0x72, 0x00, 0x02, 0x00, 0x00, 0x00, 0x2c, 0x00, 0x00, 0x00, 
  0x04, 0x00, 0x00, 0x00, 0x08, 0xcb, 0xff, 0xff, 0x53, 0x00, 0x00, 0x00, 
  0x04, 0x00, 0x00, 0x00, 0x13, 0x00, 0x00, 0x00, 0x43, 0x4f, 0x4e, 0x56, 
  0x45, 0x52, 0x53, 0x49, 0x4f, 0x4e, 0x5f, 0x4d, 0x45, 0x54, 0x41, 0x44, 
  0x41, 0x54, 0x41, 0x00, 0x2c, 0xcb, 0xff, 0xff, 0x52, 0x00, 0x00, 0x00, 
  0x04, 0x00, 0x00, 0x00, 0x13, 0x00, 0x00, 0x00, 0x6d, 0x69, 0x6e, 0x5f, 
  0x72, 0x75, 0x6e, 0x74, 0x69, 0x6d, 0x65, 0x5f, 0x76, 0x65, 0x72, 0x73, 
  0x69, 0x6f, 0x6e, 0x00, 0x54, 0x00, 0x00, 0x00, 0x60, 0x18, 0x00, 0x00, 
  0x58, 0x18, 0x00, 0x00, 0x28, 0x18, 0x00, 0x00, 0x14, 0x18, 0x00, 0x00, 
  0xf8, 0x17, 0x00, 0x00, 0xdc, 0x17, 0x00, 0x00, 0xc0, 0x17, 0x00, 0x00, 
  0x90, 0x17, 0x00, 0x00, 0x80, 0x15, 0x00, 0x00, 0x60, 0x15, 0x00, 0x00, 
  0x4c, 0x15, 0x00, 0x00, 0x34, 0x15, 0x00, 0x00, 0x20, 0x15, 0x00, 0x00, 
  0x18, 0x15, 0x00, 0x00, 0x10, 0x15, 0x00, 0x00, 0xf4, 0x14, 0x00, 0x00, 
  0xec, 0x14, 0x00, 0x00, 0xd8, 0x14, 0x00, 0x00, 0xc4, 0x14, 0x00, 0x00, 
  0xbc, 0x14, 0x00, 0x00, 0xb4, 0x14, 0x00, 0x00, 0xac, 0x14, 0x00, 0x00, 
  0xa4, 0x14, 0x00, 0x00, 0x9c, 0x14, 0x00, 0x00, 0x94, 0x14, 0x00, 0x00, 
  0x8c, 0x14, 0x00, 0x00, 0x84, 0x14, 0x00, 0x00, 0x7c, 0x14, 0x00, 0x00, 
  0x74, 0x14, 0x00, 0x00, 0x6c, 0x14, 0x00, 0x00, 0x64, 0x14, 0x00, 0x00, 
  0x5c, 0x14, 0x00, 0x00, 0x54, 0x14, 0x00, 0x00, 0x4c, 0x14, 0x00, 0x00, 
  0x44, 0x14, 0x00, 0x00, 0x3c, 0x14, 0x00, 0x00, 0x34, 0x14, 0x00, 0x00, 
  0x2c, 0x14, 0x00, 0x00, 0x0c, 0x14, 0x00, 0x00, 0x04, 0x14, 0x00, 0x00, 
  0xfc, 0x13, 0x00, 0x00, 0xf4, 0x13, 0x00, 0x00, 0xec, 0x13, 0x00, 0x00, 
  0xe4, 0x13, 0x00, 0x00, 0xdc, 0x13, 0x00, 0x00, 0xd4, 0x13, 0x00, 0x00, 
  0xcc, 0x13, 0x00, 0x00, 0xc4, 0x13, 0x00, 0x00, 0xbc, 0x13, 0x00, 0x00, 
  0xb4, 0x13, 0x00, 0x00, 0xac, 0x13, 0x00, 0x00, 0xa4, 0x13, 0x00, 0x00, 
  0x9c, 0x13, 0x00, 0x00, 0x94, 0x13, 0x00, 0x00, 0x8c, 0x13, 0x00, 0x00, 
  0x84, 0x13, 0x00, 0x00, 0x7c, 0x13, 0x00, 0x00, 0x74, 0x13, 0x00, 0x00, 
  0x64, 0x12, 0x00, 0x00, 0x54, 0x02, 0x00, 0x00, 0x44, 0x01, 0x00, 0x00, 
  0x3c, 0x01, 0x00, 0x00, 0x34, 0x01, 0x00, 0x00, 0x2c, 0x01, 0x00, 0x00, 
  0x24, 0x01, 0x00, 0x00, 0x1c, 0x01, 0x00, 0x00, 0x14, 0x01, 0x00, 0x00, 
  0x0c, 0x01, 0x00, 0x00, 0x04, 0x01, 0x00, 0x00, 0xfc, 0x00, 0x00, 0x00, 
  0xf4, 0x00, 0x00, 0x00, 0xec, 0x00, 0x00, 0x00, 0xe4, 0x00, 0x00, 0x00, 
  0xdc, 0x00, 0x00, 0x00, 0xd4, 0x00, 0x00, 0x00, 0xcc, 0x00, 0x00, 0x00, 
  0xc4, 0x00, 0x00, 0x00, 0xbc, 0x00, 0x00, 0x00, 0xb4, 0x00, 0x00, 0x00, 
  0xac, 0x00, 0x00, 0x00, 0xa4, 0x00, 0x00, 0x00, 0x9c, 0x00, 0x00, 0x00, 
  0x7c, 0x00, 0x00, 0x00, 0x04, 0x00, 0x00, 0x00, 0x2a, 0xcc, 0xff, 0xff, 
  0x04, 0x00, 0x00, 0x00, 0x68, 0x00, 0x00, 0x00, 0x10, 0x00, 0x00, 0x00, 
  0x00, 0x00, 0x00, 0x00, 0x08, 0x00, 0x0e, 0x00, 0x08, 0x00, 0x04, 0x00, 
  0x08, 0x00, 0x00, 0x00, 0x14, 0x00, 0x00, 0x00, 0x2c, 0x00, 0x00, 0x00, 
  0x00, 0x00, 0x0a, 0x00, 0x0c, 0x00, 0x08, 0x00, 0x00, 0x00, 0x07, 0x00, 
  0x0a, 0x00, 0x00, 0x00, 0x00, 0x00, 0x00, 0x01, 0x04, 0x00, 0x00, 0x00, 
  0x00, 0x00, 0x00, 0x00, 0x0c, 0x00, 0x18, 0x00, 0x14, 0x00, 0x10, 0x00, 
  0x0c, 0x00, 0x04, 0x00, 0x0c, 0x00, 0x00, 0x00, 0xca, 0x1c, 0xc3, 0x99, 
  0x32, 0xd4, 0x57, 0xa0, 0x02, 0x00, 0x00, 0x00, 0x02, 0x00, 0x00, 0x00, 
  0x04, 0x00, 0x00, 0x00, 0x06, 0x00, 0x00, 0x00, 0x32, 0x2e, 0x32, 0x30, 
  0x2e, 0x30, 0x00, 0x00, 0x9e, 0xcc, 0xff, 0xff, 0x04, 0x00, 0x00, 0x00, 
  0x10, 0x00, 0x00, 0x00, 0x32, 0x2e, 0x36, 0x2e, 0x30, 0x00, 0x00, 0x00, 
  0x00, 0x00, 0x00, 0x00, 0x00, 0x00, 0x00, 0x00, 0xa0, 0xc0, 0xff, 0xff, 
  0xa4, 0xc0, 0xff, 0xff, 0xa8, 0xc0, 0xff, 0xff, 0xac, 0xc0, 0xff, 0xff, 
  0xb0, 0xc0, 0xff, 0xff, 0xb4, 0xc0, 0xff, 0xff, 0xb8, 0xc0, 0xff, 0xff, 
  0xbc, 0xc0, 0xff, 0xff, 0xc0, 0xc0, 0xff, 0xff, 0xc4, 0xc0, 0xff, 0xff, 
  0xc8, 0xc0, 0xff, 0xff, 0xcc, 0xc0, 0xff, 0xff, 0xd0, 0xc0, 0xff, 0xff, 
  0xd4, 0xc0, 0xff, 0xff, 0xd8, 0xc0, 0xff, 0xff, 0xdc, 0xc0, 0xff, 0xff, 
  0xe0, 0xc0, 0xff, 0xff, 0xe4, 0xc0, 0xff, 0xff, 0xe8, 0xc0, 0xff, 0xff, 
  0xec, 0xc0, 0xff, 0xff, 0xf0, 0xc0, 0xff, 0xff, 0x0e, 0xcd, 0xff, 0xff, 
  0x04, 0x00, 0x00, 0x00, 0x00, 0x01, 0x00, 0x00, 0x3c, 0xb9, 0xc3, 0x3c, 
  0xd4, 0x45, 0xe0, 0x3c, 0x6d, 0x9d, 0x10, 0xbd, 0xb8, 0xab, 0x3c, 0xbd, 
  0x15, 0x86, 0x19, 0x3e, 0xd0, 0xdb, 0xac, 0xbd, 0x88, 0xeb, 0xcf, 0x3d, 
  0x14, 0x00, 0xe7, 0x3c, 0x94, 0x96, 0x4c, 0x3d, 0xb6, 0xc9, 0x36, 0xbe, 
  0x07, 0xe3, 0x91, 0x3e, 0x55, 0x55, 0x22, 0xbe, 0x2e, 0x9b, 0xae, 0xbd, 
  0xee, 0x1f, 0x8a, 0x3d, 0x0b, 0xc6, 0x52, 0x3d, 0xd3, 0x6f, 0x95, 0xbd, 
  0xf5, 0x0a, 0x73, 0x3f, 0xa6, 0x29, 0x81, 0x3f, 0x78, 0xc8, 0x70, 0x3f, 
  0x23, 0x0e, 0x5e, 0x3f, 0x42, 0x09, 0x91, 0x3f, 0x76, 0x65, 0x6d, 0x3f, 
  0x2e, 0xb3, 0x62, 0x3f, 0xe8, 0xa1, 0x6c, 0x3f, 0x48, 0x8a, 0x60, 0x3f, 
  0xd9, 0x3b, 0x57, 0x3f, 0xa9, 0x0e, 0x37, 0x3f, 0x51, 0xe6, 0x5e, 0x3f, 
  0x93, 0x81, 0x6c, 0x3f, 0xa1, 0x82, 0x84, 0x3f, 0x25, 0x3d, 0x87, 0x3f, 
  0x86, 0x34, 0x5e, 0x3f, 0xdd, 0xa3, 0xc3, 0x3c, 0x35, 0xea, 0x00, 0x3d, 
  0xdd, 0xea, 0x51, 0xbc, 0x67, 0x27, 0x9c, 0x3c, 0x92, 0x8f, 0xf7, 0x3b, 
  0x6a, 0xfb, 0x49, 0x3d, 0x81, 0x93, 0xe8, 0xbc, 0x5f, 0x76, 0xc1, 0x3c, 
  0x17, 0xe6, 0x06, 0xbd, 0x2b, 0xcf, 0xa4, 0x3c, 0x7f, 0xf6, 0xcc, 0xbb, 
  0x5f, 0xf6, 0xea, 0x3c, 0x51, 0x9f, 0x19, 0x3a, 0x56, 0x59, 0xb5, 0x3c, 
  0xdd, 0x6e, 0x0c, 0xbe, 0xad, 0x02, 0x84, 0xbd, 0x3e, 0x46, 0x2c, 0x3d, 
  0x7f, 0xcf, 0xda, 0x3c, 0x61, 0x40, 0x10, 0xbd, 0x73, 0xb3, 0x42, 0xbd, 
  0x27, 0x12, 0xf8, 0x3d, 0x8a, 0x77, 0xac, 0xbd, 0x01, 0x65, 0xd3, 0x3d, 
  0xd3, 0xf6, 0x74, 0x3d, 0xc9, 0x23, 0xaf, 0x3b, 0x2a, 0x45, 0x60, 0xbe, 
  0x2a, 0x97, 0x9c, 0x3e, 0xc0, 0xb8, 0x1f, 0xbe, 0x06, 0x83, 0xb0, 0xbd, 
  0xac, 0xab, 0xdb, 0x3c, 0xc4, 0x3f, 0x1e, 0xbd, 0xa2, 0x59, 0x8e, 0xbd, 
  0x1a, 0xce, 0xff, 0xff, 0x04, 0x00, 0x00, 0x00, 0x00, 0x10, 0x00, 0x00, 
  0x30, 0x3a, 0x95, 0x3e, 0x5e, 0xcc, 0x5c, 0xbd, 0x8a, 0xc4, 0x4c, 0xbe, 
  0x2f, 0x2a, 0xca, 0x3d, 0x2f, 0xfa, 0xf6, 0xbe, 0xa9, 0x25, 0x05, 0xbe, 
  0xf3, 0x19, 0xa1, 0xbd, 0xf2, 0x79, 0x49, 0x3e, 0x52, 0x31, 0x58, 0xbe, 
  0x2a, 0xec, 0x9d, 0xbe, 0x6b, 0x3e, 0x71, 0x3e, 0xe1, 0xe1, 0x0b, 0xbe, 
  0x4a, 0x3a, 0x99, 0x3c, 0xa3, 0xf3, 0x04, 0x3e, 0xfe, 0xef, 0x86, 0x3e, 
  0x12, 0xf9, 0x50, 0xbc, 0x79, 0xec, 0xcc, 0x3d, 0x16, 0xc7, 0x13, 0xba, 
  0xd4, 0x23, 0xa1, 0xbe, 0x04, 0x36, 0x1b, 0xbd, 0x9e, 0x2e, 0x87, 0xbf, 
  0x68, 0x60, 0x96, 0xbd, 0xe1, 0x73, 0x06, 0xbe, 0x00, 0x53, 0x52, 0x3e, 
  0x7b, 0x9f, 0x0f, 0xbd, 0xce, 0x17, 0x18, 0xbe, 0xea, 0x94, 0x91, 0x3e, 
  0xc9, 0xd9, 0x8b, 0xbe, 0x96, 0xfd, 0x2b, 0xbd, 0x9c, 0x99, 0x52, 0x3e, 
  0x7d, 0x75, 0xbd, 0x3e, 0x33, 0x0a, 0x7c, 0x3e, 0x44, 0x32, 0xdd, 0xbd, 
  0x25, 0x82, 0xd0, 0xbc, 0xb4, 0x33, 0x25, 0xbe, 0xb1, 0x41, 0x4d, 0xbe, 
  0xdb, 0x99, 0xf6, 0x3c, 0x82, 0xfb, 0x13, 0xbe, 0xfe, 0x48, 0xae, 0x3d, 
  0x5c, 0xdb, 0x27, 0x3e, 0xb4, 0x6e, 0xba, 0x3d, 0x63, 0xbd, 0x63, 0xbe, 
  0x7a, 0xaf, 0xe9, 0x3e, 0xab, 0x9f, 0x5e, 0xbe, 0x19, 0x3b, 0xca, 0xbd, 
  0xeb, 0x72, 0x38, 0x3e, 0x8a, 0x4e, 0xe0, 0x3d, 0xa5, 0x25, 0xd0, 0x3c, 
  0x63, 0x10, 0x8a, 0xbb, 0xa3, 0xf5, 0x8f, 0x3d, 0x93, 0xee, 0x82, 0xbe, 
  0xca, 0x95, 0xab, 0x3d, 0x60, 0x08, 0x62, 0xbe, 0x51, 0x5f, 0xb1, 0x3d, 
  0xf6, 0x17, 0xb9, 0x3c, 0x2c, 0xf5, 0xaf, 0x3e, 0x8b, 0xdf, 0xd1, 0x3c, 
  0xb7, 0xb7, 0x13, 0xbd, 0x99, 0x1a, 0x00, 0xbd, 0x6d, 0xbf, 0xa4, 0xbd, 
  0x64, 0xcf, 0xed, 0x3c, 0xe9, 0x47, 0x25, 0x3e, 0x2c, 0x79, 0x01, 0x3f, 
  0x3f, 0xb3, 0xfc, 0x3c, 0xae, 0xd7, 0xcc, 0x3e, 0x6e, 0x91, 0x15, 0x3f, 
  0xbe, 0x58, 0x36, 0xbf, 0x63, 0xaf, 0x4a, 0xbd, 0x6e, 0xb7, 0xa2, 0xbf, 
  0x4e, 0x76, 0xe6, 0x3d, 0x81, 0x2f, 0xf5, 0xbe, 0xe5, 0xee, 0x33, 0x3f, 
  0x25, 0xaf, 0x0b, 0xbf, 0x27, 0xcd, 0x89, 0xbf, 0xd0, 0xcd, 0x0b, 0x3e, 
  0xcf, 0x15, 0xc6, 0xbd, 0x4c, 0x75, 0x17, 0x3e, 0xdf, 0xcd, 0x39, 0x3f, 
  0x4f, 0x3c, 0x95, 0x3f, 0x94, 0xcb, 0x5b, 0x3e, 0xc5, 0x8d, 0x09, 0xbd, 
  0x64, 0xaa, 0x59, 0xbe, 0x7d, 0x70, 0xb8, 0x3d, 0x44, 0xfc, 0x1d, 0xbe, 
  0x26, 0x8b, 0x38, 0x3e, 0xde, 0xf3, 0xa5, 0x3d, 0xf1, 0x9f, 0xa4, 0x3e, 
  0xcc, 0x63, 0xfd, 0xbc, 0x3d, 0x6b, 0x3c, 0x3e, 0xaa, 0xff, 0x25, 0x3e, 
  0x87, 0x5b, 0xb2, 0xbe, 0x8a, 0x65, 0x38, 0x3e, 0xbd, 0x73, 0xe6, 0x3d, 
  0x9b, 0x99, 0x11, 0x3c, 0xc7, 0xf2, 0xea, 0x3d, 0xa2, 0xdc, 0x86, 0x3e, 
  0x28, 0x3e, 0xe4, 0xbb, 0xb0, 0xe6, 0xb6, 0x3a, 0x61, 0x40, 0x09, 0x3d, 
  0xd3, 0x11, 0x55, 0xbe, 0x1a, 0xea, 0x82, 0xbf, 0x90, 0xf3, 0x86, 0xbe, 
  0x68, 0x26, 0x1a, 0x3e, 0xbd, 0xff, 0xb1, 0x3e, 0x4a, 0x4c, 0x78, 0xbe, 
  0xd2, 0xbc, 0xeb, 0xbe, 0xf1, 0x1d, 0x5b, 0x3e, 0x88, 0xdb, 0x10, 0xbe, 
  0x04, 0x8d, 0x3e, 0xbb, 0xb1, 0xf5, 0x74, 0x3e, 0x9d, 0x21, 0x2b, 0x3f, 
  0xea, 0x25, 0x97, 0xbd, 0x04, 0xf3, 0x9a, 0xbe, 0x99, 0xbe, 0x41, 0xbe, 
  0x80, 0x64, 0x67, 0xbd, 0x97, 0x59, 0xb9, 0xbc, 0x4f, 0xfc, 0x0c, 0xbf, 
  0x73, 0x31, 0xe7, 0xbd, 0x80, 0xc4, 0x09, 0xbe, 0x83, 0xbd, 0xc3, 0xbd, 
  0x13, 0x3b, 0xe8, 0x3d, 0xef, 0x9a, 0x65, 0xbe, 0xee, 0xe4, 0xa6, 0xbe, 
  0x10, 0x55, 0xee, 0xbd, 0xb1, 0x5c, 0x0f, 0xbd, 0x2b, 0x53, 0xbc, 0x3e, 
  0xfd, 0xb0, 0x93, 0x3e, 0x1a, 0x8c, 0xb2, 0x3d, 0x88, 0xd7, 0x01, 0xbd, 
  0x85, 0x7b, 0xf5, 0xbd, 0x3f, 0xc9, 0xbe, 0xbd, 0xea, 0xae, 0x13, 0x3e, 
  0xc7, 0xbe, 0xee, 0xbe, 0xd7, 0xe8, 0x0f, 0xbe, 0xe4, 0x86, 0xa7, 0x3c, 
  0xd5, 0x8e, 0x0d, 0x3e, 0xda, 0xa1, 0x1f, 0xbe, 0xea, 0x8e, 0x43, 0xbe, 
  0xe1, 0x33, 0xe8, 0xbe, 0xb1, 0x1b, 0xd1, 0xbd, 0x59, 0x58, 0x83, 0xbd, 
  0x98, 0x63, 0x10, 0x3e, 0x05, 0x1b, 0x58, 0x3f, 0x6c, 0x2a, 0xf5, 0x3d, 
  0xbc, 0x4f, 0x05, 0xbd, 0x5f, 0x20, 0x9d, 0x3d, 0x9b, 0xca, 0x88, 0xbe, 
  0x05, 0xef, 0x5a, 0xbe, 0x09, 0xd9, 0x32, 0xbf, 0x9f, 0xa7, 0x8f, 0x3d, 
  0x9a, 0xa4, 0x46, 0xbd, 0xee, 0xec, 0x81, 0x3d, 0xfd, 0x23, 0x34, 0xbe, 
  0x6a, 0xf3, 0x66, 0xbe, 0xa3, 0x1a, 0x57, 0xbf, 0x3b, 0x3f, 0xa3, 0xbe, 
  0xda, 0xb1, 0xd2, 0x3d, 0x86, 0xdf, 0xb1, 0x3e, 0x8c, 0xa0, 0x3f, 0x3f, 
  0x82, 0xb8, 0x93, 0x3e, 0x92, 0x60, 0x39, 0x3e, 0x01, 0x2b, 0x84, 0xbe, 
  0xeb, 0xe4, 0xa7, 0xbf, 0xcc, 0x2d, 0x20, 0xbe, 0xcc, 0x45, 0x29, 0xc0, 
  0xca, 0x55, 0x05, 0xbf, 0x7a, 0x53, 0x84, 0x3e, 0x24, 0x40, 0xb2, 0x3f, 
  0x73, 0xd3, 0x92, 0xbf, 0x35, 0xbd, 0xb8, 0xbf, 0x5e, 0xcb, 0x2e, 0xbd, 
  0x65, 0x04, 0x1a, 0xbe, 0x3d, 0xcd, 0x5f, 0xbe, 0x93, 0xdf, 0xd6, 0x3f, 
  0x13, 0x02, 0x32, 0x3f, 0x4e, 0x2b, 0x35, 0x3f, 0xe9, 0x10, 0x91, 0xbd, 
  0x63, 0x2d, 0xf4, 0xbd, 0x94, 0xc9, 0x01, 0xbb, 0xbc, 0x3e, 0x3d, 0x3d, 
  0x3e, 0x63, 0x12, 0x3f, 0x99, 0xf8, 0xc9, 0x3c, 0x35, 0xa7, 0xbe, 0xbc, 
  0xc1, 0x6b, 0xd7, 0xbe, 0xd6, 0x5d, 0xac, 0x3e, 0xa1, 0x48, 0x5b, 0x3e, 
  0x84, 0x2c, 0x2e, 0x3d, 0xa7, 0x39, 0xc3, 0x3c, 0x9f, 0xab, 0xcc, 0xbd, 
  0xea, 0x36, 0xb6, 0xbe, 0x2c, 0xe5, 0xcc, 0x3c, 0x27, 0x79, 0xc9, 0x3d, 
  0x7f, 0xb7, 0x17, 0xbe, 0x60, 0x40, 0xf7, 0x3c, 0x7a, 0xac, 0xb0, 0xbb, 
  0x1a, 0x3a, 0x75, 0xbd, 0xc6, 0xfc, 0x2d, 0xbe, 0x42, 0xae, 0x30, 0xbd, 
  0x9e, 0xaa, 0x7d, 0x3e, 0x61, 0x8a, 0x42, 0xbe, 0xec, 0x9b, 0x01, 0xbd, 
  0x4d, 0xc8, 0x6c, 0xbd, 0x7c, 0xfe, 0x10, 0xbe, 0x12, 0x2c, 0x4f, 0x3d, 
  0xab, 0xe9, 0xc2, 0xbe, 0x95, 0xab, 0xf2, 0x3d, 0xd7, 0x08, 0xc4, 0x3d, 
  0x02, 0x78, 0xb4, 0x3d, 0x77, 0xca, 0x5c, 0x3e, 0xe2, 0x3f, 0xde, 0x3e, 
  0x68, 0xd2, 0x62, 0xbd, 0x88, 0xc5, 0xeb, 0xbb, 0xfc, 0x8b, 0xf3, 0xbd, 
  0x95, 0xcf, 0x85, 0xbe, 0xbe, 0xed, 0xb3, 0xbd, 0xa6, 0x93, 0xdc, 0xbd, 
  0x84, 0xfc, 0x72, 0xbd, 0x46, 0xb1, 0x1c, 0x3d, 0x8e, 0xec, 0xfb, 0x3e, 
  0x98, 0x6f, 0x78, 0x3e, 0xa1, 0x2e, 0xd1, 0x3d, 0x6f, 0xa6, 0x00, 0x3e, 
  0x58, 0xd1, 0x93, 0xba, 0xb6, 0x3f, 0x81, 0xbd, 0x4a, 0x4a, 0x67, 0xbd, 
  0xc2, 0x60, 0x15, 0xbe, 0xf3, 0xb0, 0x4f, 0x3d, 0xc6, 0xbd, 0xbb, 0xbe, 
  0xdf, 0xbc, 0x49, 0x3e, 0xa2, 0xc2, 0x9a, 0x3e, 0xf7, 0x78, 0x4c, 0x3e, 
  0xda, 0xf5, 0x8d, 0xbd, 0x74, 0xeb, 0x93, 0xbd, 0x28, 0x99, 0x3b, 0xba, 
  0x68, 0x8a, 0x10, 0x3d, 0x9f, 0xb0, 0x9e, 0x3c, 0xd0, 0x65, 0x39, 0xbe, 
  0x37, 0x43, 0x5e, 0x3e, 0xfd, 0xf1, 0xea, 0x3c, 0x22, 0x1e, 0xe5, 0x3e, 
  0x86, 0xda, 0x09, 0x3e, 0x53, 0x6b, 0x2f, 0x3e, 0x40, 0x7b, 0x97, 0xbd, 
  0x4d, 0x7b, 0x6b, 0xbc, 0x6b, 0x14, 0xc9, 0xbe, 0x00, 0x4d, 0xe9, 0x3c, 
  0xd4, 0xa1, 0x6b, 0x3e, 0xff, 0x25, 0xcb, 0xbc, 0xbf, 0x15, 0x19, 0xbe, 
  0x1c, 0x74, 0x21, 0xbe, 0x46, 0x13, 0x40, 0x3d, 0xcc, 0x95, 0xa8, 0xbe, 
  0xac, 0x21, 0xa9, 0x39, 0x85, 0x74, 0x1b, 0x3e, 0xf8, 0x5d, 0x5a, 0x3e, 
  0xaf, 0xd1, 0x24, 0x3e, 0xbc, 0xac, 0x33, 0xbd, 0xc3, 0x1f, 0x08, 0xbe, 
  0x12, 0xdf, 0x72, 0x3d, 0x6c, 0xa7, 0x0f, 0x3e, 0x24, 0xd4, 0x40, 0x3e, 
  0x07, 0x49, 0x62, 0x3d, 0x09, 0x88, 0xc2, 0x3d, 0x85, 0x99, 0xa3, 0xbe, 
  0x47, 0xf2, 0x89, 0x3e, 0x98, 0xbc, 0x59, 0x3e, 0x62, 0xfe, 0xf8, 0x3d, 
  0x48, 0xa9, 0x96, 0xbd, 0x56, 0x97, 0xad, 0x3e, 0x60, 0xe2, 0x6e, 0xbe, 
  0x4d, 0xe9, 0x6a, 0xbe, 0x6d, 0x0b, 0x3f, 0xbe, 0x10, 0x01, 0x1a, 0x3d, 
  0x35, 0xe3, 0x13, 0x3e, 0xd0, 0x43, 0xc2, 0x3a, 0x71, 0xef, 0xd4, 0xbb, 
  0xf1, 0xb6, 0x40, 0xbf, 0x52, 0xd4, 0xe4, 0xbc, 0x7c, 0x47, 0x56, 0x3d, 
  0x83, 0xa7, 0xdd, 0x3d, 0x4d, 0xac, 0xc4, 0xbe, 0x34, 0x9d, 0x8a, 0xbe, 
  0x9e, 0x5a, 0xd4, 0x3d, 0x0f, 0x9a, 0x01, 0xbe, 0x23, 0x32, 0x8b, 0x3e, 
  0x31, 0x09, 0xa6, 0xbd, 0x9d, 0x70, 0x9b, 0x3e, 0x23, 0xd8, 0x71, 0x3e, 
  0xa3, 0x15, 0x65, 0xbe, 0xf7, 0xfa, 0x6c, 0x3e, 0x3c, 0x49, 0x23, 0x3e, 
  0xaf, 0xc6, 0xfe, 0xbd, 0x30, 0xc6, 0x2f, 0x3e, 0xce, 0x0f, 0x49, 0xbe, 
  0x81, 0xc9, 0xfd, 0xbd, 0x3a, 0x00, 0x30, 0xbe, 0x0a, 0x6a, 0x24, 0xbe, 
  0x46, 0x40, 0xbe, 0x3d, 0xf9, 0xee, 0xf4, 0x3e, 0xb3, 0xd8, 0xa2, 0xbe, 
  0xe5, 0xc1, 0x16, 0x3e, 0x4f, 0x9e, 0x81, 0xbc, 0x03, 0xb4, 0xe9, 0x3e, 
  0x3f, 0x00, 0x4a, 0x3d, 0xf9, 0x4b, 0x21, 0xbd, 0x45, 0xf2, 0x2c, 0xbd, 
  0x7f, 0x62, 0x65, 0x3e, 0x5a, 0x73, 0x13, 0x3e, 0xd6, 0xe3, 0x3e, 0x3d, 
  0x01, 0xcb, 0x90, 0x3d, 0xfb, 0x26, 0xe8, 0x3d, 0x12, 0xe6, 0x70, 0xbe, 
  0x4e, 0x0b, 0x32, 0xbe, 0xd3, 0x5b, 0x94, 0x3d, 0xab, 0x43, 0x11, 0xbd, 
  0xe7, 0xb1, 0xcc, 0xbd, 0x87, 0x3d, 0x9c, 0xbe, 0x36, 0xd4, 0x18, 0xbd, 
  0x04, 0x36, 0x05, 0xbd, 0x01, 0xb6, 0xb5, 0xbd, 0xad, 0xaa, 0xf2, 0x3e, 
  0xaf, 0xb7, 0xa6, 0x3e, 0x27, 0xcd, 0x21, 0xbf, 0xe9, 0x45, 0x8e, 0xbe, 
  0x5f, 0x24, 0x6f, 0xbf, 0x7c, 0xc9, 0x5d, 0x3e, 0x7e, 0x08, 0x6c, 0xbd, 
  0xa5, 0x30, 0xb4, 0x3e, 0xe1, 0x84, 0x0b, 0xbf, 0x91, 0xdf, 0x73, 0xbf, 
  0x7e, 0x87, 0x10, 0xbd, 0x40, 0xcc, 0xdd, 0xbe, 0xd2, 0x92, 0x04, 0xbe, 
  0x17, 0x56, 0x48, 0x3f, 0xb5, 0x58, 0x68, 0x3f, 0x86, 0x62, 0x18, 0x3e, 
  0xa4, 0x7a, 0xba, 0xbc, 0xc4, 0x33, 0x84, 0xbe, 0x48, 0xce, 0x0e, 0x3e, 
  0x0c, 0xa1, 0x5f, 0xbc, 0x77, 0x3b, 0x8f, 0x3e, 0xf3, 0x52, 0x1b, 0x3d, 
  0x12, 0x86, 0x47, 0x3c, 0x93, 0x36, 0xc1, 0xbc, 0x08, 0x8d, 0x04, 0x3d, 
  0x04, 0x82, 0xd5, 0x3d, 0xfe, 0x68, 0x4a, 0xbe, 0xc6, 0xd9, 0x6f, 0xbe, 
  0x5b, 0x98, 0x16, 0x3e, 0xa2, 0x6f, 0x57, 0xbd, 0x1f, 0x93, 0x2c, 0x3e, 
  0x08, 0xf1, 0xde, 0x3d, 0x90, 0x20, 0x41, 0xbe, 0xca, 0x10, 0x1a, 0x3c, 
  0x57, 0x21, 0x28, 0xbb, 0xd9, 0x61, 0xdc, 0xbd, 0xbc, 0x39, 0x81, 0xbd, 
  0x07, 0xbc, 0x99, 0x3e, 0x3f, 0x7c, 0x1a, 0xbe, 0xc6, 0x53, 0x65, 0xbe, 
  0xf5, 0xf5, 0xfc, 0x3d, 0xf9, 0x50, 0x7b, 0x3e, 0x65, 0xe0, 0x3a, 0x3e, 
  0xf3, 0xa4, 0x66, 0xbe, 0xe2, 0xcf, 0x32, 0x3d, 0x1f, 0xd9, 0x64, 0xbe, 
  0x82, 0x2e, 0x98, 0xbd, 0x41, 0x17, 0xc5, 0x3d, 0x93, 0x76, 0x9d, 0xbe, 
  0xfd, 0xdb, 0x95, 0xbe, 0xe1, 0x7e, 0x1b, 0x3d, 0x97, 0x72, 0x29, 0x3e, 
  0xe8, 0x69, 0xd1, 0xbe, 0xe8, 0x80, 0x1f, 0x3e, 0x7a, 0x5e, 0x95, 0x3e, 
  0xb5, 0x3d, 0x44, 0xbe, 0x36, 0xf9, 0xb4, 0xbd, 0x69, 0x1b, 0xd3, 0xbd, 
  0x75, 0xb8, 0x01, 0xbf, 0xbc, 0x7a, 0x20, 0xbe, 0xf7, 0x00, 0x73, 0xbe, 
  0x1e, 0x9f, 0x43, 0xbe, 0x67, 0x17, 0x8f, 0x3e, 0x75, 0xdc, 0xff, 0x3d, 
  0xd6, 0x4c, 0x3c, 0x3d, 0x7e, 0x79, 0x17, 0x3e, 0x4d, 0x27, 0x91, 0x3d, 
  0x36, 0x7b, 0x10, 0x3e, 0x7a, 0x94, 0xaf, 0xbc, 0xab, 0xdd, 0xf0, 0x3d, 
  0xd2, 0x9e, 0xbc, 0xbd, 0x5b, 0xdd, 0x8c, 0xbe, 0xb0, 0x48, 0xca, 0x3e, 
  0x81, 0xd6, 0x88, 0x3d, 0x70, 0xf5, 0xea, 0xbe, 0x28, 0x96, 0x6a, 0xbe, 
  0xec, 0xa7, 0x1c, 0xbe, 0xfe, 0xc7, 0xa5, 0xbe, 0x94, 0xfc, 0x3a, 0x3e, 
  0x8b, 0x1a, 0x50, 0xbe, 0x47, 0xf6, 0xa6, 0x3d, 0x82, 0xbc, 0x26, 0xbe, 
  0xa4, 0x25, 0x35, 0xbe, 0x14, 0x1c, 0xce, 0xbe, 0x59, 0xec, 0xe2, 0xbe, 
  0xd7, 0x88, 0x8a, 0x3d, 0xc0, 0xed, 0x51, 0x3d, 0x3c, 0xa1, 0xbe, 0xbd, 
  0x11, 0xb9, 0xc9, 0xbd, 0x35, 0x1f, 0xe0, 0xbe, 0x69, 0xb7, 0x37, 0xbf, 
  0xdc, 0xd6, 0x4e, 0xbe, 0xca, 0xbd, 0x8b, 0xbd, 0x34, 0xed, 0x8c, 0x3e, 
  0xd7, 0xbf, 0x8a, 0x3f, 0x36, 0x45, 0x09, 0x3d, 0x50, 0xf4, 0x44, 0xbe, 
  0x67, 0xe4, 0xfe, 0x3d, 0x28, 0x1b, 0xc0, 0x3e, 0xa2, 0x8b, 0x6f, 0x3e, 
  0xbd, 0xdc, 0x3f, 0x3f, 0x3c, 0x18, 0xea, 0x3d, 0xeb, 0xbe, 0xa4, 0x3d, 
  0xb7, 0x76, 0x4a, 0xbf, 0x91, 0xd8, 0x18, 0x3f, 0x2c, 0x62, 0x39, 0x3f, 
  0x08, 0xf9, 0xd3, 0xbe, 0x99, 0x98, 0xe4, 0x3d, 0x0d, 0xfd, 0x96, 0xbd, 
  0xfc, 0x3d, 0x4d, 0xbf, 0x8a, 0xa8, 0x04, 0xbf, 0x74, 0x3f, 0xf7, 0xbd, 
  0xd9, 0x2d, 0x3e, 0x3e, 0x54, 0x9f, 0x68, 0xbe, 0x01, 0xda, 0xfb, 0x3d, 
  0xbf, 0x3b, 0x42, 0xbe, 0x5f, 0xf0, 0x2a, 0x3e, 0x30, 0x56, 0xcb, 0x3d, 
  0x44, 0x07, 0xb0, 0x3d, 0x24, 0xd2, 0xa2, 0xbe, 0x4c, 0x94, 0x18, 0x3d, 
  0x3c, 0x45, 0xb3, 0x3d, 0xda, 0xfb, 0x42, 0xbe, 0x61, 0xc7, 0x2d, 0x3e, 
  0xc3, 0xf1, 0xae, 0xbd, 0x0b, 0xfc, 0x9d, 0x3d, 0x8a, 0x09, 0x6c, 0x3d, 
  0x51, 0xd6, 0xcb, 0xbc, 0xbb, 0xff, 0xee, 0x3c, 0xbd, 0xff, 0x3f, 0x3d, 
  0x04, 0x6a, 0x01, 0x3d, 0x36, 0x97, 0x6d, 0x3e, 0x1d, 0x9a, 0x9d, 0xbe, 
  0xb7, 0xba, 0x45, 0xbc, 0xb5, 0xcb, 0x22, 0x3e, 0xd9, 0x1e, 0xab, 0xbb, 
  0xe8, 0x57, 0x95, 0x3d, 0x08, 0x02, 0x80, 0x3d, 0x05, 0x62, 0x1b, 0xbe, 
  0x51, 0x5c, 0x8c, 0x3c, 0x9b, 0x01, 0xd0, 0xbc, 0xc2, 0x32, 0x40, 0xbc, 
  0x4e, 0x53, 0xd9, 0x3d, 0xa5, 0x7f, 0x3b, 0x3e, 0x8e, 0xbb, 0xb2, 0x3e, 
  0x29, 0x35, 0x3b, 0x3e, 0x12, 0xa6, 0x87, 0xbc, 0xdb, 0xd1, 0x9f, 0x3d, 
  0xb6, 0x76, 0x79, 0x3d, 0x3e, 0xb7, 0xea, 0xbc, 0x34, 0xd1, 0xd7, 0x3c, 
  0xbc, 0x4f, 0x96, 0x3e, 0xf3, 0x6c, 0xb3, 0xbd, 0x85, 0xcc, 0x11, 0x3d, 
  0x6c, 0xca, 0xe6, 0x3e, 0xbc, 0xe1, 0xd3, 0x3d, 0x05, 0x1b, 0xc9, 0xbc, 
  0x14, 0xec, 0x38, 0xbc, 0xf1, 0x17, 0xa9, 0xba, 0xd4, 0x11, 0xb1, 0x3b, 
  0x68, 0xbd, 0xc1, 0xbe, 0x19, 0xcf, 0x4a, 0xbe, 0xc8, 0x16, 0x35, 0xbe, 
  0xe2, 0xb9, 0x87, 0xbe, 0x12, 0x18, 0xa1, 0x3e, 0x87, 0x07, 0xec, 0x3c, 
  0x6c, 0x2d, 0x57, 0x3e, 0xf9, 0x88, 0x9e, 0xbe, 0x1c, 0x44, 0xd5, 0x3d, 
  0xfb, 0x29, 0xca, 0xbb, 0x2d, 0x2e, 0xf8, 0xbe, 0xe5, 0x59, 0x81, 0xbc, 
  0x1d, 0x83, 0x79, 0xbe, 0xa3, 0xe2, 0xe6, 0x3e, 0xca, 0x6e, 0x39, 0xbd, 
  0x27, 0xe1, 0x27, 0x3e, 0x3b, 0x1d, 0x97, 0x3d, 0xbc, 0xb7, 0x22, 0xbe, 
  0x64, 0x5f, 0x28, 0x3c, 0x6c, 0x2d, 0x2a, 0x3e, 0xce, 0xb4, 0x01, 0x3d, 
  0x2b, 0x5b, 0xc8, 0xbd, 0xc1, 0x99, 0x43, 0x3d, 0x72, 0xeb, 0x6f, 0x3c, 
  0xca, 0x1b, 0xe6, 0xbd, 0x2e, 0x28, 0xa9, 0xbe, 0x9d, 0x44, 0xf6, 0x3d, 
  0x3a, 0x51, 0x97, 0xbe, 0xda, 0x04, 0xbb, 0x3e, 0xcc, 0xef, 0x62, 0x3e, 
  0x96, 0x29, 0x56, 0x3e, 0x00, 0xb6, 0x61, 0x3e, 0x77, 0xbd, 0x4d, 0xbd, 
  0xf4, 0x0e, 0xfa, 0xbc, 0x3f, 0x2e, 0x39, 0x3c, 0xb9, 0xee, 0x73, 0xbd, 
  0x66, 0xf6, 0x86, 0x3d, 0x88, 0x33, 0xb6, 0x3d, 0x08, 0x21, 0xbf, 0xbd, 
  0x0b, 0x88, 0xa2, 0xbd, 0xf9, 0x89, 0x1a, 0x3e, 0x40, 0x09, 0xfc, 0xbc, 
  0xc7, 0x26, 0x02, 0xbe, 0xf6, 0xe0, 0xce, 0xbd, 0x5c, 0x1c, 0x8b, 0x3d, 
  0x18, 0x94, 0x95, 0xbe, 0x25, 0x42, 0x8b, 0x3d, 0xf9, 0xd8, 0xb5, 0x3c, 
  0x86, 0x6e, 0x0b, 0x3d, 0x93, 0xa3, 0x1b, 0xbe, 0xe4, 0xe1, 0x8e, 0x3d, 
  0x82, 0x4f, 0x8a, 0x3d, 0xcb, 0xa3, 0x7d, 0xba, 0x61, 0xca, 0x4d, 0x3e, 
  0xfd, 0xca, 0x6e, 0xbd, 0x2b, 0x99, 0x93, 0xbe, 0xc8, 0x42, 0x1d, 0x3e, 
  0x6c, 0xa2, 0x39, 0xbd, 0x5c, 0xf3, 0x30, 0xbd, 0xe8, 0x8b, 0xd9, 0x3d, 
  0xfc, 0x36, 0xdf, 0x3c, 0xad, 0xfb, 0x5d, 0xbe, 0xf0, 0x4e, 0x51, 0x3e, 
  0x8a, 0x4a, 0x72, 0xbe, 0xe9, 0x50, 0x8d, 0xbe, 0xd5, 0xdf, 0x16, 0x3e, 
  0xd1, 0x0c, 0x24, 0xbe, 0x2c, 0x6d, 0x2e, 0x3d, 0x81, 0x78, 0x90, 0x3c, 
  0xf9, 0x12, 0x4c, 0x3e, 0xa8, 0x3d, 0x02, 0x3e, 0xdb, 0x4f, 0x04, 0xbd, 
  0x1a, 0x0d, 0x2d, 0xbe, 0x4d, 0x79, 0xbe, 0x3d, 0xbe, 0x49, 0x19, 0x3d, 
  0xf6, 0x6e, 0x40, 0x3e, 0x25, 0x7e, 0x37, 0xbd, 0xff, 0x90, 0xd8, 0x3d, 
  0x5c, 0x33, 0xad, 0xbd, 0xda, 0xdd, 0x8d, 0xbd, 0x52, 0x6e, 0x67, 0xbd, 
  0x60, 0x6a, 0x5c, 0xbe, 0x86, 0x24, 0x92, 0xbe, 0x49, 0x09, 0xb1, 0x3d, 
  0xbf, 0x24, 0x47, 0x3e, 0x6f, 0x65, 0xa3, 0x3c, 0x1f, 0xdd, 0x78, 0x3e, 
  0xce, 0x68, 0x3f, 0xbc, 0xc3, 0x5c, 0xa9, 0x3d, 0x32, 0x04, 0x6f, 0x3b, 
  0x10, 0x2d, 0xea, 0xbe, 0x4d, 0xe0, 0x9c, 0xbe, 0x0e, 0x6e, 0x7f, 0xbe, 
  0x51, 0x15, 0xd7, 0x3d, 0xc7, 0x91, 0x91, 0xbd, 0x75, 0x70, 0x09, 0x3e, 
  0xaf, 0xde, 0x77, 0xbe, 0xe0, 0xb9, 0x1b, 0xbe, 0x8e, 0x5c, 0x51, 0xbe, 
  0x44, 0x18, 0x15, 0x3b, 0x61, 0x87, 0xb6, 0x3e, 0xce, 0x48, 0x14, 0x3e, 
  0x71, 0x2f, 0x2c, 0x3e, 0x97, 0x37, 0xe3, 0xbe, 0x9c, 0x20, 0x64, 0x3e, 
  0x59, 0x56, 0x3d, 0xbd, 0x64, 0xae, 0xd4, 0xbe, 0x7f, 0x7d, 0xc7, 0x3b, 
  0x19, 0x79, 0x9a, 0xbd, 0x83, 0xdb, 0x61, 0x3d, 0x41, 0x49, 0xb2, 0xbd, 
  0x87, 0xbd, 0xb9, 0x3d, 0x24, 0xba, 0x12, 0x3e, 0x60, 0x74, 0x43, 0x3e, 
  0x89, 0x7b, 0x97, 0xbd, 0x7d, 0x69, 0x06, 0xbe, 0x83, 0xee, 0x1f, 0x3e, 
  0x49, 0x90, 0xea, 0x3d, 0xe4, 0x9e, 0x48, 0xbe, 0x8b, 0x2e, 0xda, 0xbd, 
  0xec, 0x9d, 0x94, 0x3d, 0xc3, 0x1e, 0x07, 0xbc, 0x31, 0x71, 0x28, 0x3d, 
  0xcb, 0x54, 0xba, 0x3c, 0x1f, 0xd1, 0xa4, 0xbe, 0xeb, 0xb4, 0x64, 0x3e, 
  0xc1, 0x6c, 0x90, 0x3e, 0x03, 0x80, 0x6c, 0x3e, 0xfc, 0xbf, 0x92, 0x3e, 
  0xdd, 0xa2, 0x94, 0x3d, 0x83, 0x0e, 0xe1, 0xbc, 0xff, 0x54, 0xb0, 0x3c, 
  0x4f, 0x70, 0x25, 0xbe, 0xb4, 0x14, 0xde, 0xbd, 0xee, 0x6c, 0x8c, 0xbe, 
  0x48, 0xb7, 0x31, 0x3e, 0xab, 0x71, 0x25, 0xbc, 0x32, 0x01, 0xd9, 0xbd, 
  0xea, 0x57, 0x13, 0x3f, 0xa9, 0xa1, 0x6c, 0x3e, 0xf2, 0x8e, 0x48, 0xbd, 
  0x49, 0x58, 0x8a, 0xbb, 0x68, 0x66, 0xf7, 0xbd, 0x96, 0x03, 0xa3, 0x3d, 
  0xdf, 0x60, 0xe3, 0x3c, 0xa7, 0x90, 0xca, 0xbd, 0x0b, 0xcf, 0x25, 0x3e, 
  0x94, 0xab, 0x02, 0x3d, 0xf3, 0x68, 0x06, 0xbd, 0xd8, 0x0d, 0x31, 0xbe, 
  0xeb, 0x92, 0xf7, 0x3c, 0x41, 0x6e, 0x0a, 0xbe, 0xde, 0x13, 0x63, 0x3e, 
  0x4c, 0x07, 0x91, 0xbd, 0xac, 0x3a, 0x93, 0xbe, 0x8a, 0xba, 0xa0, 0x3c, 
  0x95, 0x18, 0xa4, 0x3c, 0x5d, 0x04, 0x31, 0xbe, 0x83, 0x48, 0xaa, 0xbc, 
  0x81, 0x29, 0xf7, 0x3d, 0xd3, 0xba, 0x40, 0xbc, 0x13, 0xa4, 0x50, 0xbe, 
  0x37, 0x78, 0xbd, 0xbd, 0x0d, 0x3d, 0x6e, 0xbd, 0x03, 0x47, 0x48, 0xbe, 
  0x74, 0x54, 0x91, 0xbd, 0x1a, 0x19, 0x5b, 0xbd, 0xb4, 0x7f, 0x9c, 0x3d, 
  0xa0, 0x44, 0x0e, 0xbe, 0x08, 0x91, 0x2c, 0x3e, 0xec, 0xdf, 0x9c, 0x3e, 
  0x14, 0x06, 0x22, 0x3e, 0x91, 0x8b, 0x71, 0x3c, 0x0b, 0x2f, 0xf9, 0x3d, 
  0x8e, 0xb6, 0xb2, 0xbd, 0x60, 0x11, 0x1e, 0xbe, 0x82, 0xd3, 0xaa, 0xbd, 
  0x73, 0xe9, 0x80, 0xbe, 0x33, 0x80, 0xb7, 0x3d, 0xf3, 0x31, 0x00, 0xbe, 
  0x68, 0xda, 0x21, 0x3f, 0x89, 0xad, 0xa4, 0x3d, 0xbf, 0xa7, 0xc9, 0xbc, 
  0xa4, 0xdd, 0xb0, 0xbd, 0x98, 0xeb, 0x1f, 0xbd, 0xf4, 0x5d, 0xec, 0x3d, 
  0x01, 0x65, 0x3e, 0xbe, 0x1a, 0xfa, 0x32, 0xbd, 0x7b, 0xbc, 0xec, 0xbd, 
  0x72, 0x7f, 0xaa, 0x3e, 0x02, 0x40, 0x2f, 0xbe, 0x71, 0x0b, 0x7d, 0x3e, 
  0xda, 0x20, 0xb7, 0xbd, 0x58, 0x3e, 0x0f, 0x3e, 0x74, 0x2c, 0x94, 0x3d, 
  0xa6, 0xb6, 0x8a, 0x3e, 0x13, 0x45, 0x1b, 0x3e, 0xd3, 0x4b, 0x47, 0x3d, 
  0x05, 0x21, 0x98, 0xbe, 0xc7, 0x66, 0x85, 0xbe, 0xd2, 0x0b, 0x19, 0xbe, 
  0x34, 0x46, 0x18, 0x3e, 0xe2, 0xeb, 0x65, 0xbf, 0xa1, 0xcc, 0x89, 0x3d, 
  0x04, 0x29, 0x3d, 0xbe, 0xc0, 0x5c, 0xca, 0xbd, 0x69, 0x46, 0x09, 0xbd, 
  0x94, 0x82, 0x7e, 0xbe, 0x70, 0x33, 0x6a, 0x3d, 0xcf, 0x94, 0xe3, 0x3c, 
  0xc2, 0x57, 0x11, 0xbe, 0xb2, 0x4c, 0xa1, 0x3d, 0x79, 0x1e, 0x1a, 0x3b, 
  0x9b, 0xea, 0x54, 0xbd, 0x9a, 0xf3, 0x55, 0xbd, 0x1d, 0xfc, 0xb4, 0xbc, 
  0x0e, 0xf0, 0xa2, 0xbe, 0x7e, 0xd2, 0xc8, 0xbd, 0x9b, 0x95, 0x15, 0x3e, 
  0x05, 0xdb, 0xff, 0xbd, 0xa2, 0x76, 0x89, 0xbd, 0xe7, 0x85, 0x42, 0xbe, 
  0x99, 0x4e, 0x13, 0x3e, 0xa2, 0x23, 0x6f, 0x3d, 0x33, 0xd5, 0xa3, 0x3e, 
  0x03, 0xe4, 0xa4, 0x3e, 0xab, 0x7b, 0x66, 0x3e, 0x17, 0xc6, 0x45, 0x3e, 
  0xa7, 0x1d, 0x5b, 0x3d, 0xdc, 0x6b, 0x26, 0x3e, 0xb2, 0xa0, 0x1b, 0xbe, 
  0x32, 0x47, 0x69, 0x3e, 0x37, 0x3c, 0x7e, 0xbd, 0x10, 0x2c, 0xb8, 0x3d, 
  0x09, 0xe9, 0x9a, 0x3e, 0xf7, 0xef, 0x53, 0xbc, 0xba, 0x13, 0x34, 0x3c, 
  0xd9, 0x68, 0x25, 0xbd, 0xf9, 0xf7, 0x11, 0x3e, 0xb7, 0xd7, 0x8a, 0xbe, 
  0x9c, 0x86, 0x3d, 0x3e, 0xf6, 0xa6, 0xa6, 0x3e, 0x6c, 0xc2, 0x10, 0xbe, 
  0x37, 0xe6, 0x13, 0xbc, 0x68, 0x7f, 0x77, 0xbe, 0xcb, 0x03, 0xff, 0xbd, 
  0xe6, 0x73, 0x12, 0xbe, 0xf9, 0x25, 0x1b, 0x3e, 0x48, 0xa7, 0x81, 0xbd, 
  0xbf, 0xe5, 0xc2, 0xbe, 0xe8, 0x76, 0xb1, 0xbd, 0xb0, 0x56, 0x26, 0x36, 
  0x7a, 0x6f, 0xbf, 0x3d, 0xdf, 0x8d, 0x9a, 0x3e, 0xff, 0x48, 0x32, 0x3e, 
  0xfa, 0x2b, 0x15, 0x3d, 0x1d, 0xae, 0xe3, 0x3d, 0x07, 0x86, 0x1d, 0x3e, 
  0x63, 0xf1, 0x10, 0x3e, 0xaa, 0x74, 0x95, 0x3e, 0x91, 0x12, 0xdd, 0xbe, 
  0xe6, 0xf0, 0x9d, 0xbd, 0xa3, 0x8c, 0x0e, 0xbe, 0x31, 0x99, 0x12, 0x3e, 
  0xc2, 0x0d, 0x56, 0xbe, 0x08, 0xdb, 0x4b, 0xbe, 0xdc, 0x9d, 0xd2, 0x3e, 
  0x37, 0x0b, 0x95, 0x3e, 0x35, 0xa5, 0x65, 0xbc, 0xbb, 0x90, 0x90, 0x3c, 
  0x93, 0xf8, 0x12, 0x3e, 0x97, 0xde, 0x3c, 0x3e, 0x9a, 0x03, 0xcb, 0x3d, 
  0xcc, 0x3d, 0xd2, 0x3d, 0xc3, 0xc2, 0xdd, 0xbd, 0xe6, 0xaf, 0x56, 0x3e, 
  0x76, 0x2d, 0x78, 0xbe, 0x5a, 0xa3, 0x49, 0xbe, 0x48, 0x50, 0x20, 0xbd, 
  0x42, 0xb9, 0x47, 0xbc, 0xfa, 0x36, 0x29, 0xbe, 0x60, 0x41, 0x80, 0x3d, 
  0x6d, 0x9c, 0xbd, 0x3e, 0x6f, 0x62, 0x30, 0x3e, 0x5f, 0x8d, 0x99, 0x3d, 
  0x06, 0x1e, 0xee, 0x3d, 0xd0, 0x41, 0x0e, 0x3e, 0x11, 0x64, 0x74, 0xbe, 
  0xa7, 0x89, 0x6c, 0xba, 0xb6, 0xab, 0x82, 0x3d, 0xad, 0x32, 0x79, 0x3d, 
  0x1b, 0x93, 0x8b, 0x3c, 0xe4, 0x10, 0x24, 0xbf, 0x2f, 0x6a, 0x67, 0x3d, 
  0x80, 0xec, 0x89, 0xbe, 0x6c, 0x22, 0x72, 0x3e, 0x68, 0xb1, 0x06, 0xbe, 
  0xb9, 0x8f, 0x84, 0xbe, 0x96, 0x59, 0x08, 0x3e, 0x6a, 0xff, 0xfe, 0xbd, 
  0x28, 0x5d, 0x8e, 0xbd, 0x9c, 0xa3, 0x71, 0x3e, 0x31, 0xcf, 0x08, 0x3e, 
  0xcd, 0xe5, 0x0e, 0xbd, 0xf8, 0x8a, 0xe1, 0x3d, 0x17, 0x91, 0x05, 0x3e, 
  0x6e, 0x61, 0x60, 0x3e, 0x9c, 0x8e, 0xcf, 0xbb, 0x3f, 0x93, 0x7a, 0xbf, 
  0x00, 0x29, 0x52, 0xbd, 0x0f, 0x1b, 0x8f, 0xbd, 0xb1, 0x88, 0xe2, 0x3e, 
  0x17, 0x3f, 0xde, 0xbd, 0xad, 0xa3, 0xc2, 0xbe, 0x0a, 0x2a, 0x8f, 0x3e, 
  0xf1, 0xa8, 0xba, 0xbe, 0xe4, 0xfe, 0xc7, 0x3d, 0xe6, 0x13, 0xb2, 0x3d, 
  0x7d, 0xb5, 0xbd, 0x3e, 0x27, 0xec, 0x0b, 0xbc, 0x18, 0x7d, 0xfb, 0x3d, 
  0x62, 0xdf, 0x9f, 0xbd, 0x9d, 0xa8, 0x59, 0xbc, 0x5c, 0x26, 0x21, 0xbe, 
  0x50, 0xc6, 0xb0, 0xbd, 0xff, 0x96, 0x0b, 0xbe, 0xca, 0x58, 0x9e, 0x3e, 
  0xe9, 0x51, 0x94, 0xbd, 0x36, 0xe5, 0x92, 0x3e, 0xe1, 0x42, 0x81, 0x3d, 
  0xb3, 0x56, 0x20, 0x3e, 0xad, 0xaf, 0x27, 0xbe, 0x95, 0x30, 0x84, 0x3d, 
  0x67, 0x2e, 0x94, 0xbc, 0x87, 0xbb, 0x88, 0x3e, 0xaa, 0x7d, 0x5c, 0x3e, 
  0x08, 0xa2, 0x5c, 0x3d, 0x43, 0x19, 0x75, 0x3e, 0xc4, 0x3e, 0x46, 0x3d, 
  0x4a, 0x58, 0xba, 0x3d, 0x04, 0x58, 0x06, 0xbf, 0xae, 0xe6, 0x4c, 0xbe, 
  0x76, 0x59, 0xfe, 0xbd, 0xc6, 0x06, 0xb4, 0x3e, 0xf7, 0xa7, 0xbc, 0xbc, 
  0x48, 0x9f, 0x20, 0x3e, 0x42, 0x47, 0x10, 0x3c, 0xac, 0x89, 0x92, 0xbd, 
  0x1f, 0x07, 0x03, 0xbe, 0xf0, 0xd8, 0x4c, 0x3e, 0x5f, 0xb4, 0x39, 0x3e, 
  0x90, 0xed, 0x2e, 0xbd, 0x7b, 0x90, 0x85, 0x3e, 0x19, 0x90, 0x62, 0x3f, 
  0xfe, 0xd4, 0x5c, 0xbe, 0x18, 0x5f, 0x91, 0x3e, 0x38, 0x6c, 0x23, 0xbf, 
  0xb2, 0xaf, 0xc5, 0x3e, 0x80, 0x5d, 0xbf, 0xbe, 0xad, 0x5d, 0x33, 0x3e, 
  0xd3, 0x26, 0x43, 0xbe, 0x51, 0xc1, 0xd8, 0xbe, 0xce, 0xae, 0x7d, 0xbe, 
  0xc0, 0xb0, 0x00, 0xbf, 0x65, 0x2e, 0xa0, 0xbb, 0xee, 0xa3, 0x15, 0x3f, 
  0xf5, 0x23, 0x2b, 0x3f, 0xce, 0x7f, 0x16, 0xbf, 0x7a, 0x93, 0xed, 0xbd, 
  0x41, 0x86, 0x7d, 0xbd, 0x85, 0x27, 0x02, 0xbe, 0x05, 0x85, 0xa6, 0xbe, 
  0x94, 0x13, 0x82, 0x3d, 0x36, 0x86, 0x3c, 0xbe, 0xf4, 0x41, 0x5c, 0x3e, 
  0x2a, 0xde, 0x69, 0xbd, 0xc1, 0xe6, 0x17, 0xbe, 0xa0, 0xf1, 0x1c, 0x3e, 
  0x27, 0x7b, 0x8f, 0xbe, 0x78, 0x74, 0xa0, 0x3d, 0xe8, 0x72, 0x6b, 0x3d, 
  0xd7, 0x39, 0x93, 0x3d, 0xd7, 0x25, 0xcd, 0x3d, 0x86, 0x80, 0x80, 0x3d, 
  0xa2, 0x8a, 0x01, 0xbe, 0x58, 0x19, 0xc7, 0xbd, 0x16, 0x2e, 0xbd, 0x3d, 
  0x63, 0xf4, 0x69, 0x3c, 0xfc, 0x85, 0x82, 0xbf, 0x73, 0x79, 0xff, 0xbd, 
  0x40, 0xaa, 0xe5, 0x3b, 0xdb, 0x95, 0x44, 0x3f, 0xc9, 0xf2, 0x9e, 0xbe, 
  0x43, 0xa8, 0x53, 0xbe, 0x7e, 0x3d, 0xec, 0x3d, 0xcc, 0x81, 0x68, 0xbd, 
  0x4c, 0xf6, 0x07, 0xbe, 0xfe, 0xd6, 0xd2, 0x3e, 0x44, 0x86, 0x2e, 0x3f, 
  0xe2, 0xbd, 0xae, 0x3c, 0x7e, 0xd8, 0xc1, 0x3d, 0x20, 0x79, 0x0d, 0x3e, 
  0x87, 0x6f, 0xc2, 0xbd, 0xaa, 0xe2, 0xdd, 0x3d, 0xaa, 0x8a, 0xcb, 0xbe, 
  0x07, 0xdd, 0xee, 0x3d, 0x59, 0x6e, 0xa2, 0x3d, 0xbc, 0x03, 0xb3, 0x3d, 
  0x84, 0x4d, 0x6b, 0xbd, 0xeb, 0x41, 0x50, 0xb9, 0x10, 0xad, 0x65, 0xbd, 
  0xf8, 0xcd, 0x9d, 0xbe, 0x82, 0xf8, 0xca, 0xbd, 0x43, 0x67, 0x35, 0x3d, 
  0x5a, 0x1c, 0xbc, 0x3e, 0x8e, 0xdd, 0x1c, 0x3d, 0x6f, 0x8a, 0xf5, 0x3d, 
  0x0f, 0xa1, 0x4e, 0x3e, 0x77, 0x4f, 0x18, 0x3e, 0xc2, 0x79, 0x88, 0x3e, 
  0xa2, 0x1c, 0xae, 0xbe, 0x48, 0xb5, 0x8c, 0xbe, 0x06, 0xf3, 0x72, 0xbe, 
  0x03, 0xa5, 0x27, 0x3e, 0xff, 0x7c, 0x4d, 0xbe, 0xf0, 0xf8, 0xc2, 0xbe, 
  0xb4, 0xb4, 0x90, 0xbe, 0x2c, 0xf3, 0x3a, 0xbe, 0x53, 0x6f, 0xda, 0xbd, 
  0xd3, 0xd7, 0xb1, 0xbb, 0x12, 0xdf, 0x93, 0x3e, 0xc8, 0xdc, 0x1a, 0xbe, 
  0x69, 0x2b, 0x7c, 0xbd, 0x23, 0x13, 0x3f, 0x3e, 0xf1, 0x60, 0xf0, 0x3d, 
  0x64, 0x7d, 0x70, 0x3d, 0x96, 0xc3, 0x90, 0xbe, 0x01, 0xef, 0xb4, 0x3d, 
  0x3f, 0xcd, 0xe4, 0x3d, 0xb9, 0xa6, 0x86, 0xbe, 0xcc, 0x7d, 0x54, 0x3e, 
  0x51, 0xbf, 0x19, 0x3d, 0x4d, 0xf8, 0x98, 0xbf, 0x6a, 0xd0, 0xd2, 0xbe, 
  0x57, 0x90, 0x32, 0xbe, 0xfa, 0x59, 0x51, 0x3e, 0xf8, 0xcc, 0x30, 0x3f, 
  0x1c, 0x56, 0xd4, 0xbd, 0x4d, 0xf4, 0x68, 0x3e, 0x9b, 0x5a, 0x38, 0x3d, 
  0x60, 0xb2, 0xad, 0xbf, 0xbc, 0x3c, 0xe9, 0xbd, 0xc9, 0x2a, 0x2d, 0xc0, 
  0xea, 0x19, 0xb7, 0xbe, 0xea, 0x08, 0x8d, 0x3e, 0x00, 0x6a, 0x9a, 0x3f, 
  0x15, 0x0e, 0xbb, 0xbf, 0x8b, 0xdc, 0x97, 0xbf, 0x85, 0x1a, 0x07, 0x3d, 
  0x84, 0xc7, 0x36, 0xbe, 0x66, 0x93, 0x2e, 0xbe, 0x24, 0x8a, 0x01, 0x40, 
  0x85, 0x15, 0x32, 0x3f, 0xe4, 0xa3, 0x5c, 0x3f, 0x29, 0x65, 0x84, 0xbe, 
  0x3c, 0x03, 0x1b, 0xbe, 0x77, 0xb8, 0x3f, 0x3e, 0x7d, 0x77, 0x71, 0x3d, 
  0xf5, 0xa9, 0x06, 0x3f, 0x35, 0x8e, 0x08, 0x3e, 0xf8, 0x5c, 0x1e, 0xbd, 
  0x07, 0xc9, 0xbc, 0xbe, 0xf4, 0x89, 0xcc, 0x3e, 0x44, 0xe3, 0xa4, 0x3e, 
  0xb5, 0xf7, 0xaa, 0x3d, 0xa9, 0x4d, 0x07, 0x3e, 0xfe, 0xdd, 0x45, 0x3e, 
  0x9f, 0xd3, 0x20, 0xbe, 0x49, 0x83, 0xe7, 0xbc, 0x9f, 0x27, 0x4a, 0x3e, 
  0xe3, 0x86, 0x38, 0x3e, 0x74, 0x71, 0x44, 0xbe, 0x06, 0x04, 0xb5, 0x3d, 
  0x26, 0xf3, 0x45, 0xbc, 0x61, 0x7a, 0x32, 0xbe, 0xe1, 0x2f, 0x89, 0xbd, 
  0x4e, 0x76, 0xc8, 0x3d, 0xd0, 0xaf, 0xe5, 0xbd, 0x91, 0x11, 0xcd, 0xbc, 
  0x90, 0xbb, 0x9a, 0x3e, 0x5b, 0xe1, 0xbf, 0xbe, 0x6c, 0x68, 0x43, 0x3e, 
  0x5d, 0x79, 0xcc, 0xbd, 0x85, 0x48, 0x04, 0x3e, 0xb5, 0xd7, 0x7d, 0xbd, 
  0x0e, 0x16, 0x2d, 0x3e, 0xe1, 0xbb, 0x94, 0x3e, 0x33, 0xf9, 0xdf, 0x3e, 
  0x67, 0x05, 0xa7, 0x3d, 0x0f, 0x10, 0x8a, 0xbd, 0x64, 0x2f, 0xdd, 0xbd, 
  0x00, 0x23, 0x05, 0xbe, 0xce, 0xc7, 0xfc, 0xbd, 0x2c, 0x79, 0xcc, 0x3d, 
  0xea, 0x28, 0xaa, 0xbd, 0x75, 0x93, 0xa2, 0x3c, 0xd4, 0xf2, 0xc4, 0x3e, 
  0x87, 0x6b, 0xe2, 0xbd, 0xba, 0x29, 0x5a, 0x3d, 0x98, 0xb5, 0x64, 0xbe, 
  0x58, 0x45, 0xbc, 0xbd, 0xa0, 0x5c, 0xce, 0xbd, 0xc1, 0xbb, 0x89, 0xbe, 
  0x35, 0x15, 0xcb, 0xbe, 0x9a, 0x24, 0x30, 0x3e, 0x9a, 0xc8, 0xa0, 0xbe, 
  0xa0, 0x14, 0xd3, 0x3d, 0xde, 0xef, 0x89, 0xbd, 0x64, 0xf3, 0x64, 0x3e, 
  0xa7, 0x2c, 0x6f, 0xbe, 0xbf, 0x38, 0xd2, 0x3d, 0x05, 0xcb, 0x54, 0x3e, 
  0xbf, 0x9a, 0x65, 0xbe, 0x56, 0x97, 0x95, 0xbe, 0xfc, 0x6c, 0xc8, 0xbe, 
  0x00, 0x6f, 0xf6, 0x3d, 0xce, 0xb8, 0xb1, 0x3d, 0x1a, 0xc1, 0xe2, 0x3e, 
  0x15, 0xfa, 0x00, 0x3c, 0x45, 0x74, 0xfa, 0x3d, 0x98, 0x42, 0xb6, 0xbd, 
  0x34, 0x06, 0x6c, 0xbe, 0x5b, 0x42, 0xb5, 0xbd, 0x2d, 0x97, 0xfc, 0x3c, 
  0x36, 0x1e, 0x18, 0x3e, 0x0e, 0xd8, 0xb3, 0x3c, 0xf4, 0x45, 0x07, 0xbe, 
  0x63, 0x0b, 0x8d, 0xbe, 0xde, 0x1d, 0x16, 0x3d, 0x86, 0x18, 0x9f, 0xbc, 
  0xd2, 0xd1, 0x00, 0xbd, 0x61, 0xa9, 0xa5, 0x3e, 0xbc, 0x1e, 0xfa, 0x3e, 
  0x9b, 0x3e, 0xcc, 0x3d, 0x26, 0xde, 0xff, 0xff, 0x04, 0x00, 0x00, 0x00, 
  0x00, 0x01, 0x00, 0x00, 0x7d, 0x73, 0xda, 0x3e, 0x0c, 0x6c, 0xb8, 0x3e, 
  0x70, 0xdf, 0x73, 0xbe, 0x2f, 0x11, 0xd7, 0xbd, 0xb2, 0xf1, 0x03, 0x3f, 
  0xdf, 0xaf, 0x38, 0xbe, 0x66, 0x2f, 0xb0, 0x3e, 0x78, 0x32, 0x87, 0x3e, 
  0x4c, 0x85, 0xf2, 0x3e, 0x6e, 0xd5, 0x84, 0x3e, 0xf3, 0x14, 0xe8, 0x3e, 
  0x06, 0x31, 0xff, 0xbd, 0xa5, 0x2d, 0x92, 0xbe, 0x24, 0x94, 0x85, 0xbe, 
  0x67, 0x54, 0x1c, 0xbf, 0xca, 0x2b, 0x63, 0xbe, 0xca, 0x96, 0x8c, 0x3e, 
  0xdc, 0x11, 0xe0, 0x3c, 0xbf, 0xe8, 0xaf, 0xbd, 0xa5, 0x97, 0x7c, 0x3e, 
  0x5b, 0xf1, 0x43, 0x3f, 0x1d, 0xfe, 0x6e, 0x3e, 0xdd, 0x7a, 0x9c, 0xbe, 
  0x95, 0x8b, 0xdb, 0x3e, 0x34, 0x73, 0x4e, 0x3d, 0x87, 0x1a, 0xbb, 0x3c, 
  0xb3, 0xcb, 0x9f, 0xbe, 0xaa, 0x93, 0x8f, 0x3d, 0x1e, 0xab, 0x37, 0xbe, 
  0xd3, 0xb9, 0xcb, 0xbd, 0x25, 0x96, 0x2e, 0xbf, 0x75, 0x30, 0x4f, 0x3e, 
  0x5c, 0x7c, 0xbb, 0x3e, 0xa5, 0xe5, 0x68, 0x3e, 0x34, 0x3f, 0xbe, 0x3d, 
  0xbd, 0x65, 0x8c, 0x3e, 0x8e, 0xef, 0x2e, 0xbf, 0x84, 0xaa, 0x0d, 0xbe, 
  0x30, 0x4b, 0xff, 0xbe, 0xda, 0x4c, 0xc2, 0x3e, 0x19, 0xd4, 0xac, 0xbe, 
  0xd6, 0xc4, 0x58, 0xbe, 0x20, 0x7e, 0x78, 0x3f, 0xc3, 0xfc, 0x5a, 0xbe, 
  0x3c, 0x25, 0x88, 0x3d, 0x38, 0xea, 0xce, 0xbd, 0x19, 0x6b, 0x80, 0x3e, 
  0x53, 0x53, 0x98, 0xbe, 0x38, 0x0d, 0xb3, 0x3e, 0xaf, 0x82, 0xa8, 0x3e, 
  0xbd, 0x9f, 0x85, 0xbe, 0x77, 0x73, 0x90, 0x3e, 0x43, 0x6f, 0x74, 0x3f, 
  0x2e, 0xfc, 0xc2, 0x3d, 0xb7, 0x9d, 0x0c, 0xbe, 0x9c, 0xc1, 0xbb, 0x3e, 
  0x8a, 0xf4, 0x46, 0x3f, 0x8a, 0xf0, 0x2a, 0x3e, 0xd4, 0x74, 0xc6, 0x3d, 
  0xd0, 0xe4, 0xfd, 0x3d, 0xc5, 0xe7, 0xf5, 0xbd, 0x62, 0x8d, 0x0a, 0xbf, 
  0x8a, 0x23, 0x51, 0xbf, 0x82, 0x14, 0x00, 0xbe, 0x18, 0xd3, 0xff, 0xff, 
  0x1c, 0xd3, 0xff, 0xff, 0x20, 0xd3, 0xff, 0xff, 0x24, 0xd3, 0xff, 0xff, 
  0x28, 0xd3, 0xff, 0xff, 0x2c, 0xd3, 0xff, 0xff, 0x30, 0xd3, 0xff, 0xff, 
  0x34, 0xd3, 0xff, 0xff, 0x38, 0xd3, 0xff, 0xff, 0x3c, 0xd3, 0xff, 0xff, 
  0x40, 0xd3, 0xff, 0xff, 0x44, 0xd3, 0xff, 0xff, 0x48, 0xd3, 0xff, 0xff, 
  0x4c, 0xd3, 0xff, 0xff, 0x50, 0xd3, 0xff, 0xff, 0x54, 0xd3, 0xff, 0xff, 
  0x58, 0xd3, 0xff, 0xff, 0x5c, 0xd3, 0xff, 0xff, 0x60, 0xd3, 0xff, 0xff, 
  0x7e, 0xdf, 0xff, 0xff, 0x04, 0x00, 0x00, 0x00, 0x10, 0x00, 0x00, 0x00, 
  0xae, 0xee, 0xe7, 0x09, 0x00, 0x00, 0x00, 0x00, 0x00, 0x00, 0x00, 0x00, 
  0x00, 0x00, 0x00, 0x00, 0x80, 0xd3, 0xff, 0xff, 0x84, 0xd3, 0xff, 0xff, 
  0x88, 0xd3, 0xff, 0xff, 0x8c, 0xd3, 0xff, 0xff, 0x90, 0xd3, 0xff, 0xff, 
  0x94, 0xd3, 0xff, 0xff, 0x98, 0xd3, 0xff, 0xff, 0x9c, 0xd3, 0xff, 0xff, 
  0xa0, 0xd3, 0xff, 0xff, 0xa4, 0xd3, 0xff, 0xff, 0xa8, 0xd3, 0xff, 0xff, 
  0xac, 0xd3, 0xff, 0xff, 0xb0, 0xd3, 0xff, 0xff, 0xb4, 0xd3, 0xff, 0xff, 
  0xb8, 0xd3, 0xff, 0xff, 0xbc, 0xd3, 0xff, 0xff, 0xc0, 0xd3, 0xff, 0xff, 
  0xc4, 0xd3, 0xff, 0xff, 0xc8, 0xd3, 0xff, 0xff, 0xe6, 0xdf, 0xff, 0xff, 
  0x04, 0x00, 0x00, 0x00, 0x04, 0x00, 0x00, 0x00, 0x3c, 0x00, 0x00, 0x00, 
  0xf6, 0xdf, 0xff, 0xff, 0x04, 0x00, 0x00, 0x00, 0x04, 0x00, 0x00, 0x00, 
  0x10, 0x00, 0x00, 0x00, 0xec, 0xd3, 0xff, 0xff, 0x0a, 0xe0, 0xff, 0xff, 
  0x04, 0x00, 0x00, 0x00, 0x0c, 0x00, 0x00, 0x00, 0x01, 0x00, 0x00, 0x00, 
  0x00, 0x00, 0x00, 0x00, 0x02, 0x00, 0x00, 0x00, 0x08, 0xd4, 0xff, 0xff, 
  0x0c, 0xd4, 0xff, 0xff, 0x2a, 0xe0, 0xff, 0xff, 0x04, 0x00, 0x00, 0x00, 
  0x04, 0x00, 0x00, 0x00, 0x01, 0x00, 0x00, 0x00, 0x3a, 0xe0, 0xff, 0xff, 
  0x04, 0x00, 0x00, 0x00, 0x08, 0x00, 0x00, 0x00, 0xff, 0xff, 0xff, 0xff, 
  0x10, 0x00, 0x00, 0x00, 0x4e, 0xe0, 0xff, 0xff, 0x04, 0x00, 0x00, 0x00, 
  0x04, 0x00, 0x00, 0x00, 0x00, 0x00, 0x00, 0x00, 0x5e, 0xe0, 0xff, 0xff, 
  0x04, 0x00, 0x00, 0x00, 0x10, 0x00, 0x00, 0x00, 0x00, 0x00, 0x00, 0x00, 
  0x00, 0x00, 0x00, 0x00, 0x01, 0x00, 0x00, 0x00, 0x00, 0x00, 0x00, 0x00, 
  0x7a, 0xe0, 0xff, 0xff, 0x04, 0x00, 0x00, 0x00, 0x00, 0x02, 0x00, 0x00, 
  0x50, 0x08, 0x01, 0x3f, 0x24, 0xc5, 0x69, 0x3e, 0x92, 0x60, 0x17, 0x3e, 
  0xf5, 0xff, 0xbe, 0x3d, 0xce, 0x14, 0x56, 0xbe, 0xdb, 0x7c, 0x51, 0xbe, 
  0xe8, 0xf2, 0x08, 0xbf, 0x9f, 0x91, 0xea, 0x3e, 0x30, 0x98, 0x59, 0xbe, 
  0xc1, 0xa3, 0x09, 0xbf, 0x24, 0xe3, 0xb6, 0x3f, 0x3e, 0xe3, 0x0c, 0xbf, 
  0xab, 0xfd, 0x8b, 0xbe, 0x23, 0x5b, 0x03, 0xbf, 0x8a, 0x5e, 0x75, 0x3d, 
  0x9b, 0x19, 0xaa, 0x3e, 0x8d, 0x9d, 0x14, 0xbc, 0x7d, 0x43, 0x89, 0xbe, 
  0xb1, 0x15, 0x12, 0x3e, 0xed, 0x09, 0xa5, 0xbe, 0xb6, 0x49, 0xa2, 0x3d, 
  0xab, 0x19, 0x12, 0x3d, 0xcb, 0x8e, 0xa6, 0x3e, 0x56, 0x6c, 0xa2, 0x3d, 
  0xb1, 0x70, 0xcb, 0x3e, 0x23, 0x80, 0x6b, 0xbe, 0xbf, 0x3a, 0x0d, 0x3e, 
  0xd1, 0x4a, 0x19, 0x3e, 0xc3, 0x95, 0xc6, 0x3d, 0x0c, 0x5f, 0x07, 0xbf, 
  0xb9, 0x83, 0xba, 0x3e, 0x00, 0x00, 0x0d, 0x3e, 0x26, 0xde, 0xf4, 0x3e, 
  0x03, 0x5b, 0x8b, 0xbe, 0x6a, 0xf6, 0xc5, 0x3e, 0x87, 0x6f, 0xa6, 0x3e, 
  0x8a, 0xe3, 0xd2, 0x3e, 0x08, 0x5a, 0xcc, 0xbe, 0xf7, 0x03, 0xb3, 0xbd, 
  0x3d, 0x0f, 0xca, 0xbe, 0x48, 0xa7, 0xaa, 0xbe, 0xd1, 0x7c, 0xc7, 0x3e, 
  0x81, 0x0b, 0x9a, 0xbe, 0x1c, 0xb7, 0xb7, 0x3d, 0x7f, 0xf2, 0xde, 0x3d, 
  0x29, 0x87, 0xc4, 0xbe, 0x5c, 0xbd, 0x90, 0xbe, 0x2a, 0x32, 0xc9, 0x3e, 
  0x09, 0x40, 0xce, 0x3e, 0x3d, 0x1a, 0x06, 0x3f, 0x22, 0x47, 0x87, 0xbb, 
  0xa9, 0x48, 0xec, 0x3e, 0x31, 0x3d, 0x35, 0xbe, 0x48, 0x89, 0x93, 0x3c, 
  0xe9, 0xe1, 0x6f, 0xbe, 0x41, 0x7e, 0xf5, 0x3d, 0x9b, 0xff, 0x88, 0xbe, 
  0x4d, 0x7b, 0x59, 0x3d, 0x97, 0x0e, 0xc3, 0x3e, 0xbe, 0xef, 0x8e, 0x3e, 
  0x31, 0xe3, 0x14, 0x3e, 0x5c, 0x51, 0x1b, 0x3e, 0xa1, 0xec, 0x01, 0xbf, 
  0x52, 0x10, 0x5a, 0xbe, 0xd8, 0xee, 0x32, 0xbe, 0x70, 0xd2, 0xa3, 0xbe, 
  0x37, 0xcd, 0x93, 0x3e, 0x35, 0x2b, 0x53, 0x3e, 0xc9, 0x64, 0xd1, 0xbe, 
  0x0d, 0xa6, 0x74, 0xbe, 0x54, 0x8e, 0x82, 0xbe, 0x4f, 0x10, 0xc9, 0x3e, 
  0x00, 0x63, 0xc5, 0xbd, 0x49, 0x66, 0x04, 0x3e, 0xb8, 0x04, 0x39, 0x3f, 
  0x4a, 0x5f, 0x5a, 0x3e, 0x7d, 0x6d, 0xbb, 0xbb, 0x1a, 0xb6, 0xd4, 0xbe, 
  0x47, 0xde, 0xfb, 0xbe, 0xc7, 0x21, 0x0c, 0xbe, 0xa1, 0x96, 0x68, 0xbe, 
  0x6c, 0xba, 0x08, 0xbe, 0x13, 0x89, 0xa8, 0x3e, 0xc1, 0x0a, 0x6a, 0x3e, 
  0xb6, 0xd9, 0xaf, 0x3e, 0x84, 0x9a, 0x06, 0x3f, 0x92, 0x99, 0x81, 0x3e, 
  0x7c, 0x08, 0xc3, 0x3d, 0xc8, 0x01, 0x00, 0x3f, 0xa0, 0x57, 0xb5, 0xbe, 
  0x53, 0xbc, 0x48, 0x3e, 0xf3, 0xa6, 0x7d, 0xbe, 0x78, 0x2d, 0xe7, 0x3d, 
  0x67, 0xf8, 0xaa, 0xbe, 0x32, 0xaf, 0x81, 0x3d, 0xfa, 0x2e, 0x59, 0xbd, 
  0xf3, 0xa4, 0x93, 0xbd, 0xa1, 0xdb, 0x76, 0x3e, 0x61, 0xee, 0xd8, 0x3e, 
  0xba, 0x06, 0x4a, 0x3e, 0xa6, 0xac, 0x88, 0xbe, 0x19, 0x3c, 0x9f, 0xbc, 
  0x7c, 0xc6, 0x78, 0x3c, 0x55, 0x76, 0xa3, 0x3e, 0xcc, 0x94, 0xe3, 0x3e, 
  0x52, 0x47, 0xf3, 0xbc, 0xde, 0x44, 0x91, 0xbf, 0x88, 0xea, 0x0f, 0x3f, 
  0xd5, 0x0c, 0xe5, 0xbd, 0xed, 0xb6, 0x39, 0xbc, 0x82, 0xec, 0x07, 0x3f, 
  0xa6, 0x17, 0x00, 0x3f, 0x41, 0xc0, 0x95, 0xbe, 0x7e, 0x18, 0x1b, 0x3d, 
  0xaa, 0x80, 0xa1, 0x3e, 0x82, 0x40, 0xa9, 0x3e, 0xfd, 0xc2, 0xe6, 0xbd, 
  0x9a, 0x5a, 0x85, 0xbe, 0x8d, 0xd1, 0xe6, 0xbe, 0x90, 0x00, 0x88, 0xbe, 
  0xac, 0x99, 0xe7, 0x3e, 0x25, 0x9f, 0x2b, 0x3e, 0x32, 0xa1, 0xfa, 0x3e, 
  0xc7, 0x06, 0x82, 0xbc, 0xf9, 0xa7, 0xab, 0xbc, 0xbb, 0x78, 0x15, 0xbf, 
  0x44, 0x71, 0x03, 0xbf, 0x05, 0x91, 0xcc, 0x3e, 0x86, 0xe2, 0xff, 0xff, 
  0x04, 0x00, 0x00, 0x00, 0x20, 0x00, 0x00, 0x00, 0xd8, 0x80, 0x69, 0x3e, 
  0x34, 0x1a, 0x79, 0x3e, 0x6c, 0x20, 0xb8, 0xbe, 0xb0, 0x89, 0x1e, 0x3f, 
  0x42, 0x29, 0xc1, 0x3e, 0x2a, 0xfe, 0xd1, 0xbe, 0x14, 0x57, 0x40, 0xbe, 
  0xa9, 0x78, 0x24, 0xbe, 0xb2, 0xe2, 0xff, 0xff, 0x04, 0x00, 0x00, 0x00, 
  0x0c, 0x00, 0x00, 0x00, 0xff, 0xff, 0xff, 0xff, 0x00, 0x00, 0x00, 0x00, 
  0x00, 0x00, 0x00, 0x00, 0xca, 0xe2, 0xff, 0xff, 0x04, 0x00, 0x00, 0x00, 
  0x0c, 0x00, 0x00, 0x00, 0x00, 0x00, 0x00, 0x00, 0x00, 0x00, 0x00, 0x00, 
  0x10, 0x00, 0x00, 0x00, 0xe2, 0xe2, 0xff, 0xff, 0x04, 0x00, 0x00, 0x00, 
  0x0c, 0x00, 0x00, 0x00, 0x01, 0x00, 0x00, 0x00, 0x01, 0x00, 0x00, 0x00, 
  0x01, 0x00, 0x00, 0x00, 0xfa, 0xe2, 0xff, 0xff, 0x04, 0x00, 0x00, 0x00, 
  0x04, 0x00, 0x00, 0x00, 0x1b, 0x49, 0xf2, 0x3d, 0x0a, 0xe3, 0xff, 0xff, 
  0x04, 0x00, 0x00, 0x00, 0x20, 0x00, 0x00, 0x00, 0x08, 0x83, 0x15, 0xbe, 
  0xd3, 0x1d, 0x7b, 0xbd, 0xdb, 0x58, 0xbe, 0xbd, 0x18, 0x68, 0xf9, 0x3d, 
  0xa1, 0x4b, 0x15, 0x3e, 0x9a, 0xe3, 0x25, 0xbd, 0x8c, 0x10, 0xc4, 0x3c, 
  0x1e, 0x02, 0xc8, 0xbd, 0x1c, 0xd7, 0xff, 0xff, 0x20, 0xd7, 0xff, 0xff, 
  0x0f, 0x00, 0x00, 0x00, 0x4d, 0x4c, 0x49, 0x52, 0x20, 0x43, 0x6f, 0x6e, 
  0x76, 0x65, 0x72, 0x74, 0x65, 0x64, 0x2e, 0x00, 0x04, 0x00, 0x00, 0x00, 
  0x54, 0x17, 0x00, 0x00, 0xe8, 0x15, 0x00, 0x00, 0x7c, 0x11, 0x00, 0x00, 
  0x04, 0x00, 0x00, 0x00, 0xca, 0xe8, 0xff, 0xff, 0x14, 0x00, 0x00, 0x00, 
  0x34, 0x00, 0x00, 0x00, 0x7c, 0x04, 0x00, 0x00, 0x94, 0x04, 0x00, 0x00, 
  0xac, 0x04, 0x00, 0x00, 0x1e, 0x00, 0x00, 0x00, 0x73, 0x65, 0x71, 0x75, 
  0x65, 0x6e, 0x74, 0x69, 0x61, 0x6c, 0x5f, 0x31, 0x2f, 0x6c, 0x73, 0x74, 
  0x6d, 0x5f, 0x31, 0x2f, 0x77, 0x68, 0x69, 0x6c, 0x65, 0x5f, 0x62, 0x6f, 
  0x64, 0x79, 0x00, 0x00, 0x12, 0x00, 0x00, 0x00, 0x18, 0x04, 0x00, 0x00, 
  0xe0, 0x03, 0x00, 0x00, 0xac, 0x03, 0x00, 0x00, 0x78, 0x03, 0x00, 0x00, 
  0x40, 0x03, 0x00, 0x00, 0x0c, 0x03, 0x00, 0x00, 0xd8, 0x02, 0x00, 0x00, 
  0x94, 0x02, 0x00, 0x00, 0x70, 0x02, 0x00, 0x00, 0x4c, 0x02, 0x00, 0x00, 
  0x18, 0x02, 0x00, 0x00, 0xf4, 0x01, 0x00, 0x00, 0xd0, 0x01, 0x00, 0x00, 
  0x9c, 0x01, 0x00, 0x00, 0x68, 0x01, 0x00, 0x00, 0x44, 0x01, 0x00, 0x00, 
  0x10, 0x01, 0x00, 0x00, 0x04, 0x00, 0x00, 0x00, 0xa0, 0xe5, 0xff, 0xff, 
  0x10, 0x00, 0x00, 0x00, 0xe8, 0x00, 0x00, 0x00, 0xec, 0x00, 0x00, 0x00, 
  0x15, 0x00, 0x00, 0x00, 0xd6, 0x00, 0x00, 0x00, 0x11, 0x54, 0x65, 0x6e, 
  0x73, 0x6f, 0x72, 0x4c, 0x69, 0x73, 0x74, 0x53, 0x65, 0x74, 0x49, 0x74, 
  0x65, 0x6d, 0x00, 0xb9, 0x12, 0x11, 0x54, 0x65, 0x6e, 0x73, 0x6f, 0x72, 
  0x4c, 0x69, 0x73, 0x74, 0x53, 0x65, 0x74, 0x49, 0x74, 0x65, 0x6d, 0x1a, 
  0x00, 0x1a, 0x00, 0x1a, 0x00, 0x2a, 0x13, 0x0a, 0x0d, 0x65, 0x6c, 0x65, 
  0x6d, 0x65, 0x6e, 0x74, 0x5f, 0x64, 0x74, 0x79, 0x70, 0x65, 0x12, 0x02, 
  0x30, 0x01, 0x2a, 0x23, 0x0a, 0x1d, 0x72, 0x65, 0x73, 0x69, 0x7a, 0x65, 
  0x5f, 0x69, 0x66, 0x5f, 0x69, 0x6e, 0x64, 0x65, 0x78, 0x5f, 0x6f, 0x75, 
  0x74, 0x5f, 0x6f, 0x66, 0x5f, 0x62, 0x6f, 0x75, 0x6e, 0x64, 0x73, 0x12, 
  0x02, 0x28, 0x00, 0x32, 0x64, 0x0a, 0x3e, 0x73, 0x65, 0x71, 0x75, 0x65, 
  0x6e, 0x74, 0x69, 0x61, 0x6c, 0x5f, 0x31, 0x2f, 0x6c, 0x73, 0x74, 0x6d, 
  0x5f, 0x31, 0x2f, 0x77, 0x68, 0x69, 0x6c, 0x65, 0x2f, 0x54, 0x65, 0x6e, 
  0x73, 0x6f, 0x72, 0x41, 0x72, 0x72, 0x61, 0x79, 0x56, 0x32, 0x57, 0x72, 
  0x69, 0x74, 0x65, 0x2f, 0x54, 0x65, 0x6e, 0x73, 0x6f, 0x72, 0x4c, 0x69, 
  0x73, 0x74, 0x53, 0x65, 0x74, 0x49, 0x74, 0x65, 0x6d, 0x12, 0x22, 0x73, 
  0x65, 0x71, 0x75, 0x65, 0x6e, 0x74, 0x69, 0x61, 0x6c, 0x5f, 0x31, 0x5f, 
  0x6c, 0x73, 0x74, 0x6d, 0x5f, 0x31, 0x5f, 0x77, 0x68, 0x69, 0x6c, 0x65, 
  0x5f, 0x62, 0x6f, 0x64, 0x79, 0x5f, 0x35, 0x30, 0x38, 0x00, 0x02, 0xce, 
  0xbc, 0x14, 0x14, 0x04, 0x28, 0x01, 0x00, 0x00, 0x01, 0x00, 0x00, 0x00, 
  0x1f, 0x00, 0x00, 0x00, 0x03, 0x00, 0x00, 0x00, 0x02, 0x00, 0x00, 0x00, 
  0x06, 0x00, 0x00, 0x00, 0x1e, 0x00, 0x00, 0x00, 0x96, 0xe5, 0xff, 0xff, 
  0x14, 0x00, 0x00, 0x00, 0x00, 0x00, 0x00, 0x15, 0x10, 0x00, 0x00, 0x00, 
  0x14, 0x00, 0x00, 0x00, 0x13, 0x00, 0x00, 0x00, 0xf4, 0xd8, 0xff, 0xff, 
  0x01, 0x00, 0x00, 0x00, 0x1e, 0x00, 0x00, 0x00, 0x02, 0x00, 0x00, 0x00, 
  0x19, 0x00, 0x00, 0x00, 0x1d, 0x00, 0x00, 0x00, 0x52, 0xe7, 0xff, 0xff, 
  0x0c, 0x00, 0x00, 0x00, 0x10, 0x00, 0x00, 0x00, 0x14, 0x00, 0x00, 0x00, 
  0x01, 0x00, 0x00, 0x00, 0x1d, 0x00, 0x00, 0x00, 0x01, 0x00, 0x00, 0x00, 
  0x1c, 0x00, 0x00, 0x00, 0xe6, 0xe5, 0xff, 0xff, 0x14, 0x00, 0x00, 0x00, 
  0x00, 0x00, 0x00, 0x0b, 0x10, 0x00, 0x00, 0x00, 0x14, 0x00, 0x00, 0x00, 
  0x0c, 0x00, 0x00, 0x00, 0x44, 0xd9, 0xff, 0xff, 0x01, 0x00, 0x00, 0x00, 
  0x1c, 0x00, 0x00, 0x00, 0x02, 0x00, 0x00, 0x00, 0x18, 0x00, 0x00, 0x00, 
  0x1b, 0x00, 0x00, 0x00, 0x16, 0xe6, 0xff, 0xff, 0x14, 0x00, 0x00, 0x00, 
  0x00, 0x00, 0x00, 0x15, 0x10, 0x00, 0x00, 0x00, 0x14, 0x00, 0x00, 0x00, 
  0x13, 0x00, 0x00, 0x00, 0x74, 0xd9, 0xff, 0xff, 0x01, 0x00, 0x00, 0x00, 
  0x1b, 0x00, 0x00, 0x00, 0x02, 0x00, 0x00, 0x00, 0x16, 0x00, 0x00, 0x00, 
  0x1a, 0x00, 0x00, 0x00, 0xd2, 0xe7, 0xff, 0xff, 0x0c, 0x00, 0x00, 0x00, 
  0x10, 0x00, 0x00, 0x00, 0x14, 0x00, 0x00, 0x00, 0x01, 0x00, 0x00, 0x00, 
  0x1a, 0x00, 0x00, 0x00, 0x01, 0x00, 0x00, 0x00, 0x14, 0x00, 0x00, 0x00, 
  0xf2, 0xe7, 0xff, 0xff, 0x0c, 0x00, 0x00, 0x00, 0x10, 0x00, 0x00, 0x00, 
  0x12, 0x00, 0x00, 0x00, 0x01, 0x00, 0x00, 0x00, 0x19, 0x00, 0x00, 0x00, 
  0x01, 0x00, 0x00, 0x00, 0x15, 0x00, 0x00, 0x00, 0x86, 0xe6, 0xff, 0xff, 
  0x14, 0x00, 0x00, 0x00, 0x00, 0x00, 0x00, 0x15, 0x10, 0x00, 0x00, 0x00, 
  0x14, 0x00, 0x00, 0x00, 0x13, 0x00, 0x00, 0x00, 0xe4, 0xd9, 0xff, 0xff, 
  0x01, 0x00, 0x00, 0x00, 0x18, 0x00, 0x00, 0x00, 0x02, 0x00, 0x00, 0x00, 
  0x17, 0x00, 0x00, 0x00, 0x04, 0x00, 0x00, 0x00, 0x42, 0xe8, 0xff, 0xff, 
  0x0c, 0x00, 0x00, 0x00, 0x10, 0x00, 0x00, 0x00, 0x12, 0x00, 0x00, 0x00, 
  0x01, 0x00, 0x00, 0x00, 0x17, 0x00, 0x00, 0x00, 0x01, 0x00, 0x00, 0x00, 
  0x13, 0x00, 0x00, 0x00, 0x62, 0xe8, 0xff, 0xff, 0x0c, 0x00, 0x00, 0x00, 
  0x10, 0x00, 0x00, 0x00, 0x12, 0x00, 0x00, 0x00, 0x01, 0x00, 0x00, 0x00, 
  0x16, 0x00, 0x00, 0x00, 0x01, 0x00, 0x00, 0x00, 0x12, 0x00, 0x00, 0x00, 
  0xf6, 0xe6, 0xff, 0xff, 0x14, 0x00, 0x00, 0x00, 0x00, 0x00, 0x00, 0x23, 
  0x14, 0x00, 0x00, 0x00, 0x24, 0x00, 0x00, 0x00, 0x11, 0x00, 0x00, 0x00, 
  0x6e, 0xe6, 0xff, 0xff, 0x04, 0x00, 0x00, 0x00, 0x04, 0x00, 0x00, 0x00, 
  0x12, 0x00, 0x00, 0x00, 0x13, 0x00, 0x00, 0x00, 0x14, 0x00, 0x00, 0x00, 
  0x15, 0x00, 0x00, 0x00, 0x02, 0x00, 0x00, 0x00, 0x07, 0x00, 0x00, 0x00, 
  0x11, 0x00, 0x00, 0x00, 0x36, 0xe7, 0xff, 0xff, 0x14, 0x00, 0x00, 0x00, 
  0x00, 0x00, 0x00, 0x0b, 0x10, 0x00, 0x00, 0x00, 0x14, 0x00, 0x00, 0x00, 
  0x0c, 0x00, 0x00, 0x00, 0x94, 0xda, 0xff, 0xff, 0x01, 0x00, 0x00, 0x00, 
  0x11, 0x00, 0x00, 0x00, 0x02, 0x00, 0x00, 0x00, 0x10, 0x00, 0x00, 0x00, 
  0x0a, 0x00, 0x00, 0x00, 0x66, 0xe7, 0xff, 0xff, 0x14, 0x00, 0x00, 0x00, 
  0x00, 0x00, 0x00, 0x0b, 0x10, 0x00, 0x00, 0x00, 0x14, 0x00, 0x00, 0x00, 
  0x0c, 0x00, 0x00, 0x00, 0xc4, 0xda, 0xff, 0xff, 0x01, 0x00, 0x00, 0x00, 
  0x10, 0x00, 0x00, 0x00, 0x02, 0x00, 0x00, 0x00, 0x0f, 0x00, 0x00, 0x00, 
  0x0c, 0x00, 0x00, 0x00, 0x96, 0xe7, 0xff, 0xff, 0x14, 0x00, 0x00, 0x00, 
  0x00, 0x00, 0x00, 0x08, 0x10, 0x00, 0x00, 0x00, 0x14, 0x00, 0x00, 0x00, 
  0x0a, 0x00, 0x00, 0x00, 0xf4, 0xda, 0xff, 0xff, 0x01, 0x00, 0x00, 0x00, 
  0x0f, 0x00, 0x00, 0x00, 0x03, 0x00, 0x00, 0x00, 0x0e, 0x00, 0x00, 0x00, 
  0x08, 0x00, 0x00, 0x00, 0xff, 0xff, 0xff, 0xff, 0xca, 0xe7, 0xff, 0xff, 
  0x14, 0x00, 0x00, 0x00, 0x00, 0x00, 0x00, 0x17, 0x10, 0x00, 0x00, 0x00, 
  0x14, 0x00, 0x00, 0x00, 0x10, 0x00, 0x00, 0x00, 0x28, 0xdb, 0xff, 0xff, 
  0x01, 0x00, 0x00, 0x00, 0x0e, 0x00, 0x00, 0x00, 0x02, 0x00, 0x00, 0x00, 
  0x05, 0x00, 0x00, 0x00, 0x01, 0x00, 0x00, 0x00, 0xfa, 0xe7, 0xff, 0xff, 
  0x14, 0x00, 0x00, 0x00, 0x00, 0x00, 0x00, 0x0b, 0x10, 0x00, 0x00, 0x00, 
  0x14, 0x00, 0x00, 0x00, 0x0c, 0x00, 0x00, 0x00, 0x58, 0xdb, 0xff, 0xff, 
  0x01, 0x00, 0x00, 0x00, 0x0d, 0x00, 0x00, 0x00, 0x02, 0x00, 0x00, 0x00, 
  0x00, 0x00, 0x00, 0x00, 0x07, 0x00, 0x00, 0x00, 0x2a, 0xe8, 0xff, 0xff, 
  0x14, 0x00, 0x00, 0x00, 0x00, 0x00, 0x00, 0x08, 0x10, 0x00, 0x00, 0x00, 
  0x14, 0x00, 0x00, 0x00, 0x0a, 0x00, 0x00, 0x00, 0x88, 0xdb, 0xff, 0xff, 
  0x01, 0x00, 0x00, 0x00, 0x0c, 0x00, 0x00, 0x00, 0x03, 0x00, 0x00, 0x00, 
  0x03, 0x00, 0x00, 0x00, 0x09, 0x00, 0x00, 0x00, 0xff, 0xff, 0xff, 0xff, 
  0x5e, 0xe8, 0xff, 0xff, 0x14, 0x00, 0x00, 0x00, 0x00, 0x00, 0x00, 0x0b, 
  0x10, 0x00, 0x00, 0x00, 0x14, 0x00, 0x00, 0x00, 0x0c, 0x00, 0x00, 0x00, 
  0xbc, 0xdb, 0xff, 0xff, 0x01, 0x00, 0x00, 0x00, 0x0b, 0x00, 0x00, 0x00, 
  0x02, 0x00, 0x00, 0x00, 0x01, 0x00, 0x00, 0x00, 0x07, 0x00, 0x00, 0x00, 
  0x06, 0x00, 0x00, 0x00, 0x0d, 0x00, 0x00, 0x00, 0x0b, 0x00, 0x00, 0x00, 
  0x1f, 0x00, 0x00, 0x00, 0x1e, 0x00, 0x00, 0x00, 0x1c, 0x00, 0x00, 0x00, 
  0x05, 0x00, 0x00, 0x00, 0x06, 0x00, 0x00, 0x00, 0x00, 0x00, 0x00, 0x00, 
  0x01, 0x00, 0x00, 0x00, 0x02, 0x00, 0x00, 0x00, 0x03, 0x00, 0x00, 0x00, 
  0x04, 0x00, 0x00, 0x00, 0x05, 0x00, 0x00, 0x00, 0x20, 0x00, 0x00, 0x00, 
  0x64, 0x0c, 0x00, 0x00, 0x14, 0x0c, 0x00, 0x00, 0xa0, 0x0b, 0x00, 0x00, 
  0x3c, 0x0b, 0x00, 0x00, 0xd8, 0x0a, 0x00, 0x00, 0x6c, 0x0a, 0x00, 0x00, 
  0x2c, 0x0a, 0x00, 0x00, 0xec, 0x09, 0x00, 0x00, 0xa8, 0x09, 0x00, 0x00, 
  0x64, 0x09, 0x00, 0x00, 0xfc, 0x08, 0x00, 0x00, 0xb0, 0x08, 0x00, 0x00, 
  0x40, 0x08, 0x00, 0x00, 0xf4, 0x07, 0x00, 0x00, 0x74, 0x07, 0x00, 0x00, 
  0x04, 0x07, 0x00, 0x00, 0x98, 0x06, 0x00, 0x00, 0x2c, 0x06, 0x00, 0x00, 
  0xc0, 0x05, 0x00, 0x00, 0x50, 0x05, 0x00, 0x00, 0xe0, 0x04, 0x00, 0x00, 
  0x70, 0x04, 0x00, 0x00, 0x00, 0x04, 0x00, 0x00, 0x90, 0x03, 0x00, 0x00, 
  0x24, 0x03, 0x00, 0x00, 0xb4, 0x02, 0x00, 0x00, 0x48, 0x02, 0x00, 0x00, 
  0xdc, 0x01, 0x00, 0x00, 0x70, 0x01, 0x00, 0x00, 0x00, 0x01, 0x00, 0x00, 
  0x94, 0x00, 0x00, 0x00, 0x04, 0x00, 0x00, 0x00, 0x38, 0xe2, 0xff, 0xff, 
  0x1c, 0x00, 0x00, 0x00, 0x00, 0x00, 0x00, 0x01, 0x34, 0x00, 0x00, 0x00, 
  0x34, 0x00, 0x00, 0x00, 0x51, 0x00, 0x00, 0x00, 0x00, 0x00, 0x00, 0x0e, 
  0x6c, 0x00, 0x00, 0x00, 0x01, 0x00, 0x00, 0x00, 0x04, 0x00, 0x00, 0x00, 
  0x1e, 0xe2, 0xff, 0xff, 0x00, 0x00, 0x00, 0x01, 0x04, 0x00, 0x00, 0x00, 
  0x02, 0x00, 0x00, 0x00, 0x00, 0x00, 0x00, 0x00, 0x10, 0x00, 0x00, 0x00, 
  0xd0, 0xdc, 0xff, 0xff, 0x3e, 0x00, 0x00, 0x00, 0x73, 0x65, 0x71, 0x75, 
  0x65, 0x6e, 0x74, 0x69, 0x61, 0x6c, 0x5f, 0x31, 0x2f, 0x6c, 0x73, 0x74, 
  0x6d, 0x5f, 0x31, 0x2f, 0x77, 0x68, 0x69, 0x6c, 0x65, 0x2f, 0x54, 0x65, 
  0x6e, 0x73, 0x6f, 0x72, 0x41, 0x72, 0x72, 0x61, 0x79, 0x56, 0x32, 0x57, 
  0x72, 0x69, 0x74, 0x65, 0x2f, 0x54, 0x65, 0x6e, 0x73, 0x6f, 0x72, 0x4c, 
  0x69, 0x73, 0x74, 0x53, 0x65, 0x74, 0x49, 0x74, 0x65, 0x6d, 0x00, 0x00, 
  0x00, 0x00, 0x00, 0x00, 0x5e, 0xdd, 0xff, 0xff, 0x00, 0x00, 0x00, 0x01, 
  0x14, 0x00, 0x00, 0x00, 0x1c, 0x00, 0x00, 0x00, 0x1c, 0x00, 0x00, 0x00, 
  0x50, 0x00, 0x00, 0x00, 0x44, 0x00, 0x00, 0x00, 0x02, 0x00, 0x00, 0x00, 
  0xff, 0xff, 0xff, 0xff, 0x10, 0x00, 0x00, 0x00, 0x44, 0xdd, 0xff, 0xff, 
  0x2b, 0x00, 0x00, 0x00, 0x73, 0x65, 0x71, 0x75, 0x65, 0x6e, 0x74, 0x69, 
  0x61, 0x6c, 0x5f, 0x31, 0x2f, 0x6c, 0x73, 0x74, 0x6d, 0x5f, 0x31, 0x2f, 
  0x77, 0x68, 0x69, 0x6c, 0x65, 0x2f, 0x6c, 0x73, 0x74, 0x6d, 0x5f, 0x63, 
  0x65, 0x6c, 0x6c, 0x5f, 0x31, 0x2f, 0x6d, 0x75, 0x6c, 0x5f, 0x32, 0x00, 
  0x02, 0x00, 0x00, 0x00, 0x01, 0x00, 0x00, 0x00, 0x10, 0x00, 0x00, 0x00, 
  0xc6, 0xdd, 0xff, 0xff, 0x00, 0x00, 0x00, 0x01, 0x14, 0x00, 0x00, 0x00, 
  0x1c, 0x00, 0x00, 0x00, 0x1c, 0x00, 0x00, 0x00, 0x4f, 0x00, 0x00, 0x00, 
  0x48, 0x00, 0x00, 0x00, 0x02, 0x00, 0x00, 0x00, 0xff, 0xff, 0xff, 0xff, 
  0x10, 0x00, 0x00, 0x00, 0xac, 0xdd, 0xff, 0xff, 0x2c, 0x00, 0x00, 0x00, 
  0x73, 0x65, 0x71, 0x75, 0x65, 0x6e, 0x74, 0x69, 0x61, 0x6c, 0x5f, 0x31, 
  0x2f, 0x6c, 0x73, 0x74, 0x6d, 0x5f, 0x31, 0x2f, 0x77, 0x68, 0x69, 0x6c, 
  0x65, 0x2f, 0x6c, 0x73, 0x74, 0x6d, 0x5f, 0x63, 0x65, 0x6c, 0x6c, 0x5f, 
  0x31, 0x2f, 0x54, 0x61, 0x6e, 0x68, 0x5f, 0x31, 0x00, 0x00, 0x00, 0x00, 
  0x02, 0x00, 0x00, 0x00, 0x01, 0x00, 0x00, 0x00, 0x10, 0x00, 0x00, 0x00, 
  0x32, 0xde, 0xff, 0xff, 0x00, 0x00, 0x00, 0x01, 0x14, 0x00, 0x00, 0x00, 
  0x1c, 0x00, 0x00, 0x00, 0x1c, 0x00, 0x00, 0x00, 0x4e, 0x00, 0x00, 0x00, 
  0x44, 0x00, 0x00, 0x00, 0x02, 0x00, 0x00, 0x00, 0xff, 0xff, 0xff, 0xff, 
  0x10, 0x00, 0x00, 0x00, 0x18, 0xde, 0xff, 0xff, 0x2b, 0x00, 0x00, 0x00, 
  0x73, 0x65, 0x71, 0x75, 0x65, 0x6e, 0x74, 0x69, 0x61, 0x6c, 0x5f, 0x31, 
  0x2f, 0x6c, 0x73, 0x74, 0x6d, 0x5f, 0x31, 0x2f, 0x77, 0x68, 0x69, 0x6c, 
  0x65, 0x2f, 0x6c, 0x73, 0x74, 0x6d, 0x5f, 0x63, 0x65, 0x6c, 0x6c, 0x5f, 
  0x31, 0x2f, 0x61, 0x64, 0x64, 0x5f, 0x32, 0x00, 0x02, 0x00, 0x00, 0x00, 
  0x01, 0x00, 0x00, 0x00, 0x10, 0x00, 0x00, 0x00, 0x9a, 0xde, 0xff, 0xff, 
  0x00, 0x00, 0x00, 0x01, 0x14, 0x00, 0x00, 0x00, 0x1c, 0x00, 0x00, 0x00, 
  0x1c, 0x00, 0x00, 0x00, 0x4d, 0x00, 0x00, 0x00, 0x44, 0x00, 0x00, 0x00, 
  0x02, 0x00, 0x00, 0x00, 0xff, 0xff, 0xff, 0xff, 0x10, 0x00, 0x00, 0x00, 
  0x80, 0xde, 0xff, 0xff, 0x2b, 0x00, 0x00, 0x00, 0x73, 0x65, 0x71, 0x75, 
  0x65, 0x6e, 0x74, 0x69, 0x61, 0x6c, 0x5f, 0x31, 0x2f, 0x6c, 0x73, 0x74, 
  0x6d, 0x5f, 0x31, 0x2f, 0x77, 0x68, 0x69, 0x6c, 0x65, 0x2f, 0x6c, 0x73, 
  0x74, 0x6d, 0x5f, 0x63, 0x65, 0x6c, 0x6c, 0x5f, 0x31, 0x2f, 0x6d, 0x75, 
  0x6c, 0x5f, 0x31, 0x00, 0x02, 0x00, 0x00, 0x00, 0x01, 0x00, 0x00, 0x00, 
  0x10, 0x00, 0x00, 0x00, 0x02, 0xdf, 0xff, 0xff, 0x00, 0x00, 0x00, 0x01, 
  0x14, 0x00, 0x00, 0x00, 0x1c, 0x00, 0x00, 0x00, 0x1c, 0x00, 0x00, 0x00, 
  0x4c, 0x00, 0x00, 0x00, 0x44, 0x00, 0x00, 0x00, 0x02, 0x00, 0x00, 0x00, 
  0xff, 0xff, 0xff, 0xff, 0x10, 0x00, 0x00, 0x00, 0xe8, 0xde, 0xff, 0xff, 
  0x2a, 0x00, 0x00, 0x00, 0x73, 0x65, 0x71, 0x75, 0x65, 0x6e, 0x74, 0x69, 
  0x61, 0x6c, 0x5f, 0x31, 0x2f, 0x6c, 0x73, 0x74, 0x6d, 0x5f, 0x31, 0x2f, 
  0x77, 0x68, 0x69, 0x6c, 0x65, 0x2f, 0x6c, 0x73, 0x74, 0x6d, 0x5f, 0x63, 
  0x65, 0x6c, 0x6c, 0x5f, 0x31, 0x2f, 0x54, 0x61, 0x6e, 0x68, 0x00, 0x00, 
  0x02, 0x00, 0x00, 0x00, 0x01, 0x00, 0x00, 0x00, 0x10, 0x00, 0x00, 0x00, 
  0x6a, 0xdf, 0xff, 0xff, 0x00, 0x00, 0x00, 0x01, 0x14, 0x00, 0x00, 0x00, 
  0x1c, 0x00, 0x00, 0x00, 0x1c, 0x00, 0x00, 0x00, 0x4b, 0x00, 0x00, 0x00, 
  0x48, 0x00, 0x00, 0x00, 0x02, 0x00, 0x00, 0x00, 0xff, 0xff, 0xff, 0xff, 
  0x10, 0x00, 0x00, 0x00, 0x50, 0xdf, 0xff, 0xff, 0x2f, 0x00, 0x00, 0x00, 
  0x73, 0x65, 0x71, 0x75, 0x65, 0x6e, 0x74, 0x69, 0x61, 0x6c, 0x5f, 0x31, 
  0x2f, 0x6c, 0x73, 0x74, 0x6d, 0x5f, 0x31, 0x2f, 0x77, 0x68, 0x69, 0x6c, 
  0x65, 0x2f, 0x6c, 0x73, 0x74, 0x6d, 0x5f, 0x63, 0x65, 0x6c, 0x6c, 0x5f, 
  0x31, 0x2f, 0x53, 0x69, 0x67, 0x6d, 0x6f, 0x69, 0x64, 0x5f, 0x32, 0x00, 
  0x02, 0x00, 0x00, 0x00, 0x01, 0x00, 0x00, 0x00, 0x10, 0x00, 0x00, 0x00, 
  0xd6, 0xdf, 0xff, 0xff, 0x00, 0x00, 0x00, 0x01, 0x14, 0x00, 0x00, 0x00, 
  0x1c, 0x00, 0x00, 0x00, 0x1c, 0x00, 0x00, 0x00, 0x4a, 0x00, 0x00, 0x00, 
  0x44, 0x00, 0x00, 0x00, 0x02, 0x00, 0x00, 0x00, 0xff, 0xff, 0xff, 0xff, 
  0x10, 0x00, 0x00, 0x00, 0xbc, 0xdf, 0xff, 0xff, 0x29, 0x00, 0x00, 0x00, 
  0x73, 0x65, 0x71, 0x75, 0x65, 0x6e, 0x74, 0x69, 0x61, 0x6c, 0x5f, 0x31, 
  0x2f, 0x6c, 0x73, 0x74, 0x6d, 0x5f, 0x31, 0x2f, 0x77, 0x68, 0x69, 0x6c, 
  0x65, 0x2f, 0x6c, 0x73, 0x74, 0x6d, 0x5f, 0x63, 0x65, 0x6c, 0x6c, 0x5f, 
  0x31, 0x2f, 0x6d, 0x75, 0x6c, 0x00, 0x00, 0x00, 0x02, 0x00, 0x00, 0x00, 
  0x01, 0x00, 0x00, 0x00, 0x10, 0x00, 0x00, 0x00, 0x3e, 0xe0, 0xff, 0xff, 
  0x00, 0x00, 0x00, 0x01, 0x14, 0x00, 0x00, 0x00, 0x1c, 0x00, 0x00, 0x00, 
  0x1c, 0x00, 0x00, 0x00, 0x49, 0x00, 0x00, 0x00, 0x48, 0x00, 0x00, 0x00, 
  0x02, 0x00, 0x00, 0x00, 0xff, 0xff, 0xff, 0xff, 0x10, 0x00, 0x00, 0x00, 
  0x24, 0xe0, 0xff, 0xff, 0x2f, 0x00, 0x00, 0x00, 0x73, 0x65, 0x71, 0x75, 
  0x65, 0x6e, 0x74, 0x69, 0x61, 0x6c, 0x5f, 0x31, 0x2f, 0x6c, 0x73, 0x74, 
  0x6d, 0x5f, 0x31, 0x2f, 0x77, 0x68, 0x69, 0x6c, 0x65, 0x2f, 0x6c, 0x73, 
  0x74, 0x6d, 0x5f, 0x63, 0x65, 0x6c, 0x6c, 0x5f, 0x31, 0x2f, 0x53, 0x69, 
  0x67, 0x6d, 0x6f, 0x69, 0x64, 0x5f, 0x31, 0x00, 0x02, 0x00, 0x00, 0x00, 
  0x01, 0x00, 0x00, 0x00, 0x10, 0x00, 0x00, 0x00, 0xaa, 0xe0, 0xff, 0xff, 
  0x00, 0x00, 0x00, 0x01, 0x14, 0x00, 0x00, 0x00, 0x1c, 0x00, 0x00, 0x00, 
  0x1c, 0x00, 0x00, 0x00, 0x48, 0x00, 0x00, 0x00, 0x48, 0x00, 0x00, 0x00, 
  0x02, 0x00, 0x00, 0x00, 0xff, 0xff, 0xff, 0xff, 0x10, 0x00, 0x00, 0x00, 
  0x90, 0xe0, 0xff, 0xff, 0x2d, 0x00, 0x00, 0x00, 0x73, 0x65, 0x71, 0x75, 
  0x65, 0x6e, 0x74, 0x69, 0x61, 0x6c, 0x5f, 0x31, 0x2f, 0x6c, 0x73, 0x74, 
  0x6d, 0x5f, 0x31, 0x2f, 0x77, 0x68, 0x69, 0x6c, 0x65, 0x2f, 0x6c, 0x73, 
  0x74, 0x6d, 0x5f, 0x63, 0x65, 0x6c, 0x6c, 0x5f, 0x31, 0x2f, 0x53, 0x69, 
  0x67, 0x6d, 0x6f, 0x69, 0x64, 0x00, 0x00, 0x00, 0x02, 0x00, 0x00, 0x00, 
  0x01, 0x00, 0x00, 0x00, 0x10, 0x00, 0x00, 0x00, 0x16, 0xe1, 0xff, 0xff, 
  0x00, 0x00, 0x00, 0x01, 0x14, 0x00, 0x00, 0x00, 0x1c, 0x00, 0x00, 0x00, 
  0x1c, 0x00, 0x00, 0x00, 0x47, 0x00, 0x00, 0x00, 0x48, 0x00, 0x00, 0x00, 
  0x02, 0x00, 0x00, 0x00, 0xff, 0xff, 0xff, 0xff, 0x10, 0x00, 0x00, 0x00, 
  0xfc, 0xe0, 0xff, 0xff, 0x2c, 0x00, 0x00, 0x00, 0x73, 0x65, 0x71, 0x75, 
  0x65, 0x6e, 0x74, 0x69, 0x61, 0x6c, 0x5f, 0x31, 0x2f, 0x6c, 0x73, 0x74, 
  0x6d, 0x5f, 0x31, 0x2f, 0x77, 0x68, 0x69, 0x6c, 0x65, 0x2f, 0x6c, 0x73, 
  0x74, 0x6d, 0x5f, 0x63, 0x65, 0x6c, 0x6c, 0x5f, 0x31, 0x2f, 0x73, 0x70, 
  0x6c, 0x69, 0x74, 0x33, 0x00, 0x00, 0x00, 0x00, 0x02, 0x00, 0x00, 0x00, 
  0x01, 0x00, 0x00, 0x00, 0x10, 0x00, 0x00, 0x00, 0x82, 0xe1, 0xff, 0xff, 
  0x00, 0x00, 0x00, 0x01, 0x14, 0x00, 0x00, 0x00, 0x1c, 0x00, 0x00, 0x00, 
  0x1c, 0x00, 0x00, 0x00, 0x46, 0x00, 0x00, 0x00, 0x48, 0x00, 0x00, 0x00, 
  0x02, 0x00, 0x00, 0x00, 0xff, 0xff, 0xff, 0xff, 0x10, 0x00, 0x00, 0x00, 
  0x68, 0xe1, 0xff, 0xff, 0x2c, 0x00, 0x00, 0x00, 0x73, 0x65, 0x71, 0x75, 
  0x65, 0x6e, 0x74, 0x69, 0x61, 0x6c, 0x5f, 0x31, 0x2f, 0x6c, 0x73, 0x74, 
  0x6d, 0x5f, 0x31, 0x2f, 0x77, 0x68, 0x69, 0x6c, 0x65, 0x2f, 0x6c, 0x73, 
  0x74, 0x6d, 0x5f, 0x63, 0x65, 0x6c, 0x6c, 0x5f, 0x31, 0x2f, 0x73, 0x70, 
  0x6c, 0x69, 0x74, 0x32, 0x00, 0x00, 0x00, 0x00, 0x02, 0x00, 0x00, 0x00, 
  0x01, 0x00, 0x00, 0x00, 0x10, 0x00, 0x00, 0x00, 0xee, 0xe1, 0xff, 0xff, 
  0x00, 0x00, 0x00, 0x01, 0x14, 0x00, 0x00, 0x00, 0x1c, 0x00, 0x00, 0x00, 
  0x1c, 0x00, 0x00, 0x00, 0x45, 0x00, 0x00, 0x00, 0x48, 0x00, 0x00, 0x00, 
  0x02, 0x00, 0x00, 0x00, 0xff, 0xff, 0xff, 0xff, 0x10, 0x00, 0x00, 0x00, 
  0xd4, 0xe1, 0xff, 0xff, 0x2c, 0x00, 0x00, 0x00, 0x73, 0x65, 0x71, 0x75, 
  0x65, 0x6e, 0x74, 0x69, 0x61, 0x6c, 0x5f, 0x31, 0x2f, 0x6c, 0x73, 0x74, 
  0x6d, 0x5f, 0x31, 0x2f, 0x77, 0x68, 0x69, 0x6c, 0x65, 0x2f, 0x6c, 0x73, 
  0x74, 0x6d, 0x5f, 0x63, 0x65, 0x6c, 0x6c, 0x5f, 0x31, 0x2f, 0x73, 0x70, 
  0x6c, 0x69, 0x74, 0x31, 0x00, 0x00, 0x00, 0x00, 0x02, 0x00, 0x00, 0x00, 
  0x01, 0x00, 0x00, 0x00, 0x10, 0x00, 0x00, 0x00, 0x5a, 0xe2, 0xff, 0xff, 
  0x00, 0x00, 0x00, 0x01, 0x14, 0x00, 0x00, 0x00, 0x1c, 0x00, 0x00, 0x00, 
  0x1c, 0x00, 0x00, 0x00, 0x44, 0x00, 0x00, 0x00, 0x44, 0x00, 0x00, 0x00, 
  0x02, 0x00, 0x00, 0x00, 0xff, 0xff, 0xff, 0xff, 0x10, 0x00, 0x00, 0x00, 
  0x40, 0xe2, 0xff, 0xff, 0x2b, 0x00, 0x00, 0x00, 0x73, 0x65, 0x71, 0x75, 
  0x65, 0x6e, 0x74, 0x69, 0x61, 0x6c, 0x5f, 0x31, 0x2f, 0x6c, 0x73, 0x74, 
  0x6d, 0x5f, 0x31, 0x2f, 0x77, 0x68, 0x69, 0x6c, 0x65, 0x2f, 0x6c, 0x73, 
  0x74, 0x6d, 0x5f, 0x63, 0x65, 0x6c, 0x6c, 0x5f, 0x31, 0x2f, 0x73, 0x70, 
  0x6c, 0x69, 0x74, 0x00, 0x02, 0x00, 0x00, 0x00, 0x01, 0x00, 0x00, 0x00, 
  0x10, 0x00, 0x00, 0x00, 0xc2, 0xe2, 0xff, 0xff, 0x00, 0x00, 0x00, 0x01, 
  0x14, 0x00, 0x00, 0x00, 0x1c, 0x00, 0x00, 0x00, 0x1c, 0x00, 0x00, 0x00, 
  0x43, 0x00, 0x00, 0x00, 0x44, 0x00, 0x00, 0x00, 0x02, 0x00, 0x00, 0x00, 
  0xff, 0xff, 0xff, 0xff, 0x40, 0x00, 0x00, 0x00, 0xa8, 0xe2, 0xff, 0xff, 
  0x2b, 0x00, 0x00, 0x00, 0x73, 0x65, 0x71, 0x75, 0x65, 0x6e, 0x74, 0x69, 
  0x61, 0x6c, 0x5f, 0x31, 0x2f, 0x6c, 0x73, 0x74, 0x6d, 0x5f, 0x31, 0x2f, 
  0x77, 0x68, 0x69, 0x6c, 0x65, 0x2f, 0x6c, 0x73, 0x74, 0x6d, 0x5f, 0x63, 
  0x65, 0x6c, 0x6c, 0x5f, 0x31, 0x2f, 0x61, 0x64, 0x64, 0x5f, 0x31, 0x00, 
  0x02, 0x00, 0x00, 0x00, 0x01, 0x00, 0x00, 0x00, 0x40, 0x00, 0x00, 0x00, 
  0x2a, 0xe3, 0xff, 0xff, 0x00, 0x00, 0x00, 0x01, 0x14, 0x00, 0x00, 0x00, 
  0x1c, 0x00, 0x00, 0x00, 0x1c, 0x00, 0x00, 0x00, 0x42, 0x00, 0x00, 0x00, 
  0x44, 0x00, 0x00, 0x00, 0x02, 0x00, 0x00, 0x00, 0xff, 0xff, 0xff, 0xff, 
  0x40, 0x00, 0x00, 0x00, 0x10, 0xe3, 0xff, 0xff, 0x29, 0x00, 0x00, 0x00, 
  0x73, 0x65, 0x71, 0x75, 0x65, 0x6e, 0x74, 0x69, 0x61, 0x6c, 0x5f, 0x31, 
  0x2f, 0x6c, 0x73, 0x74, 0x6d, 0x5f, 0x31, 0x2f, 0x77, 0x68, 0x69, 0x6c, 
  0x65, 0x2f, 0x6c, 0x73, 0x74, 0x6d, 0x5f, 0x63, 0x65, 0x6c, 0x6c, 0x5f, 
  0x31, 0x2f, 0x61, 0x64, 0x64, 0x00, 0x00, 0x00, 0x02, 0x00, 0x00, 0x00, 
  0x01, 0x00, 0x00, 0x00, 0x40, 0x00, 0x00, 0x00, 0x92, 0xe3, 0xff, 0xff, 
  0x00, 0x00, 0x00, 0x01, 0x14, 0x00, 0x00, 0x00, 0x1c, 0x00, 0x00, 0x00, 
  0x1c, 0x00, 0x00, 0x00, 0x41, 0x00, 0x00, 0x00, 0x48, 0x00, 0x00, 0x00, 
  0x02, 0x00, 0x00, 0x00, 0xff, 0xff, 0xff, 0xff, 0x40, 0x00, 0x00, 0x00, 
  0x78, 0xe3, 0xff, 0xff, 0x2c, 0x00, 0x00, 0x00, 0x73, 0x65, 0x71, 0x75, 
  0x65, 0x6e, 0x74, 0x69, 0x61, 0x6c, 0x5f, 0x31, 0x2f, 0x6c, 0x73, 0x74, 
  0x6d, 0x5f, 0x31, 0x2f, 0x77, 0x68, 0x69, 0x6c, 0x65, 0x2f, 0x6c, 0x73, 
  0x74, 0x6d, 0x5f, 0x63, 0x65, 0x6c, 0x6c, 0x5f, 0x31, 0x2f, 0x4d, 0x61, 
  0x74, 0x4d, 0x75, 0x6c, 0x00, 0x00, 0x00, 0x00, 0x02, 0x00, 0x00, 0x00, 
  0x01, 0x00, 0x00, 0x00, 0x40, 0x00, 0x00, 0x00, 0xfe, 0xe3, 0xff, 0xff, 
  0x00, 0x00, 0x00, 0x01, 0x14, 0x00, 0x00, 0x00, 0x1c, 0x00, 0x00, 0x00, 
  0x1c, 0x00, 0x00, 0x00, 0x40, 0x00, 0x00, 0x00, 0x58, 0x00, 0x00, 0x00, 
  0x02, 0x00, 0x00, 0x00, 0xff, 0xff, 0xff, 0xff, 0x01, 0x00, 0x00, 0x00, 
  0xe4, 0xe3, 0xff, 0xff, 0x3d, 0x00, 0x00, 0x00, 0x73, 0x65, 0x71, 0x75, 
  0x65, 0x6e, 0x74, 0x69, 0x61, 0x6c, 0x5f, 0x31, 0x2f, 0x6c, 0x73, 0x74, 
  0x6d, 0x5f, 0x31, 0x2f, 0x77, 0x68, 0x69, 0x6c, 0x65, 0x2f, 0x54, 0x65, 
  0x6e, 0x73, 0x6f, 0x72, 0x41, 0x72, 0x72, 0x61, 0x79, 0x56, 0x32, 0x52, 
  0x65, 0x61, 0x64, 0x2f, 0x54, 0x65, 0x6e, 0x73, 0x6f, 0x72, 0x4c, 0x69, 
  0x73, 0x74, 0x47, 0x65, 0x74, 0x49, 0x74, 0x65, 0x6d, 0x00, 0x00, 0x00, 
  0x02, 0x00, 0x00, 0x00, 0x01, 0x00, 0x00, 0x00, 0x01, 0x00, 0x00, 0x00, 
  0x56, 0xe5, 0xff, 0xff, 0x00, 0x00, 0x00, 0x01, 0x14, 0x00, 0x00, 0x00, 
  0x14, 0x00, 0x00, 0x00, 0x3f, 0x00, 0x00, 0x00, 0x00, 0x00, 0x00, 0x02, 
  0x2c, 0x00, 0x00, 0x00, 0x54, 0xe4, 0xff, 0xff, 0x1f, 0x00, 0x00, 0x00, 
  0x73, 0x65, 0x71, 0x75, 0x65, 0x6e, 0x74, 0x69, 0x61, 0x6c, 0x5f, 0x31, 
  0x2f, 0x6c, 0x73, 0x74, 0x6d, 0x5f, 0x31, 0x2f, 0x77, 0x68, 0x69, 0x6c, 
  0x65, 0x2f, 0x61, 0x64, 0x64, 0x5f, 0x31, 0x00, 0x00, 0x00, 0x00, 0x00, 
  0xc2, 0xe4, 0xff, 0xff, 0x00, 0x00, 0x00, 0x01, 0x14, 0x00, 0x00, 0x00, 
  0x1c, 0x00, 0x00, 0x00, 0x1c, 0x00, 0x00, 0x00, 0x3e, 0x00, 0x00, 0x00, 
  0x48, 0x00, 0x00, 0x00, 0x02, 0x00, 0x00, 0x00, 0xff, 0xff, 0xff, 0xff, 
  0x40, 0x00, 0x00, 0x00, 0xa8, 0xe4, 0xff, 0xff, 0x2e, 0x00, 0x00, 0x00, 
  0x73, 0x65, 0x71, 0x75, 0x65, 0x6e, 0x74, 0x69, 0x61, 0x6c, 0x5f, 0x31, 
  0x2f, 0x6c, 0x73, 0x74, 0x6d, 0x5f, 0x31, 0x2f, 0x77, 0x68, 0x69, 0x6c, 
  0x65, 0x2f, 0x6c, 0x73, 0x74, 0x6d, 0x5f, 0x63, 0x65, 0x6c, 0x6c, 0x5f, 
  0x31, 0x2f, 0x4d, 0x61, 0x74, 0x4d, 0x75, 0x6c, 0x5f, 0x31, 0x00, 0x00, 
  0x02, 0x00, 0x00, 0x00, 0x01, 0x00, 0x00, 0x00, 0x40, 0x00, 0x00, 0x00, 
  0x0a, 0xe6, 0xff, 0xff, 0x00, 0x00, 0x00, 0x01, 0x14, 0x00, 0x00, 0x00, 
  0x14, 0x00, 0x00, 0x00, 0x3d, 0x00, 0x00, 0x00, 0x00, 0x00, 0x00, 0x02, 
  0x2c, 0x00, 0x00, 0x00, 0x08, 0xe5, 0xff, 0xff, 0x1d, 0x00, 0x00, 0x00, 
  0x73, 0x65, 0x71, 0x75, 0x65, 0x6e, 0x74, 0x69, 0x61, 0x6c, 0x5f, 0x31, 
  0x2f, 0x6c, 0x73, 0x74, 0x6d, 0x5f, 0x31, 0x2f, 0x77, 0x68, 0x69, 0x6c, 
  0x65, 0x2f, 0x61, 0x64, 0x64, 0x00, 0x00, 0x00, 0x00, 0x00, 0x00, 0x00, 
  0xc6, 0xe5, 0xff, 0xff, 0x00, 0x00, 0x00, 0x01, 0x10, 0x00, 0x00, 0x00, 
  0x10, 0x00, 0x00, 0x00, 0x3c, 0x00, 0x00, 0x00, 0x48, 0x00, 0x00, 0x00, 
  0x4c, 0xe5, 0xff, 0xff, 0x3a, 0x00, 0x00, 0x00, 0x73, 0x65, 0x71, 0x75, 
  0x65, 0x6e, 0x74, 0x69, 0x61, 0x6c, 0x5f, 0x31, 0x2f, 0x6c, 0x73, 0x74, 
  0x6d, 0x5f, 0x31, 0x2f, 0x77, 0x68, 0x69, 0x6c, 0x65, 0x2f, 0x6c, 0x73, 
  0x74, 0x6d, 0x5f, 0x63, 0x65, 0x6c, 0x6c, 0x5f, 0x31, 0x2f, 0x61, 0x64, 
  0x64, 0x5f, 0x31, 0x2f, 0x52, 0x65, 0x61, 0x64, 0x56, 0x61, 0x72, 0x69, 
  0x61, 0x62, 0x6c, 0x65, 0x4f, 0x70, 0x00, 0x00, 0x01, 0x00, 0x00, 0x00, 
  0x40, 0x00, 0x00, 0x00, 0x2a, 0xe6, 0xff, 0xff, 0x00, 0x00, 0x00, 0x01, 
  0x10, 0x00, 0x00, 0x00, 0x10, 0x00, 0x00, 0x00, 0x3b, 0x00, 0x00, 0x00, 
  0x20, 0x00, 0x00, 0x00, 0xb0, 0xe5, 0xff, 0xff, 0x10, 0x00, 0x00, 0x00, 
  0x61, 0x72, 0x69, 0x74, 0x68, 0x2e, 0x63, 0x6f, 0x6e, 0x73, 0x74, 0x61, 
  0x6e, 0x74, 0x32, 0x30, 0x00, 0x00, 0x00, 0x00, 0x02, 0x00, 0x00, 0x00, 
  0x40, 0x00, 0x00, 0x00, 0x10, 0x00, 0x00, 0x00, 0x6a, 0xe6, 0xff, 0xff, 
  0x00, 0x00, 0x00, 0x01, 0x10, 0x00, 0x00, 0x00, 0x10, 0x00, 0x00, 0x00, 
  0x3a, 0x00, 0x00, 0x00, 0x20, 0x00, 0x00, 0x00, 0xf0, 0xe5, 0xff, 0xff, 
  0x10, 0x00, 0x00, 0x00, 0x61, 0x72, 0x69, 0x74, 0x68, 0x2e, 0x63, 0x6f, 
  0x6e, 0x73, 0x74, 0x61, 0x6e, 0x74, 0x31, 0x39, 0x00, 0x00, 0x00, 0x00, 
  0x02, 0x00, 0x00, 0x00, 0x40, 0x00, 0x00, 0x00, 0x01, 0x00, 0x00, 0x00, 
  0x36, 0xe7, 0xff, 0xff, 0x00, 0x00, 0x00, 0x01, 0x14, 0x00, 0x00, 0x00, 
  0x14, 0x00, 0x00, 0x00, 0x0c, 0x00, 0x00, 0x00, 0x00, 0x00, 0x00, 0x02, 
  0x20, 0x00, 0x00, 0x00, 0x34, 0xe6, 0xff, 0xff, 0x10, 0x00, 0x00, 0x00, 
  0x61, 0x72, 0x69, 0x74, 0x68, 0x2e, 0x63, 0x6f, 0x6e, 0x73, 0x74, 0x61, 
  0x6e, 0x74, 0x31, 0x38, 0x00, 0x00, 0x00, 0x00, 0x00, 0x00, 0x00, 0x00, 
  0x72, 0xe7, 0xff, 0xff, 0x00, 0x00, 0x00, 0x01, 0x14, 0x00, 0x00, 0x00, 
  0x14, 0x00, 0x00, 0x00, 0x0a, 0x00, 0x00, 0x00, 0x00, 0x00, 0x00, 0x02, 
  0x20, 0x00, 0x00, 0x00, 0x70, 0xe6, 0xff, 0xff, 0x10, 0x00, 0x00, 0x00, 
  0x61, 0x72, 0x69, 0x74, 0x68, 0x2e, 0x63, 0x6f, 0x6e, 0x73, 0x74, 0x61, 
  0x6e, 0x74, 0x31, 0x37, 0x00, 0x00, 0x00, 0x00, 0x00, 0x00, 0x00, 0x00, 
  0xd2, 0xe6, 0xff, 0xff, 0x00, 0x00, 0x00, 0x01, 0x14, 0x00, 0x00, 0x00, 
  0x20, 0x00, 0x00, 0x00, 0x20, 0x00, 0x00, 0x00, 0x37, 0x00, 0x00, 0x00, 
  0x40, 0x00, 0x00, 0x00, 0x03, 0x00, 0x00, 0x00, 0x3c, 0x00, 0x00, 0x00, 
  0xff, 0xff, 0xff, 0xff, 0x01, 0x00, 0x00, 0x00, 0xbc, 0xe6, 0xff, 0xff, 
  0x23, 0x00, 0x00, 0x00, 0x73, 0x65, 0x71, 0x75, 0x65, 0x6e, 0x74, 0x69, 
  0x61, 0x6c, 0x5f, 0x31, 0x2f, 0x6c, 0x73, 0x74, 0x6d, 0x5f, 0x31, 0x2f, 
  0x77, 0x68, 0x69, 0x6c, 0x65, 0x5f, 0x62, 0x6f, 0x64, 0x79, 0x5f, 0x61, 
  0x72, 0x67, 0x35, 0x00, 0x03, 0x00, 0x00, 0x00, 0x3c, 0x00, 0x00, 0x00, 
  0x01, 0x00, 0x00, 0x00, 0x01, 0x00, 0x00, 0x00, 0x3a, 0xe7, 0xff, 0xff, 
  0x00, 0x00, 0x00, 0x01, 0x14, 0x00, 0x00, 0x00, 0x1c, 0x00, 0x00, 0x00, 
  0x1c, 0x00, 0x00, 0x00, 0x36, 0x00, 0x00, 0x00, 0x3c, 0x00, 0x00, 0x00, 
  0x02, 0x00, 0x00, 0x00, 0xff, 0xff, 0xff, 0xff, 0x10, 0x00, 0x00, 0x00, 
  0x20, 0xe7, 0xff, 0xff, 0x23, 0x00, 0x00, 0x00, 0x73, 0x65, 0x71, 0x75, 
  0x65, 0x6e, 0x74, 0x69, 0x61, 0x6c, 0x5f, 0x31, 0x2f, 0x6c, 0x73, 0x74, 
  0x6d, 0x5f, 0x31, 0x2f, 0x77, 0x68, 0x69, 0x6c, 0x65, 0x5f, 0x62, 0x6f, 
  0x64, 0x79, 0x5f, 0x61, 0x72, 0x67, 0x34, 0x00, 0x02, 0x00, 0x00, 0x00, 
  0x01, 0x00, 0x00, 0x00, 0x10, 0x00, 0x00, 0x00, 0x9a, 0xe7, 0xff, 0xff, 
  0x00, 0x00, 0x00, 0x01, 0x14, 0x00, 0x00, 0x00, 0x1c, 0x00, 0x00, 0x00, 
  0x1c, 0x00, 0x00, 0x00, 0x35, 0x00, 0x00, 0x00, 0x3c, 0x00, 0x00, 0x00, 
  0x02, 0x00, 0x00, 0x00, 0xff, 0xff, 0xff, 0xff, 0x10, 0x00, 0x00, 0x00, 
  0x80, 0xe7, 0xff, 0xff, 0x23, 0x00, 0x00, 0x00, 0x73, 0x65, 0x71, 0x75, 
  0x65, 0x6e, 0x74, 0x69, 0x61, 0x6c, 0x5f, 0x31, 0x2f, 0x6c, 0x73, 0x74, 
  0x6d, 0x5f, 0x31, 0x2f, 0x77, 0x68, 0x69, 0x6c, 0x65, 0x5f, 0x62, 0x6f, 
  0x64, 0x79, 0x5f, 0x61, 0x72, 0x67, 0x33, 0x00, 0x02, 0x00, 0x00, 0x00, 
  0x01, 0x00, 0x00, 0x00, 0x10, 0x00, 0x00, 0x00, 0x60, 0xed, 0xff, 0xff, 
  0x1c, 0x00, 0x00, 0x00, 0x00, 0x00, 0x00, 0x01, 0x34, 0x00, 0x00, 0x00, 
  0x34, 0x00, 0x00, 0x00, 0x34, 0x00, 0x00, 0x00, 0x00, 0x00, 0x00, 0x0e, 
  0x50, 0x00, 0x00, 0x00, 0x01, 0x00, 0x00, 0x00, 0x04, 0x00, 0x00, 0x00, 
  0x46, 0xed, 0xff, 0xff, 0x00, 0x00, 0x00, 0x01, 0x04, 0x00, 0x00, 0x00, 
  0x02, 0x00, 0x00, 0x00, 0x00, 0x00, 0x00, 0x00, 0x10, 0x00, 0x00, 0x00, 
  0xf8, 0xe7, 0xff, 0xff, 0x23, 0x00, 0x00, 0x00, 0x73, 0x65, 0x71, 0x75, 
  0x65, 0x6e, 0x74, 0x69, 0x61, 0x6c, 0x5f, 0x31, 0x2f, 0x6c, 0x73, 0x74, 
  0x6d, 0x5f, 0x31, 0x2f, 0x77, 0x68, 0x69, 0x6c, 0x65, 0x5f, 0x62, 0x6f, 
  0x64, 0x79, 0x5f, 0x61, 0x72, 0x67, 0x32, 0x00, 0x00, 0x00, 0x00, 0x00, 
  0x46, 0xe9, 0xff, 0xff, 0x00, 0x00, 0x00, 0x01, 0x14, 0x00, 0x00, 0x00, 
  0x14, 0x00, 0x00, 0x00, 0x33, 0x00, 0x00, 0x00, 0x00, 0x00, 0x00, 0x02, 
  0x30, 0x00, 0x00, 0x00, 0x44, 0xe8, 0xff, 0xff, 0x23, 0x00, 0x00, 0x00, 
  0x73, 0x65, 0x71, 0x75, 0x65, 0x6e, 0x74, 0x69, 0x61, 0x6c, 0x5f, 0x31, 
  0x2f, 0x6c, 0x73, 0x74, 0x6d, 0x5f, 0x31, 0x2f, 0x77, 0x68, 0x69, 0x6c, 
  0x65, 0x5f, 0x62, 0x6f, 0x64, 0x79, 0x5f, 0x61, 0x72, 0x67, 0x31, 0x00, 
  0x00, 0x00, 0x00, 0x00, 0x92, 0xe9, 0xff, 0xff, 0x00, 0x00, 0x00, 0x01, 
  0x14, 0x00, 0x00, 0x00, 0x14, 0x00, 0x00, 0x00, 0x32, 0x00, 0x00, 0x00, 
  0x00, 0x00, 0x00, 0x02, 0x30, 0x00, 0x00, 0x00, 0x90, 0xe8, 0xff, 0xff, 
  0x23, 0x00, 0x00, 0x00, 0x73, 0x65, 0x71, 0x75, 0x65, 0x6e, 0x74, 0x69, 
  0x61, 0x6c, 0x5f, 0x31, 0x2f, 0x6c, 0x73, 0x74, 0x6d, 0x5f, 0x31, 0x2f, 
  0x77, 0x68, 0x69, 0x6c, 0x65, 0x5f, 0x62, 0x6f, 0x64, 0x79, 0x5f, 0x61, 
  0x72, 0x67, 0x30, 0x00, 0x00, 0x00, 0x00, 0x00, 0x3e, 0xfa, 0xff, 0xff, 
  0x14, 0x00, 0x00, 0x00, 0x34, 0x00, 0x00, 0x00, 0xac, 0x00, 0x00, 0x00, 
  0xb0, 0x00, 0x00, 0x00, 0xc8, 0x00, 0x00, 0x00, 0x1e, 0x00, 0x00, 0x00, 
  0x73, 0x65, 0x71, 0x75, 0x65, 0x6e, 0x74, 0x69, 0x61, 0x6c, 0x5f, 0x31, 
  0x2f, 0x6c, 0x73, 0x74, 0x6d, 0x5f, 0x31, 0x2f, 0x77, 0x68, 0x69, 0x6c, 
  0x65, 0x5f, 0x63, 0x6f, 0x6e, 0x64, 0x00, 0x00, 0x03, 0x00, 0x00, 0x00, 
  0x54, 0x00, 0x00, 0x00, 0x2c, 0x00, 0x00, 0x00, 0x04, 0x00, 0x00, 0x00, 
  0x52, 0xf7, 0xff, 0xff, 0x0c, 0x00, 0x00, 0x00, 0x10, 0x00, 0x00, 0x00, 
  0x0f, 0x00, 0x00, 0x00, 0x01, 0x00, 0x00, 0x00, 0x09, 0x00, 0x00, 0x00, 
  0x02, 0x00, 0x00, 0x00, 0x08, 0x00, 0x00, 0x00, 0x07, 0x00, 0x00, 0x00, 
  0x76, 0xf7, 0xff, 0xff, 0x0c, 0x00, 0x00, 0x00, 0x10, 0x00, 0x00, 0x00, 
  0x0e, 0x00, 0x00, 0x00, 0x01, 0x00, 0x00, 0x00, 0x08, 0x00, 0x00, 0x00, 
  0x02, 0x00, 0x00, 0x00, 0x00, 0x00, 0x00, 0x00, 0x06, 0x00, 0x00, 0x00, 
  0x9a, 0xf7, 0xff, 0xff, 0x0c, 0x00, 0x00, 0x00, 0x10, 0x00, 0x00, 0x00, 
  0x0e, 0x00, 0x00, 0x00, 0x01, 0x00, 0x00, 0x00, 0x07, 0x00, 0x00, 0x00, 
  0x02, 0x00, 0x00, 0x00, 0x01, 0x00, 0x00, 0x00, 0x06, 0x00, 0x00, 0x00, 
  0x01, 0x00, 0x00, 0x00, 0x09, 0x00, 0x00, 0x00, 0x06, 0x00, 0x00, 0x00, 
  0x00, 0x00, 0x00, 0x00, 0x01, 0x00, 0x00, 0x00, 0x02, 0x00, 0x00, 0x00, 
  0x03, 0x00, 0x00, 0x00, 0x04, 0x00, 0x00, 0x00, 0x05, 0x00, 0x00, 0x00, 
  0x0a, 0x00, 0x00, 0x00, 0x3c, 0x03, 0x00, 0x00, 0xec, 0x02, 0x00, 0x00, 
  0x78, 0x02, 0x00, 0x00, 0x14, 0x02, 0x00, 0x00, 0xb0, 0x01, 0x00, 0x00, 
  0x44, 0x01, 0x00, 0x00, 0xf4, 0x00, 0x00, 0x00, 0xa8, 0x00, 0x00, 0x00, 
  0x58, 0x00, 0x00, 0x00, 0x04, 0x00, 0x00, 0x00, 0xe6, 0xea, 0xff, 0xff, 
  0x00, 0x00, 0x00, 0x01, 0x14, 0x00, 0x00, 0x00, 0x14, 0x00, 0x00, 0x00, 
  0x31, 0x00, 0x00, 0x00, 0x00, 0x00, 0x00, 0x06, 0x34, 0x00, 0x00, 0x00, 
  0xe4, 0xe9, 0xff, 0xff, 0x24, 0x00, 0x00, 0x00, 0x73, 0x65, 0x71, 0x75, 
  0x65, 0x6e, 0x74, 0x69, 0x61, 0x6c, 0x5f, 0x31, 0x2f, 0x6c, 0x73, 0x74, 
  0x6d, 0x5f, 0x31, 0x2f, 0x77, 0x68, 0x69, 0x6c, 0x65, 0x2f, 0x4c, 0x6f, 
  0x67, 0x69, 0x63, 0x61, 0x6c, 0x41, 0x6e, 0x64, 0x00, 0x00, 0x00, 0x00, 
  0x00, 0x00, 0x00, 0x00, 0x36, 0xeb, 0xff, 0xff, 0x00, 0x00, 0x00, 0x01, 
  0x14, 0x00, 0x00, 0x00, 0x14, 0x00, 0x00, 0x00, 0x30, 0x00, 0x00, 0x00, 
  0x00, 0x00, 0x00, 0x06, 0x30, 0x00, 0x00, 0x00, 0x34, 0xea, 0xff, 0xff, 
  0x20, 0x00, 0x00, 0x00, 0x73, 0x65, 0x71, 0x75, 0x65, 0x6e, 0x74, 0x69, 
  0x61, 0x6c, 0x5f, 0x31, 0x2f, 0x6c, 0x73, 0x74, 0x6d, 0x5f, 0x31, 0x2f, 
  0x77, 0x68, 0x69, 0x6c, 0x65, 0x2f, 0x4c, 0x65, 0x73, 0x73, 0x5f, 0x31, 
  0x00, 0x00, 0x00, 0x00, 0x00, 0x00, 0x00, 0x00, 0x82, 0xeb, 0xff, 0xff, 
  0x00, 0x00, 0x00, 0x01, 0x14, 0x00, 0x00, 0x00, 0x14, 0x00, 0x00, 0x00, 
  0x2f, 0x00, 0x00, 0x00, 0x00, 0x00, 0x00, 0x06, 0x2c, 0x00, 0x00, 0x00, 
  0x80, 0xea, 0xff, 0xff, 0x1e, 0x00, 0x00, 0x00, 0x73, 0x65, 0x71, 0x75, 
  0x65, 0x6e, 0x74, 0x69, 0x61, 0x6c, 0x5f, 0x31, 0x2f, 0x6c, 0x73, 0x74, 
  0x6d, 0x5f, 0x31, 0x2f, 0x77, 0x68, 0x69, 0x6c, 0x65, 0x2f, 0x4c, 0x65, 
  0x73, 0x73, 0x00, 0x00, 0x00, 0x00, 0x00, 0x00, 0xca, 0xeb, 0xff, 0xff, 
  0x00, 0x00, 0x00, 0x01, 0x14, 0x00, 0x00, 0x00, 0x14, 0x00, 0x00, 0x00, 
  0x12, 0x00, 0x00, 0x00, 0x00, 0x00, 0x00, 0x02, 0x30, 0x00, 0x00, 0x00, 
  0xc8, 0xea, 0xff, 0xff, 0x21, 0x00, 0x00, 0x00, 0x73, 0x65, 0x71, 0x75, 
  0x65, 0x6e, 0x74, 0x69, 0x61, 0x6c, 0x5f, 0x31, 0x2f, 0x6c, 0x73, 0x74, 
  0x6d, 0x5f, 0x31, 0x2f, 0x77, 0x68, 0x69, 0x6c, 0x65, 0x2f, 0x4c, 0x65, 
  0x73, 0x73, 0x2f, 0x79, 0x31, 0x00, 0x00, 0x00, 0x00, 0x00, 0x00, 0x00, 
  0x3a, 0xeb, 0xff, 0xff, 0x00, 0x00, 0x00, 0x01, 0x14, 0x00, 0x00, 0x00, 
  0x20, 0x00, 0x00, 0x00, 0x20, 0x00, 0x00, 0x00, 0x2d, 0x00, 0x00, 0x00, 
  0x40, 0x00, 0x00, 0x00, 0x03, 0x00, 0x00, 0x00, 0x3c, 0x00, 0x00, 0x00, 
  0xff, 0xff, 0xff, 0xff, 0x01, 0x00, 0x00, 0x00, 0x24, 0xeb, 0xff, 0xff, 
  0x23, 0x00, 0x00, 0x00, 0x73, 0x65, 0x71, 0x75, 0x65, 0x6e, 0x74, 0x69, 
  0x61, 0x6c, 0x5f, 0x31, 0x2f, 0x6c, 0x73, 0x74, 0x6d, 0x5f, 0x31, 0x2f, 
  0x77, 0x68, 0x69, 0x6c, 0x65, 0x5f, 0x63, 0x6f, 0x6e, 0x64, 0x5f, 0x61, 
  0x72, 0x67, 0x35, 0x00, 0x03, 0x00, 0x00, 0x00, 0x3c, 0x00, 0x00, 0x00, 
  0x01, 0x00, 0x00, 0x00, 0x01, 0x00, 0x00, 0x00, 0xa2, 0xeb, 0xff, 0xff, 
  0x00, 0x00, 0x00, 0x01, 0x14, 0x00, 0x00, 0x00, 0x1c, 0x00, 0x00, 0x00, 
  0x1c, 0x00, 0x00, 0x00, 0x2c, 0x00, 0x00, 0x00, 0x3c, 0x00, 0x00, 0x00, 
  0x02, 0x00, 0x00, 0x00, 0xff, 0xff, 0xff, 0xff, 0x10, 0x00, 0x00, 0x00, 
  0x88, 0xeb, 0xff, 0xff, 0x23, 0x00, 0x00, 0x00, 0x73, 0x65, 0x71, 0x75, 
  0x65, 0x6e, 0x74, 0x69, 0x61, 0x6c, 0x5f, 0x31, 0x2f, 0x6c, 0x73, 0x74, 
  0x6d, 0x5f, 0x31, 0x2f, 0x77, 0x68, 0x69, 0x6c, 0x65, 0x5f, 0x63, 0x6f, 
  0x6e, 0x64, 0x5f, 0x61, 0x72, 0x67, 0x34, 0x00, 0x02, 0x00, 0x00, 0x00, 
  0x01, 0x00, 0x00, 0x00, 0x10, 0x00, 0x00, 0x00, 0x02, 0xec, 0xff, 0xff, 
  0x00, 0x00, 0x00, 0x01, 0x14, 0x00, 0x00, 0x00, 0x1c, 0x00, 0x00, 0x00, 
  0x1c, 0x00, 0x00, 0x00, 0x2b, 0x00, 0x00, 0x00, 0x3c, 0x00, 0x00, 0x00, 
  0x02, 0x00, 0x00, 0x00, 0xff, 0xff, 0xff, 0xff, 0x10, 0x00, 0x00, 0x00, 
  0xe8, 0xeb, 0xff, 0xff, 0x23, 0x00, 0x00, 0x00, 0x73, 0x65, 0x71, 0x75, 
  0x65, 0x6e, 0x74, 0x69, 0x61, 0x6c, 0x5f, 0x31, 0x2f, 0x6c, 0x73, 0x74, 
  0x6d, 0x5f, 0x31, 0x2f, 0x77, 0x68, 0x69, 0x6c, 0x65, 0x5f, 0x63, 0x6f, 
  0x6e, 0x64, 0x5f, 0x61, 0x72, 0x67, 0x33, 0x00, 0x02, 0x00, 0x00, 0x00, 
  0x01, 0x00, 0x00, 0x00, 0x10, 0x00, 0x00, 0x00, 0xc8, 0xf1, 0xff, 0xff, 
  0x1c, 0x00, 0x00, 0x00, 0x00, 0x00, 0x00, 0x01, 0x34, 0x00, 0x00, 0x00, 
  0x34, 0x00, 0x00, 0x00, 0x2a, 0x00, 0x00, 0x00, 0x00, 0x00, 0x00, 0x0e, 
  0x50, 0x00, 0x00, 0x00, 0x01, 0x00, 0x00, 0x00, 0x04, 0x00, 0x00, 0x00, 
  0xae, 0xf1, 0xff, 0xff, 0x00, 0x00, 0x00, 0x01, 0x04, 0x00, 0x00, 0x00, 
  0x02, 0x00, 0x00, 0x00, 0x00, 0x00, 0x00, 0x00, 0x10, 0x00, 0x00, 0x00, 
  0x60, 0xec, 0xff, 0xff, 0x23, 0x00, 0x00, 0x00, 0x73, 0x65, 0x71, 0x75, 
  0x65, 0x6e, 0x74, 0x69, 0x61, 0x6c, 0x5f, 0x31, 0x2f, 0x6c, 0x73, 0x74, 
  0x6d, 0x5f, 0x31, 0x2f, 0x77, 0x68, 0x69, 0x6c, 0x65, 0x5f, 0x63, 0x6f, 
  0x6e, 0x64, 0x5f, 0x61, 0x72, 0x67, 0x32, 0x00, 0x00, 0x00, 0x00, 0x00, 
  0xae, 0xed, 0xff, 0xff, 0x00, 0x00, 0x00, 0x01, 0x14, 0x00, 0x00, 0x00, 
  0x14, 0x00, 0x00, 0x00, 0x29, 0x00, 0x00, 0x00, 0x00, 0x00, 0x00, 0x02, 
  0x30, 0x00, 0x00, 0x00, 0xac, 0xec, 0xff, 0xff, 0x23, 0x00, 0x00, 0x00, 
  0x73, 0x65, 0x71, 0x75, 0x65, 0x6e, 0x74, 0x69, 0x61, 0x6c, 0x5f, 0x31, 
  0x2f, 0x6c, 0x73, 0x74, 0x6d, 0x5f, 0x31, 0x2f, 0x77, 0x68, 0x69, 0x6c, 
  0x65, 0x5f, 0x63, 0x6f, 0x6e, 0x64, 0x5f, 0x61, 0x72, 0x67, 0x31, 0x00, 
  0x00, 0x00, 0x00, 0x00, 0xfa, 0xed, 0xff, 0xff, 0x00, 0x00, 0x00, 0x01, 
  0x14, 0x00, 0x00, 0x00, 0x14, 0x00, 0x00, 0x00, 0x28, 0x00, 0x00, 0x00, 
  0x00, 0x00, 0x00, 0x02, 0x30, 0x00, 0x00, 0x00, 0xf8, 0xec, 0xff, 0xff, 
  0x23, 0x00, 0x00, 0x00, 0x73, 0x65, 0x71, 0x75, 0x65, 0x6e, 0x74, 0x69, 
  0x61, 0x6c, 0x5f, 0x31, 0x2f, 0x6c, 0x73, 0x74, 0x6d, 0x5f, 0x31, 0x2f, 
  0x77, 0x68, 0x69, 0x6c, 0x65, 0x5f, 0x63, 0x6f, 0x6e, 0x64, 0x5f, 0x61, 
  0x72, 0x67, 0x30, 0x00, 0x00, 0x00, 0x00, 0x00, 0xa6, 0xfe, 0xff, 0xff, 
  0x14, 0x00, 0x00, 0x00, 0x1c, 0x00, 0x00, 0x00, 0xa8, 0x00, 0x00, 0x00, 
  0xa8, 0x00, 0x00, 0x00, 0xa8, 0x00, 0x00, 0x00, 0x04, 0x00, 0x00, 0x00, 
  0x4e, 0x6f, 0x4f, 0x70, 0x00, 0x00, 0x00, 0x00, 0x02, 0x00, 0x00, 0x00, 
  0x28, 0x00, 0x00, 0x00, 0x04, 0x00, 0x00, 0x00, 0x9e, 0xfb, 0xff, 0xff, 
  0x0c, 0x00, 0x00, 0x00, 0x0c, 0x00, 0x00, 0x00, 0x0d, 0x00, 0x00, 0x00, 
  0x00, 0x00, 0x00, 0x00, 0x02, 0x00, 0x00, 0x00, 0x01, 0x00, 0x00, 0x00, 
  0x00, 0x00, 0x00, 0x00, 0x32, 0xfa, 0xff, 0xff, 0x14, 0x00, 0x00, 0x00, 
  0x00, 0x00, 0x00, 0x6f, 0x4c, 0x00, 0x00, 0x00, 0x50, 0x00, 0x00, 0x00, 
  0x01, 0x00, 0x00, 0x00, 0x24, 0xfa, 0xff, 0xff, 0x08, 0x00, 0x00, 0x00, 
  0x30, 0x00, 0x00, 0x00, 0x25, 0x00, 0x00, 0x00, 0x73, 0x65, 0x65, 0x64, 
  0x5f, 0x67, 0x65, 0x6e, 0x65, 0x72, 0x61, 0x74, 0x6f, 0x72, 0x2f, 0x73, 
  0x65, 0x65, 0x64, 0x5f, 0x67, 0x65, 0x6e, 0x65, 0x72, 0x61, 0x74, 0x6f, 
  0x72, 0x5f, 0x73, 0x74, 0x61, 0x74, 0x65, 0x5f, 0x31, 0x00, 0x00, 0x00, 
  0x00, 0x00, 0x00, 0x00, 0x00, 0x00, 0x00, 0x00, 0x01, 0x00, 0x00, 0x00, 
  0x01, 0x00, 0x00, 0x00, 0x00, 0x00, 0x00, 0x00, 0x00, 0x00, 0x00, 0x00, 
  0x00, 0x00, 0x00, 0x00, 0x02, 0x00, 0x00, 0x00, 0x58, 0x00, 0x00, 0x00, 
  0x04, 0x00, 0x00, 0x00, 0x0e, 0xef, 0xff, 0xff, 0x00, 0x00, 0x00, 0x01, 
  0x14, 0x00, 0x00, 0x00, 0x14, 0x00, 0x00, 0x00, 0x27, 0x00, 0x00, 0x00, 
  0x00, 0x00, 0x00, 0x0d, 0x34, 0x00, 0x00, 0x00, 0x0c, 0xee, 0xff, 0xff, 
  0x26, 0x00, 0x00, 0x00, 0x73, 0x65, 0x65, 0x64, 0x5f, 0x67, 0x65, 0x6e, 
  0x65, 0x72, 0x61, 0x74, 0x6f, 0x72, 0x2f, 0x73, 0x65, 0x65, 0x64, 0x5f, 
  0x67, 0x65, 0x6e, 0x65, 0x72, 0x61, 0x74, 0x6f, 0x72, 0x5f, 0x73, 0x74, 
  0x61, 0x74, 0x65, 0x5f, 0x31, 0x31, 0x00, 0x00, 0x00, 0x00, 0x00, 0x00, 
  0x5e, 0xef, 0xff, 0xff, 0x00, 0x00, 0x00, 0x01, 0x14, 0x00, 0x00, 0x00, 
  0x14, 0x00, 0x00, 0x00, 0x26, 0x00, 0x00, 0x00, 0x00, 0x00, 0x00, 0x04, 
  0x20, 0x00, 0x00, 0x00, 0x5c, 0xee, 0xff, 0xff, 0x10, 0x00, 0x00, 0x00, 
  0x61, 0x72, 0x69, 0x74, 0x68, 0x2e, 0x63, 0x6f, 0x6e, 0x73, 0x74, 0x61, 
  0x6e, 0x74, 0x31, 0x36, 0x00, 0x00, 0x00, 0x00, 0x01, 0x00, 0x00, 0x00, 
  0x02, 0x00, 0x00, 0x00, 0x00, 0x00, 0x0e, 0x00, 0x18, 0x00, 0x14, 0x00, 
  0x10, 0x00, 0x0c, 0x00, 0x08, 0x00, 0x04, 0x00, 0x0e, 0x00, 0x00, 0x00, 
  0x14, 0x00, 0x00, 0x00, 0x1c, 0x00, 0x00, 0x00, 0x60, 0x05, 0x00, 0x00, 
  0x64, 0x05, 0x00, 0x00, 0x68, 0x05, 0x00, 0x00, 0x04, 0x00, 0x00, 0x00, 
  0x6d, 0x61, 0x69, 0x6e, 0x00, 0x00, 0x00, 0x00, 0x10, 0x00, 0x00, 0x00, 
  0x18, 0x05, 0x00, 0x00, 0x98, 0x04, 0x00, 0x00, 0x4c, 0x04, 0x00, 0x00, 
  0x80, 0x03, 0x00, 0x00, 0x20, 0x03, 0x00, 0x00, 0xf8, 0x02, 0x00, 0x00, 
  0xb4, 0x02, 0x00, 0x00, 0x8c, 0x02, 0x00, 0x00, 0x2c, 0x02, 0x00, 0x00, 
  0x4c, 0x01, 0x00, 0x00, 0xf4, 0x00, 0x00, 0x00, 0xb8, 0x00, 0x00, 0x00, 
  0x80, 0x00, 0x00, 0x00, 0x5c, 0x00, 0x00, 0x00, 0x28, 0x00, 0x00, 0x00, 
  0x04, 0x00, 0x00, 0x00, 0x3e, 0xfd, 0xff, 0xff, 0x0c, 0x00, 0x00, 0x00, 
  0x0c, 0x00, 0x00, 0x00, 0x0d, 0x00, 0x00, 0x00, 0x00, 0x00, 0x00, 0x00, 
  0x02, 0x00, 0x00, 0x00, 0x12, 0x00, 0x00, 0x00, 0x24, 0x00, 0x00, 0x00, 
  0xd2, 0xfb, 0xff, 0xff, 0x14, 0x00, 0x00, 0x00, 0x00, 0x00, 0x00, 0x0b, 
  0x10, 0x00, 0x00, 0x00, 0x14, 0x00, 0x00, 0x00, 0x0c, 0x00, 0x00, 0x00, 
  0x30, 0xef, 0xff, 0xff, 0x01, 0x00, 0x00, 0x00, 0x24, 0x00, 0x00, 0x00, 
  0x02, 0x00, 0x00, 0x00, 0x23, 0x00, 0x00, 0x00, 0x08, 0x00, 0x00, 0x00, 
  0x8e, 0xfd, 0xff, 0xff, 0x0c, 0x00, 0x00, 0x00, 0x10, 0x00, 0x00, 0x00, 
  0x0b, 0x00, 0x00, 0x00, 0x01, 0x00, 0x00, 0x00, 0x23, 0x00, 0x00, 0x00, 
  0x01, 0x00, 0x00, 0x00, 0x12, 0x00, 0x00, 0x00, 0x22, 0xfc, 0xff, 0xff, 
  0x14, 0x00, 0x00, 0x00, 0x00, 0x00, 0x00, 0x08, 0x10, 0x00, 0x00, 0x00, 
  0x14, 0x00, 0x00, 0x00, 0x0a, 0x00, 0x00, 0x00, 0x80, 0xef, 0xff, 0xff, 
  0x01, 0x00, 0x00, 0x00, 0x22, 0x00, 0x00, 0x00, 0x03, 0x00, 0x00, 0x00, 
  0x21, 0x00, 0x00, 0x00, 0x06, 0x00, 0x00, 0x00, 0x02, 0x00, 0x00, 0x00, 
  0x56, 0xfc, 0xff, 0xff, 0x14, 0x00, 0x00, 0x00, 0x00, 0x00, 0x00, 0x08, 
  0x14, 0x00, 0x00, 0x00, 0x18, 0x00, 0x00, 0x00, 0x0a, 0x00, 0x00, 0x00, 
  0x8e, 0xfc, 0xff, 0xff, 0x00, 0x00, 0x00, 0x01, 0x01, 0x00, 0x00, 0x00, 
  0x21, 0x00, 0x00, 0x00, 0x03, 0x00, 0x00, 0x00, 0x20, 0x00, 0x00, 0x00, 
  0x07, 0x00, 0x00, 0x00, 0x01, 0x00, 0x00, 0x00, 0x8e, 0xfc, 0xff, 0xff, 
  0x24, 0x00, 0x00, 0x00, 0x00, 0x00, 0x00, 0x20, 0x2c, 0x00, 0x00, 0x00, 
  0x30, 0x00, 0x00, 0x00, 0x04, 0x00, 0x00, 0x00, 0x00, 0x00, 0x0e, 0x00, 
  0x10, 0x00, 0x0c, 0x00, 0x08, 0x00, 0x00, 0x00, 0x00, 0x00, 0x04, 0x00, 
  0x0e, 0x00, 0x00, 0x00, 0x01, 0x00, 0x00, 0x00, 0x06, 0x00, 0x00, 0x00, 
  0x06, 0x00, 0x00, 0x00, 0x01, 0x00, 0x00, 0x00, 0x20, 0x00, 0x00, 0x00, 
  0x04, 0x00, 0x00, 0x00, 0x1f, 0x00, 0x00, 0x00, 0x05, 0x00, 0x00, 0x00, 
  0x04, 0x00, 0x00, 0x00, 0x03, 0x00, 0x00, 0x00, 0xf4, 0xfd, 0xff, 0xff, 
  0x10, 0x00, 0x00, 0x00, 0xc0, 0x00, 0x00, 0x00, 0xc4, 0x00, 0x00, 0x00, 
  0x09, 0x00, 0x00, 0x00, 0xad, 0x00, 0x00, 0x00, 0x0f, 0x54, 0x65, 0x6e, 
  0x73, 0x6f, 0x72, 0x4c, 0x69, 0x73, 0x74, 0x53, 0x74, 0x61, 0x63, 0x6b, 
  0x00, 0x92, 0x12, 0x0f, 0x54, 0x65, 0x6e, 0x73, 0x6f, 0x72, 0x4c, 0x69, 
  0x73, 0x74, 0x53, 0x74, 0x61, 0x63, 0x6b, 0x1a, 0x00, 0x1a, 0x00, 0x2a, 
  0x13, 0x0a, 0x0d, 0x65, 0x6c, 0x65, 0x6d, 0x65, 0x6e, 0x74, 0x5f, 0x64, 
  0x74, 0x79, 0x70, 0x65, 0x12, 0x02, 0x30, 0x01, 0x2a, 0x12, 0x0a, 0x0c, 
  0x6e, 0x75, 0x6d, 0x5f, 0x65, 0x6c, 0x65, 0x6d, 0x65, 0x6e, 0x74, 0x73, 
  0x12, 0x02, 0x18, 0x01, 0x32, 0x52, 0x0a, 0x36, 0x73, 0x65, 0x71, 0x75, 
  0x65, 0x6e, 0x74, 0x69, 0x61, 0x6c, 0x5f, 0x31, 0x2f, 0x6c, 0x73, 0x74, 
  0x6d, 0x5f, 0x31, 0x2f, 0x54, 0x65, 0x6e, 0x73, 0x6f, 0x72, 0x41, 0x72, 
  0x72, 0x61, 0x79, 0x56, 0x32, 0x53, 0x74, 0x61, 0x63, 0x6b, 0x2f, 0x54, 
  0x65, 0x6e, 0x73, 0x6f, 0x72, 0x4c, 0x69, 0x73, 0x74, 0x53, 0x74, 0x61, 
  0x63, 0x6b, 0x12, 0x18, 0x5f, 0x5f, 0x69, 0x6e, 0x66, 0x65, 0x72, 0x65, 
  0x6e, 0x63, 0x65, 0x5f, 0x66, 0x75, 0x6e, 0x63, 0x74, 0x69, 0x6f, 0x6e, 
  0x5f, 0x36, 0x30, 0x34, 0x00, 0x02, 0xa5, 0x95, 0x14, 0x14, 0x04, 0x28, 
  0x01, 0x00, 0x00, 0x00, 0x01, 0x00, 0x00, 0x00, 0x1f, 0x00, 0x00, 0x00, 
  0x02, 0x00, 0x00, 0x00, 0x1b, 0x00, 0x00, 0x00, 0x0a, 0x00, 0x00, 0x00, 
  0xbe, 0xfd, 0xff, 0xff, 0x14, 0x00, 0x00, 0x00, 0x00, 0x00, 0x00, 0x5d, 
  0x18, 0x00, 0x00, 0x00, 0x30, 0x00, 0x00, 0x00, 0x08, 0x00, 0x00, 0x00, 
  0xb0, 0xfd, 0xff, 0xff, 0x03, 0x00, 0x00, 0x00, 0x02, 0x00, 0x00, 0x00, 
  0x06, 0x00, 0x00, 0x00, 0x19, 0x00, 0x00, 0x00, 0x1a, 0x00, 0x00, 0x00, 
  0x1b, 0x00, 0x00, 0x00, 0x1c, 0x00, 0x00, 0x00, 0x1d, 0x00, 0x00, 0x00, 
  0x1e, 0x00, 0x00, 0x00, 0x06, 0x00, 0x00, 0x00, 0x09, 0x00, 0x00, 0x00, 
  0x09, 0x00, 0x00, 0x00, 0x14, 0x00, 0x00, 0x00, 0x18, 0x00, 0x00, 0x00, 
  0x18, 0x00, 0x00, 0x00, 0x16, 0x00, 0x00, 0x00, 0xa6, 0xff, 0xff, 0xff, 
  0x0c, 0x00, 0x00, 0x00, 0x10, 0x00, 0x00, 0x00, 0x07, 0x00, 0x00, 0x00, 
  0x01, 0x00, 0x00, 0x00, 0x18, 0x00, 0x00, 0x00, 0x02, 0x00, 0x00, 0x00, 
  0x17, 0x00, 0x00, 0x00, 0x0f, 0x00, 0x00, 0x00, 0x3e, 0xfe, 0xff, 0xff, 
  0x14, 0x00, 0x00, 0x00, 0x00, 0x00, 0x00, 0x3b, 0x14, 0x00, 0x00, 0x00, 
  0x18, 0x00, 0x00, 0x00, 0x06, 0x00, 0x00, 0x00, 0xb6, 0xfd, 0xff, 0xff, 
  0x02, 0x00, 0x00, 0x00, 0x01, 0x00, 0x00, 0x00, 0x17, 0x00, 0x00, 0x00, 
  0x02, 0x00, 0x00, 0x00, 0x15, 0x00, 0x00, 0x00, 0x10, 0x00, 0x00, 0x00, 
  0x00, 0x00, 0x0a, 0x00, 0x10, 0x00, 0x0c, 0x00, 0x08, 0x00, 0x04, 0x00, 
  0x0a, 0x00, 0x00, 0x00, 0x0c, 0x00, 0x00, 0x00, 0x10, 0x00, 0x00, 0x00, 
  0x05, 0x00, 0x00, 0x00, 0x01, 0x00, 0x00, 0x00, 0x16, 0x00, 0x00, 0x00, 
  0x02, 0x00, 0x00, 0x00, 0x00, 0x00, 0x00, 0x00, 0x0e, 0x00, 0x00, 0x00, 
  0xa2, 0xfe, 0xff, 0xff, 0x24, 0x00, 0x00, 0x00, 0x00, 0x00, 0x00, 0x20, 
  0x24, 0x00, 0x00, 0x00, 0x28, 0x00, 0x00, 0x00, 0x04, 0x00, 0x00, 0x00, 
  0x00, 0x00, 0x0e, 0x00, 0x08, 0x00, 0x00, 0x00, 0x00, 0x00, 0x00, 0x00, 
  0x00, 0x00, 0x04, 0x00, 0x0e, 0x00, 0x00, 0x00, 0x01, 0x00, 0x00, 0x00, 
  0x01, 0x00, 0x00, 0x00, 0x15, 0x00, 0x00, 0x00, 0x04, 0x00, 0x00, 0x00, 
  0x13, 0x00, 0x00, 0x00, 0x0c, 0x00, 0x00, 0x00, 0x0d, 0x00, 0x00, 0x00, 
  0x0d, 0x00, 0x00, 0x00, 0x10, 0x00, 0x14, 0x00, 0x10, 0x00, 0x0c, 0x00, 
  0x08, 0x00, 0x00, 0x00, 0x00, 0x00, 0x04, 0x00, 0x10, 0x00, 0x00, 0x00, 
  0x10, 0x00, 0x00, 0x00, 0xac, 0x00, 0x00, 0x00, 0xb0, 0x00, 0x00, 0x00, 
  0x03, 0x00, 0x00, 0x00, 0x9c, 0x00, 0x00, 0x00, 0x11, 0x54, 0x65, 0x6e, 
  0x73, 0x6f, 0x72, 0x4c, 0x69, 0x73, 0x74, 0x52, 0x65, 0x73, 0x65, 0x72, 
  0x76, 0x65, 0x00, 0x7f, 0x12, 0x11, 0x54, 0x65, 0x6e, 0x73, 0x6f, 0x72, 
  0x4c, 0x69, 0x73, 0x74, 0x52, 0x65, 0x73, 0x65, 0x72, 0x76, 0x65, 0x1a, 
  0x00, 0x1a, 0x00, 0x2a, 0x10, 0x0a, 0x0a, 0x73, 0x68, 0x61, 0x70, 0x65, 
  0x5f, 0x74, 0x79, 0x70, 0x65, 0x12, 0x02, 0x30, 0x03, 0x2a, 0x13, 0x0a, 
  0x0d, 0x65, 0x6c, 0x65, 0x6d, 0x65, 0x6e, 0x74, 0x5f, 0x64, 0x74, 0x79, 
  0x70, 0x65, 0x12, 0x02, 0x30, 0x01, 0x32, 0x3f, 0x0a, 0x23, 0x73, 0x65, 
  0x71, 0x75, 0x65, 0x6e, 0x74, 0x69, 0x61, 0x6c, 0x5f, 0x31, 0x2f, 0x6c, 
  0x73, 0x74, 0x6d, 0x5f, 0x31, 0x2f, 0x54, 0x65, 0x6e, 0x73, 0x6f, 0x72, 
  0x41, 0x72, 0x72, 0x61, 0x79, 0x56, 0x32, 0x5f, 0x31, 0x12, 0x18, 0x5f, 
  0x5f, 0x69, 0x6e, 0x66, 0x65, 0x72, 0x65, 0x6e, 0x63, 0x65, 0x5f, 0x66, 
  0x75, 0x6e, 0x63, 0x74, 0x69, 0x6f, 0x6e, 0x5f, 0x36, 0x30, 0x34, 0x00, 
  0x02, 0x94, 0x82, 0x14, 0x14, 0x04, 0x28, 0x01, 0x01, 0x00, 0x00, 0x00, 
  0x14, 0x00, 0x00, 0x00, 0x02, 0x00, 0x00, 0x00, 0x0a, 0x00, 0x00, 0x00, 
  0x0b, 0x00, 0x00, 0x00, 0xc6, 0xff, 0xff, 0xff, 0x1c, 0x00, 0x00, 0x00, 
  0x00, 0x00, 0x00, 0x37, 0x1c, 0x00, 0x00, 0x00, 0x20, 0x00, 0x00, 0x00, 
  0x02, 0x00, 0x00, 0x00, 0x00, 0x00, 0x06, 0x00, 0x08, 0x00, 0x07, 0x00, 
  0x06, 0x00, 0x00, 0x00, 0x00, 0x00, 0x00, 0x02, 0x01, 0x00, 0x00, 0x00, 
  0x13, 0x00, 0x00, 0x00, 0x01, 0x00, 0x00, 0x00, 0x00, 0x00, 0x00, 0x00, 
  0x00, 0x00, 0x0e, 0x00, 0x18, 0x00, 0x14, 0x00, 0x10, 0x00, 0x0c, 0x00, 
  0x0b, 0x00, 0x04, 0x00, 0x0e, 0x00, 0x00, 0x00, 0x1c, 0x00, 0x00, 0x00, 
  0x00, 0x00, 0x00, 0x6f, 0x54, 0x00, 0x00, 0x00, 0x58, 0x00, 0x00, 0x00, 
  0x01, 0x00, 0x00, 0x00, 0x08, 0x00, 0x0c, 0x00, 0x08, 0x00, 0x04, 0x00, 
  0x08, 0x00, 0x00, 0x00, 0x08, 0x00, 0x00, 0x00, 0x30, 0x00, 0x00, 0x00, 
  0x25, 0x00, 0x00, 0x00, 0x73, 0x65, 0x65, 0x64, 0x5f, 0x67, 0x65, 0x6e, 
  0x65, 0x72, 0x61, 0x74, 0x6f, 0x72, 0x2f, 0x73, 0x65, 0x65, 0x64, 0x5f, 
  0x67, 0x65, 0x6e, 0x65, 0x72, 0x61, 0x74, 0x6f, 0x72, 0x5f, 0x73, 0x74, 
  0x61, 0x74, 0x65, 0x5f, 0x31, 0x00, 0x00, 0x00, 0x00, 0x00, 0x00, 0x00, 
  0x00, 0x00, 0x00, 0x00, 0x01, 0x00, 0x00, 0x00, 0x12, 0x00, 0x00, 0x00, 
  0x00, 0x00, 0x00, 0x00, 0x00, 0x00, 0x0e, 0x00, 0x16, 0x00, 0x00, 0x00, 
  0x10, 0x00, 0x0c, 0x00, 0x0b, 0x00, 0x04, 0x00, 0x0e, 0x00, 0x00, 0x00, 
  0x18, 0x00, 0x00, 0x00, 0x00, 0x00, 0x00, 0x67, 0x18, 0x00, 0x00, 0x00, 
  0x18, 0x00, 0x00, 0x00, 0x00, 0x00, 0x06, 0x00, 0x08, 0x00, 0x04, 0x00, 
  0x06, 0x00, 0x00, 0x00, 0x01, 0x00, 0x00, 0x00, 0x00, 0x00, 0x00, 0x00, 
  0x00, 0x00, 0x00, 0x00, 0x01, 0x00, 0x00, 0x00, 0x22, 0x00, 0x00, 0x00, 
  0x01, 0x00, 0x00, 0x00, 0x00, 0x00, 0x00, 0x00, 0x25, 0x00, 0x00, 0x00, 
  0xc4, 0x0b, 0x00, 0x00, 0x70, 0x0b, 0x00, 0x00, 0x1c, 0x0b, 0x00, 0x00, 
  0xdc, 0x0a, 0x00, 0x00, 0x84, 0x0a, 0x00, 0x00, 0x44, 0x0a, 0x00, 0x00, 
  0x04, 0x0a, 0x00, 0x00, 0xc4, 0x09, 0x00, 0x00, 0x84, 0x09, 0x00, 0x00, 
  0x48, 0x09, 0x00, 0x00, 0x08, 0x09, 0x00, 0x00, 0xc8, 0x08, 0x00, 0x00, 
  0x84, 0x08, 0x00, 0x00, 0x40, 0x08, 0x00, 0x00, 0xfc, 0x07, 0x00, 0x00, 
  0xc0, 0x07, 0x00, 0x00, 0x80, 0x07, 0x00, 0x00, 0x30, 0x07, 0x00, 0x00, 
  0xdc, 0x06, 0x00, 0x00, 0x90, 0x06, 0x00, 0x00, 0x10, 0x06, 0x00, 0x00, 
  0xa8, 0x05, 0x00, 0x00, 0x40, 0x05, 0x00, 0x00, 0xec, 0x04, 0x00, 0x00, 
  0x90, 0x04, 0x00, 0x00, 0x48, 0x04, 0x00, 0x00, 0x00, 0x04, 0x00, 0x00, 
  0x94, 0x03, 0x00, 0x00, 0x38, 0x03, 0x00, 0x00, 0xdc, 0x02, 0x00, 0x00, 
  0x78, 0x02, 0x00, 0x00, 0xf8, 0x01, 0x00, 0x00, 0x94, 0x01, 0x00, 0x00, 
  0x00, 0x01, 0x00, 0x00, 0xa4, 0x00, 0x00, 0x00, 0x4c, 0x00, 0x00, 0x00, 
  0x04, 0x00, 0x00, 0x00, 0xc2, 0xf5, 0xff, 0xff, 0x00, 0x00, 0x00, 0x01, 
  0x14, 0x00, 0x00, 0x00, 0x14, 0x00, 0x00, 0x00, 0x25, 0x00, 0x00, 0x00, 
  0x00, 0x00, 0x00, 0x04, 0x24, 0x00, 0x00, 0x00, 0xc0, 0xf4, 0xff, 0xff, 
  0x17, 0x00, 0x00, 0x00, 0x73, 0x65, 0x71, 0x75, 0x65, 0x6e, 0x74, 0x69, 
  0x61, 0x6c, 0x5f, 0x31, 0x2f, 0x6c, 0x73, 0x74, 0x6d, 0x5f, 0x31, 0x2f, 
  0x41, 0x64, 0x64, 0x00, 0x01, 0x00, 0x00, 0x00, 0x02, 0x00, 0x00, 0x00, 
  0x06, 0xf6, 0xff, 0xff, 0x00, 0x00, 0x00, 0x01, 0x14, 0x00, 0x00, 0x00, 
  0x14, 0x00, 0x00, 0x00, 0x24, 0x00, 0x00, 0x00, 0x00, 0x00, 0x00, 0x04, 
  0x34, 0x00, 0x00, 0x00, 0x04, 0xf5, 0xff, 0xff, 0x26, 0x00, 0x00, 0x00, 
  0x73, 0x65, 0x71, 0x75, 0x65, 0x6e, 0x74, 0x69, 0x61, 0x6c, 0x5f, 0x31, 
  0x2f, 0x6c, 0x73, 0x74, 0x6d, 0x5f, 0x31, 0x2f, 0x41, 0x64, 0x64, 0x2f, 
  0x52, 0x65, 0x61, 0x64, 0x56, 0x61, 0x72, 0x69, 0x61, 0x62, 0x6c, 0x65, 
  0x4f, 0x70, 0x00, 0x00, 0x01, 0x00, 0x00, 0x00, 0x02, 0x00, 0x00, 0x00, 
  0x7e, 0xf5, 0xff, 0xff, 0x00, 0x00, 0x00, 0x01, 0x14, 0x00, 0x00, 0x00, 
  0x1c, 0x00, 0x00, 0x00, 0x1c, 0x00, 0x00, 0x00, 0x23, 0x00, 0x00, 0x00, 
  0x34, 0x00, 0x00, 0x00, 0x02, 0x00, 0x00, 0x00, 0xff, 0xff, 0xff, 0xff, 
  0x01, 0x00, 0x00, 0x00, 0x64, 0xf5, 0xff, 0xff, 0x1b, 0x00, 0x00, 0x00, 
  0x53, 0x74, 0x61, 0x74, 0x65, 0x66, 0x75, 0x6c, 0x50, 0x61, 0x72, 0x74, 
  0x69, 0x74, 0x69, 0x6f, 0x6e, 0x65, 0x64, 0x43, 0x61, 0x6c, 0x6c, 0x5f, 
  0x31, 0x3a, 0x30, 0x00, 0x02, 0x00, 0x00, 0x00, 0x01, 0x00, 0x00, 0x00, 
  0x01, 0x00, 0x00, 0x00, 0xd6, 0xf5, 0xff, 0xff, 0x00, 0x00, 0x00, 0x01, 
  0x14, 0x00, 0x00, 0x00, 0x1c, 0x00, 0x00, 0x00, 0x1c, 0x00, 0x00, 0x00, 
  0x22, 0x00, 0x00, 0x00, 0x6c, 0x00, 0x00, 0x00, 0x02, 0x00, 0x00, 0x00, 
  0xff, 0xff, 0xff, 0xff, 0x08, 0x00, 0x00, 0x00, 0xbc, 0xf5, 0xff, 0xff, 
  0x52, 0x00, 0x00, 0x00, 0x73, 0x65, 0x71, 0x75, 0x65, 0x6e, 0x74, 0x69, 
  0x61, 0x6c, 0x5f, 0x31, 0x2f, 0x64, 0x65, 0x6e, 0x73, 0x65, 0x5f, 0x31, 
  0x2f, 0x4d, 0x61, 0x74, 0x4d, 0x75, 0x6c, 0x3b, 0x73, 0x65, 0x71, 0x75, 
  0x65, 0x6e, 0x74, 0x69, 0x61, 0x6c, 0x5f, 0x31, 0x2f, 0x64, 0x65, 0x6e, 
  0x73, 0x65, 0x5f, 0x31, 0x2f, 0x52, 0x65, 0x6c, 0x75, 0x3b, 0x73, 0x65, 
  0x71, 0x75, 0x65, 0x6e, 0x74, 0x69, 0x61, 0x6c, 0x5f, 0x31, 0x2f, 0x64, 
  0x65, 0x6e, 0x73, 0x65, 0x5f, 0x31, 0x2f, 0x42, 0x69, 0x61, 0x73, 0x41, 
  0x64, 0x64, 0x00, 0x00, 0x02, 0x00, 0x00, 0x00, 0x01, 0x00, 0x00, 0x00, 
  0x08, 0x00, 0x00, 0x00, 0x66, 0xf6, 0xff, 0xff, 0x00, 0x00, 0x00, 0x01, 
  0x14, 0x00, 0x00, 0x00, 0x1c, 0x00, 0x00, 0x00, 0x1c, 0x00, 0x00, 0x00, 
  0x21, 0x00, 0x00, 0x00, 0x3c, 0x00, 0x00, 0x00, 0x02, 0x00, 0x00, 0x00, 
  0xff, 0xff, 0xff, 0xff, 0x10, 0x00, 0x00, 0x00, 0x4c, 0xf6, 0xff, 0xff, 
  0x23, 0x00, 0x00, 0x00, 0x73, 0x65, 0x71, 0x75, 0x65, 0x6e, 0x74, 0x69, 
  0x61, 0x6c, 0x5f, 0x31, 0x2f, 0x6c, 0x73, 0x74, 0x6d, 0x5f, 0x31, 0x2f, 
  0x73, 0x74, 0x72, 0x69, 0x64, 0x65, 0x64, 0x5f, 0x73, 0x6c, 0x69, 0x63, 
  0x65, 0x5f, 0x33, 0x00, 0x02, 0x00, 0x00, 0x00, 0x01, 0x00, 0x00, 0x00, 
  0x10, 0x00, 0x00, 0x00, 0xc6, 0xf6, 0xff, 0xff, 0x00, 0x00, 0x00, 0x01, 
  0x14, 0x00, 0x00, 0x00, 0x20, 0x00, 0x00, 0x00, 0x20, 0x00, 0x00, 0x00, 
  0x20, 0x00, 0x00, 0x00, 0x54, 0x00, 0x00, 0x00, 0x03, 0x00, 0x00, 0x00, 
  0x01, 0x00, 0x00, 0x00, 0xff, 0xff, 0xff, 0xff, 0x10, 0x00, 0x00, 0x00, 
  0xb0, 0xf6, 0xff, 0xff, 0x36, 0x00, 0x00, 0x00, 0x73, 0x65, 0x71, 0x75, 
  0x65, 0x6e, 0x74, 0x69, 0x61, 0x6c, 0x5f, 0x31, 0x2f, 0x6c, 0x73, 0x74, 
  0x6d, 0x5f, 0x31, 0x2f, 0x54, 0x65, 0x6e, 0x73, 0x6f, 0x72, 0x41, 0x72, 
  0x72, 0x61, 0x79, 0x56, 0x32, 0x53, 0x74, 0x61, 0x63, 0x6b, 0x2f, 0x54, 
  0x65, 0x6e, 0x73, 0x6f, 0x72, 0x4c, 0x69, 0x73, 0x74, 0x53, 0x74, 0x61, 
  0x63, 0x6b, 0x00, 0x00, 0x03, 0x00, 0x00, 0x00, 0x01, 0x00, 0x00, 0x00, 
  0x01, 0x00, 0x00, 0x00, 0x10, 0x00, 0x00, 0x00, 0x42, 0xf7, 0xff, 0xff, 
  0x00, 0x00, 0x00, 0x01, 0x14, 0x00, 0x00, 0x00, 0x20, 0x00, 0x00, 0x00, 
  0x20, 0x00, 0x00, 0x00, 0x1f, 0x00, 0x00, 0x00, 0x38, 0x00, 0x00, 0x00, 
  0x03, 0x00, 0x00, 0x00, 0x3c, 0x00, 0x00, 0x00, 0xff, 0xff, 0xff, 0xff, 
  0x01, 0x00, 0x00, 0x00, 0x2c, 0xf7, 0xff, 0xff, 0x1a, 0x00, 0x00, 0x00, 
  0x73, 0x65, 0x71, 0x75, 0x65, 0x6e, 0x74, 0x69, 0x61, 0x6c, 0x5f, 0x31, 
  0x2f, 0x6c, 0x73, 0x74, 0x6d, 0x5f, 0x31, 0x2f, 0x77, 0x68, 0x69, 0x6c, 
  0x65, 0x35, 0x00, 0x00, 0x03, 0x00, 0x00, 0x00, 0x3c, 0x00, 0x00, 0x00, 
  0x01, 0x00, 0x00, 0x00, 0x01, 0x00, 0x00, 0x00, 0xa2, 0xf7, 0xff, 0xff, 
  0x00, 0x00, 0x00, 0x01, 0x14, 0x00, 0x00, 0x00, 0x1c, 0x00, 0x00, 0x00, 
  0x1c, 0x00, 0x00, 0x00, 0x1e, 0x00, 0x00, 0x00, 0x34, 0x00, 0x00, 0x00, 
  0x02, 0x00, 0x00, 0x00, 0xff, 0xff, 0xff, 0xff, 0x10, 0x00, 0x00, 0x00, 
  0x88, 0xf7, 0xff, 0xff, 0x1a, 0x00, 0x00, 0x00, 0x73, 0x65, 0x71, 0x75, 
  0x65, 0x6e, 0x74, 0x69, 0x61, 0x6c, 0x5f, 0x31, 0x2f, 0x6c, 0x73, 0x74, 
  0x6d, 0x5f, 0x31, 0x2f, 0x77, 0x68, 0x69, 0x6c, 0x65, 0x34, 0x00, 0x00, 
  0x02, 0x00, 0x00, 0x00, 0x01, 0x00, 0x00, 0x00, 0x10, 0x00, 0x00, 0x00, 
  0xfa, 0xf7, 0xff, 0xff, 0x00, 0x00, 0x00, 0x01, 0x14, 0x00, 0x00, 0x00, 
  0x1c, 0x00, 0x00, 0x00, 0x1c, 0x00, 0x00, 0x00, 0x1d, 0x00, 0x00, 0x00, 
  0x34, 0x00, 0x00, 0x00, 0x02, 0x00, 0x00, 0x00, 0xff, 0xff, 0xff, 0xff, 
  0x10, 0x00, 0x00, 0x00, 0xe0, 0xf7, 0xff, 0xff, 0x1a, 0x00, 0x00, 0x00, 
  0x73, 0x65, 0x71, 0x75, 0x65, 0x6e, 0x74, 0x69, 0x61, 0x6c, 0x5f, 0x31, 
  0x2f, 0x6c, 0x73, 0x74, 0x6d, 0x5f, 0x31, 0x2f, 0x77, 0x68, 0x69, 0x6c, 
  0x65, 0x33, 0x00, 0x00, 0x02, 0x00, 0x00, 0x00, 0x01, 0x00, 0x00, 0x00, 
  0x10, 0x00, 0x00, 0x00, 0xb8, 0xfd, 0xff, 0xff, 0x1c, 0x00, 0x00, 0x00, 
  0x00, 0x00, 0x00, 0x01, 0x34, 0x00, 0x00, 0x00, 0x34, 0x00, 0x00, 0x00, 
  0x1c, 0x00, 0x00, 0x00, 0x00, 0x00, 0x00, 0x0e, 0x48, 0x00, 0x00, 0x00, 
  0x01, 0x00, 0x00, 0x00, 0x04, 0x00, 0x00, 0x00, 0x9e, 0xfd, 0xff, 0xff, 
  0x00, 0x00, 0x00, 0x01, 0x04, 0x00, 0x00, 0x00, 0x02, 0x00, 0x00, 0x00, 
  0x00, 0x00, 0x00, 0x00, 0x10, 0x00, 0x00, 0x00, 0x50, 0xf8, 0xff, 0xff, 
  0x1a, 0x00, 0x00, 0x00, 0x73, 0x65, 0x71, 0x75, 0x65, 0x6e, 0x74, 0x69, 
  0x61, 0x6c, 0x5f, 0x31, 0x2f, 0x6c, 0x73, 0x74, 0x6d, 0x5f, 0x31, 0x2f, 
  0x77, 0x68, 0x69, 0x6c, 0x65, 0x32, 0x00, 0x00, 0x00, 0x00, 0x00, 0x00, 
  0x96, 0xf9, 0xff, 0xff, 0x00, 0x00, 0x00, 0x01, 0x14, 0x00, 0x00, 0x00, 
  0x14, 0x00, 0x00, 0x00, 0x1b, 0x00, 0x00, 0x00, 0x00, 0x00, 0x00, 0x02, 
  0x28, 0x00, 0x00, 0x00, 0x94, 0xf8, 0xff, 0xff, 0x1a, 0x00, 0x00, 0x00, 
  0x73, 0x65, 0x71, 0x75, 0x65, 0x6e, 0x74, 0x69, 0x61, 0x6c, 0x5f, 0x31, 
  0x2f, 0x6c, 0x73, 0x74, 0x6d, 0x5f, 0x31, 0x2f, 0x77, 0x68, 0x69, 0x6c, 
  0x65, 0x31, 0x00, 0x00, 0x00, 0x00, 0x00, 0x00, 0xda, 0xf9, 0xff, 0xff, 
  0x00, 0x00, 0x00, 0x01, 0x14, 0x00, 0x00, 0x00, 0x14, 0x00, 0x00, 0x00, 
  0x1a, 0x00, 0x00, 0x00, 0x00, 0x00, 0x00, 0x02, 0x28, 0x00, 0x00, 0x00, 
  0xd8, 0xf8, 0xff, 0xff, 0x19, 0x00, 0x00, 0x00, 0x73, 0x65, 0x71, 0x75, 
  0x65, 0x6e, 0x74, 0x69, 0x61, 0x6c, 0x5f, 0x31, 0x2f, 0x6c, 0x73, 0x74, 
  0x6d, 0x5f, 0x31, 0x2f, 0x77, 0x68, 0x69, 0x6c, 0x65, 0x00, 0x00, 0x00, 
  0x00, 0x00, 0x00, 0x00, 0x42, 0xf9, 0xff, 0xff, 0x00, 0x00, 0x00, 0x01, 
  0x14, 0x00, 0x00, 0x00, 0x1c, 0x00, 0x00, 0x00, 0x1c, 0x00, 0x00, 0x00, 
  0x19, 0x00, 0x00, 0x00, 0x34, 0x00, 0x00, 0x00, 0x02, 0x00, 0x00, 0x00, 
  0xff, 0xff, 0xff, 0xff, 0x10, 0x00, 0x00, 0x00, 0x28, 0xf9, 0xff, 0xff, 
  0x19, 0x00, 0x00, 0x00, 0x73, 0x65, 0x71, 0x75, 0x65, 0x6e, 0x74, 0x69, 
  0x61, 0x6c, 0x5f, 0x31, 0x2f, 0x6c, 0x73, 0x74, 0x6d, 0x5f, 0x31, 0x2f, 
  0x7a, 0x65, 0x72, 0x6f, 0x73, 0x00, 0x00, 0x00, 0x02, 0x00, 0x00, 0x00, 
  0x01, 0x00, 0x00, 0x00, 0x10, 0x00, 0x00, 0x00, 0x76, 0xfa, 0xff, 0xff, 
  0x00, 0x00, 0x00, 0x01, 0x14, 0x00, 0x00, 0x00, 0x14, 0x00, 0x00, 0x00, 
  0x18, 0x00, 0x00, 0x00, 0x00, 0x00, 0x00, 0x02, 0x30, 0x00, 0x00, 0x00, 
  0x74, 0xf9, 0xff, 0xff, 0x20, 0x00, 0x00, 0x00, 0x73, 0x65, 0x71, 0x75, 
  0x65, 0x6e, 0x74, 0x69, 0x61, 0x6c, 0x5f, 0x31, 0x2f, 0x6c, 0x73, 0x74, 
  0x6d, 0x5f, 0x31, 0x2f, 0x7a, 0x65, 0x72, 0x6f, 0x73, 0x2f, 0x70, 0x61, 
  0x63, 0x6b, 0x65, 0x64, 0x00, 0x00, 0x00, 0x00, 0x01, 0x00, 0x00, 0x00, 
  0x02, 0x00, 0x00, 0x00, 0xea, 0xf9, 0xff, 0xff, 0x00, 0x00, 0x00, 0x01, 
  0x14, 0x00, 0x00, 0x00, 0x20, 0x00, 0x00, 0x00, 0x20, 0x00, 0x00, 0x00, 
  0x17, 0x00, 0x00, 0x00, 0x3c, 0x00, 0x00, 0x00, 0x03, 0x00, 0x00, 0x00, 
  0x3c, 0x00, 0x00, 0x00, 0xff, 0xff, 0xff, 0xff, 0x01, 0x00, 0x00, 0x00, 
  0xd4, 0xf9, 0xff, 0xff, 0x1d, 0x00, 0x00, 0x00, 0x73, 0x65, 0x71, 0x75, 
  0x65, 0x6e, 0x74, 0x69, 0x61, 0x6c, 0x5f, 0x31, 0x2f, 0x6c, 0x73, 0x74, 
  0x6d, 0x5f, 0x31, 0x2f, 0x74, 0x72, 0x61, 0x6e, 0x73, 0x70, 0x6f, 0x73, 
  0x65, 0x00, 0x00, 0x00, 0x03, 0x00, 0x00, 0x00, 0x3c, 0x00, 0x00, 0x00, 
  0x01, 0x00, 0x00, 0x00, 0x01, 0x00, 0x00, 0x00, 0x2a, 0xfb, 0xff, 0xff, 
  0x00, 0x00, 0x00, 0x01, 0x14, 0x00, 0x00, 0x00, 0x14, 0x00, 0x00, 0x00, 
  0x16, 0x00, 0x00, 0x00, 0x00, 0x00, 0x00, 0x02, 0x30, 0x00, 0x00, 0x00, 
  0x28, 0xfa, 0xff, 0xff, 0x21, 0x00, 0x00, 0x00, 0x73, 0x65, 0x71, 0x75, 
  0x65, 0x6e, 0x74, 0x69, 0x61, 0x6c, 0x5f, 0x31, 0x2f, 0x6c, 0x73, 0x74, 
  0x6d, 0x5f, 0x31, 0x2f, 0x73, 0x74, 0x72, 0x69, 0x64, 0x65, 0x64, 0x5f, 
  0x73, 0x6c, 0x69, 0x63, 0x65, 0x00, 0x00, 0x00, 0x00, 0x00, 0x00, 0x00, 
  0x18, 0x00, 0x20, 0x00, 0x1c, 0x00, 0x1b, 0x00, 0x14, 0x00, 0x10, 0x00, 
  0x0c, 0x00, 0x00, 0x00, 0x00, 0x00, 0x00, 0x00, 0x0b, 0x00, 0x04, 0x00, 
  0x18, 0x00, 0x00, 0x00, 0x1c, 0x00, 0x00, 0x00, 0x00, 0x00, 0x00, 0x01, 
  0x40, 0x00, 0x00, 0x00, 0x40, 0x00, 0x00, 0x00, 0x15, 0x00, 0x00, 0x00, 
  0x00, 0x00, 0x00, 0x0e, 0x5c, 0x00, 0x00, 0x00, 0x01, 0x00, 0x00, 0x00, 
  0x10, 0x00, 0x00, 0x00, 0x00, 0x00, 0x0a, 0x00, 0x0c, 0x00, 0x08, 0x00, 
  0x00, 0x00, 0x07, 0x00, 0x0a, 0x00, 0x00, 0x00, 0x00, 0x00, 0x00, 0x01, 
  0x04, 0x00, 0x00, 0x00, 0x02, 0x00, 0x00, 0x00, 0x00, 0x00, 0x00, 0x00, 
  0x10, 0x00, 0x00, 0x00, 0xbc, 0xfa, 0xff, 0xff, 0x23, 0x00, 0x00, 0x00, 
  0x73, 0x65, 0x71, 0x75, 0x65, 0x6e, 0x74, 0x69, 0x61, 0x6c, 0x5f, 0x31, 
  0x2f, 0x6c, 0x73, 0x74, 0x6d, 0x5f, 0x31, 0x2f, 0x54, 0x65, 0x6e, 0x73, 
  0x6f, 0x72, 0x41, 0x72, 0x72, 0x61, 0x79, 0x56, 0x32, 0x5f, 0x31, 0x00, 
  0x00, 0x00, 0x00, 0x00, 0x0a, 0xfc, 0xff, 0xff, 0x00, 0x00, 0x00, 0x01, 
  0x14, 0x00, 0x00, 0x00, 0x14, 0x00, 0x00, 0x00, 0x14, 0x00, 0x00, 0x00, 
  0x00, 0x00, 0x00, 0x02, 0x28, 0x00, 0x00, 0x00, 0x08, 0xfb, 0xff, 0xff, 
  0x19, 0x00, 0x00, 0x00, 0x73, 0x65, 0x71, 0x75, 0x65, 0x6e, 0x74, 0x69, 
  0x61, 0x6c, 0x5f, 0x31, 0x2f, 0x6c, 0x73, 0x74, 0x6d, 0x5f, 0x31, 0x2f, 
  0x53, 0x68, 0x61, 0x70, 0x65, 0x00, 0x00, 0x00, 0x01, 0x00, 0x00, 0x00, 
  0x03, 0x00, 0x00, 0x00, 0x52, 0xfc, 0xff, 0xff, 0x00, 0x00, 0x00, 0x01, 
  0x14, 0x00, 0x00, 0x00, 0x14, 0x00, 0x00, 0x00, 0x13, 0x00, 0x00, 0x00, 
  0x00, 0x00, 0x00, 0x0d, 0x34, 0x00, 0x00, 0x00, 0x50, 0xfb, 0xff, 0xff, 
  0x25, 0x00, 0x00, 0x00, 0x73, 0x65, 0x65, 0x64, 0x5f, 0x67, 0x65, 0x6e, 
  0x65, 0x72, 0x61, 0x74, 0x6f, 0x72, 0x2f, 0x73, 0x65, 0x65, 0x64, 0x5f, 
  0x67, 0x65, 0x6e, 0x65, 0x72, 0x61, 0x74, 0x6f, 0x72, 0x5f, 0x73, 0x74, 
  0x61, 0x74, 0x65, 0x5f, 0x31, 0x00, 0x00, 0x00, 0x00, 0x00, 0x00, 0x00, 
  0xa2, 0xfc, 0xff, 0xff, 0x00, 0x00, 0x00, 0x01, 0x14, 0x00, 0x00, 0x00, 
  0x14, 0x00, 0x00, 0x00, 0x12, 0x00, 0x00, 0x00, 0x00, 0x00, 0x00, 0x02, 
  0x30, 0x00, 0x00, 0x00, 0xa0, 0xfb, 0xff, 0xff, 0x20, 0x00, 0x00, 0x00, 
  0x73, 0x65, 0x71, 0x75, 0x65, 0x6e, 0x74, 0x69, 0x61, 0x6c, 0x5f, 0x31, 
  0x2f, 0x6c, 0x73, 0x74, 0x6d, 0x5f, 0x31, 0x2f, 0x77, 0x68, 0x69, 0x6c, 
  0x65, 0x2f, 0x4c, 0x65, 0x73, 0x73, 0x2f, 0x79, 0x00, 0x00, 0x00, 0x00, 
  0x00, 0x00, 0x00, 0x00, 0xee, 0xfc, 0xff, 0xff, 0x00, 0x00, 0x00, 0x01, 
  0x14, 0x00, 0x00, 0x00, 0x14, 0x00, 0x00, 0x00, 0x11, 0x00, 0x00, 0x00, 
  0x00, 0x00, 0x00, 0x02, 0x20, 0x00, 0x00, 0x00, 0xec, 0xfb, 0xff, 0xff, 
  0x10, 0x00, 0x00, 0x00, 0x61, 0x72, 0x69, 0x74, 0x68, 0x2e, 0x63, 0x6f, 
  0x6e, 0x73, 0x74, 0x61, 0x6e, 0x74, 0x31, 0x35, 0x00, 0x00, 0x00, 0x00, 
  0x00, 0x00, 0x00, 0x00, 0x9e, 0xfc, 0xff, 0xff, 0x00, 0x00, 0x00, 0x01, 
  0x10, 0x00, 0x00, 0x00, 0x10, 0x00, 0x00, 0x00, 0x0a, 0x00, 0x00, 0x00, 
  0x20, 0x00, 0x00, 0x00, 0x24, 0xfc, 0xff, 0xff, 0x10, 0x00, 0x00, 0x00, 
